unsigned char digits_model_28x28_int8_augmented_tflite[] = {
  0x20, 0x00, 0x00, 0x00, 0x54, 0x46, 0x4c, 0x33, 0x00, 0x00, 0x00, 0x00,
  0x14, 0x00, 0x20, 0x00, 0x1c, 0x00, 0x18, 0x00, 0x14, 0x00, 0x10, 0x00,
  0x0c, 0x00, 0x00, 0x00, 0x08, 0x00, 0x04, 0x00, 0x14, 0x00, 0x00, 0x00,
  0x1c, 0x00, 0x00, 0x00, 0x94, 0x00, 0x00, 0x00, 0xec, 0x00, 0x00, 0x00,
  0x34, 0xb7, 0x01, 0x00, 0x44, 0xb7, 0x01, 0x00, 0x64, 0xc1, 0x01, 0x00,
  0x03, 0x00, 0x00, 0x00, 0x01, 0x00, 0x00, 0x00, 0x10, 0x00, 0x00, 0x00,
  0x00, 0x00, 0x0a, 0x00, 0x10, 0x00, 0x0c, 0x00, 0x08, 0x00, 0x04, 0x00,
  0x0a, 0x00, 0x00, 0x00, 0x0c, 0x00, 0x00, 0x00, 0x1c, 0x00, 0x00, 0x00,
  0x38, 0x00, 0x00, 0x00, 0x0f, 0x00, 0x00, 0x00, 0x73, 0x65, 0x72, 0x76,
  0x69, 0x6e, 0x67, 0x5f, 0x64, 0x65, 0x66, 0x61, 0x75, 0x6c, 0x74, 0x00,
  0x01, 0x00, 0x00, 0x00, 0x04, 0x00, 0x00, 0x00, 0x94, 0xff, 0xff, 0xff,
  0x0f, 0x00, 0x00, 0x00, 0x04, 0x00, 0x00, 0x00, 0x07, 0x00, 0x00, 0x00,
  0x64, 0x65, 0x6e, 0x73, 0x65, 0x5f, 0x33, 0x00, 0x01, 0x00, 0x00, 0x00,
  0x04, 0x00, 0x00, 0x00, 0xb6, 0x48, 0xfe, 0xff, 0x04, 0x00, 0x00, 0x00,
  0x0d, 0x00, 0x00, 0x00, 0x66, 0x6c, 0x61, 0x74, 0x74, 0x65, 0x6e, 0x5f,
  0x69, 0x6e, 0x70, 0x75, 0x74, 0x00, 0x00, 0x00, 0x02, 0x00, 0x00, 0x00,
  0x34, 0x00, 0x00, 0x00, 0x04, 0x00, 0x00, 0x00, 0xdc, 0xff, 0xff, 0xff,
  0x12, 0x00, 0x00, 0x00, 0x04, 0x00, 0x00, 0x00, 0x13, 0x00, 0x00, 0x00,
  0x43, 0x4f, 0x4e, 0x56, 0x45, 0x52, 0x53, 0x49, 0x4f, 0x4e, 0x5f, 0x4d,
  0x45, 0x54, 0x41, 0x44, 0x41, 0x54, 0x41, 0x00, 0x08, 0x00, 0x0c, 0x00,
  0x08, 0x00, 0x04, 0x00, 0x08, 0x00, 0x00, 0x00, 0x11, 0x00, 0x00, 0x00,
  0x04, 0x00, 0x00, 0x00, 0x13, 0x00, 0x00, 0x00, 0x6d, 0x69, 0x6e, 0x5f,
  0x72, 0x75, 0x6e, 0x74, 0x69, 0x6d, 0x65, 0x5f, 0x76, 0x65, 0x72, 0x73,
  0x69, 0x6f, 0x6e, 0x00, 0x13, 0x00, 0x00, 0x00, 0x44, 0xb6, 0x01, 0x00,
  0x3c, 0xb6, 0x01, 0x00, 0x24, 0xb6, 0x01, 0x00, 0xec, 0xb5, 0x01, 0x00,
  0x9c, 0xb4, 0x01, 0x00, 0x0c, 0xb4, 0x01, 0x00, 0xfc, 0xab, 0x01, 0x00,
  0xec, 0xaa, 0x01, 0x00, 0xdc, 0x8a, 0x01, 0x00, 0xcc, 0x88, 0x01, 0x00,
  0xbc, 0x00, 0x00, 0x00, 0xb4, 0x00, 0x00, 0x00, 0xac, 0x00, 0x00, 0x00,
  0xa4, 0x00, 0x00, 0x00, 0x9c, 0x00, 0x00, 0x00, 0x94, 0x00, 0x00, 0x00,
  0x8c, 0x00, 0x00, 0x00, 0x6c, 0x00, 0x00, 0x00, 0x04, 0x00, 0x00, 0x00,
  0x7e, 0x49, 0xfe, 0xff, 0x04, 0x00, 0x00, 0x00, 0x58, 0x00, 0x00, 0x00,
  0x0c, 0x00, 0x00, 0x00, 0x08, 0x00, 0x0e, 0x00, 0x08, 0x00, 0x04, 0x00,
  0x08, 0x00, 0x00, 0x00, 0x10, 0x00, 0x00, 0x00, 0x28, 0x00, 0x00, 0x00,
  0x00, 0x00, 0x06, 0x00, 0x08, 0x00, 0x04, 0x00, 0x06, 0x00, 0x00, 0x00,
  0x04, 0x00, 0x00, 0x00, 0x01, 0x00, 0x00, 0x00, 0xeb, 0x03, 0x00, 0x00,
  0x00, 0x00, 0x0a, 0x00, 0x10, 0x00, 0x0c, 0x00, 0x08, 0x00, 0x04, 0x00,
  0x0a, 0x00, 0x00, 0x00, 0x02, 0x00, 0x00, 0x00, 0x02, 0x00, 0x00, 0x00,
  0x04, 0x00, 0x00, 0x00, 0x06, 0x00, 0x00, 0x00, 0x32, 0x2e, 0x31, 0x30,
  0x2e, 0x31, 0x00, 0x00, 0xe2, 0x49, 0xfe, 0xff, 0x04, 0x00, 0x00, 0x00,
  0x10, 0x00, 0x00, 0x00, 0x31, 0x2e, 0x31, 0x34, 0x2e, 0x30, 0x00, 0x00,
  0x00, 0x00, 0x00, 0x00, 0x00, 0x00, 0x00, 0x00, 0x30, 0x41, 0xfe, 0xff,
  0x34, 0x41, 0xfe, 0xff, 0x38, 0x41, 0xfe, 0xff, 0x3c, 0x41, 0xfe, 0xff,
  0x40, 0x41, 0xfe, 0xff, 0x44, 0x41, 0xfe, 0xff, 0x16, 0x4a, 0xfe, 0xff,
  0x04, 0x00, 0x00, 0x00, 0x00, 0x88, 0x01, 0x00, 0x00, 0xf8, 0xf9, 0xfb,
  0xf8, 0xff, 0x03, 0xfd, 0x03, 0x09, 0xf9, 0x01, 0x02, 0xfd, 0xf6, 0xf9,
  0xfc, 0xfb, 0xf7, 0xf9, 0x09, 0x00, 0xf7, 0xfb, 0xfa, 0x06, 0x07, 0xfa,
  0xfb, 0xf9, 0x01, 0xfe, 0x0a, 0x0f, 0x0d, 0x0f, 0x10, 0x09, 0xff, 0x05,
  0xf5, 0xfd, 0x0c, 0x07, 0xf9, 0xf9, 0xfd, 0x02, 0xf2, 0xf4, 0xed, 0xf0,
  0xf9, 0xf9, 0x09, 0xfc, 0x03, 0xfa, 0xfb, 0x05, 0x00, 0x0e, 0x0d, 0x12,
  0x13, 0x0b, 0x05, 0xfb, 0xf9, 0xfc, 0x01, 0x03, 0xf4, 0xf7, 0xfa, 0xf7,
  0xef, 0xeb, 0xf8, 0xf2, 0xfa, 0x04, 0x01, 0xfd, 0x01, 0x02, 0x02, 0x0b,
  0x0f, 0x0d, 0x19, 0x12, 0x11, 0x0f, 0x05, 0xfd, 0x04, 0xfb, 0x02, 0x04,
  0xfc, 0xef, 0xee, 0xf2, 0xea, 0xee, 0xff, 0x02, 0xfe, 0x05, 0x04, 0xff,
  0xfb, 0xfd, 0x07, 0x11, 0x12, 0x09, 0x08, 0x06, 0x08, 0x0b, 0xfe, 0xfc,
  0xf4, 0xf3, 0xfc, 0xfe, 0xfd, 0xfb, 0xf1, 0xf1, 0xf3, 0xfb, 0x07, 0x03,
  0x0a, 0x0a, 0x10, 0x0a, 0x04, 0x11, 0x13, 0x10, 0x12, 0x11, 0x08, 0x09,
  0x01, 0x07, 0x07, 0x06, 0xff, 0x01, 0x02, 0xf8, 0xfc, 0x03, 0xfe, 0xf0,
  0xf7, 0xf9, 0x00, 0x06, 0x0a, 0x09, 0x12, 0x00, 0x0d, 0x08, 0x16, 0x14,
  0x11, 0x09, 0x00, 0x03, 0x09, 0x0a, 0x0b, 0x03, 0x05, 0xfc, 0xfc, 0x05,
  0x05, 0x01, 0x02, 0xfe, 0xff, 0xfa, 0xfc, 0x08, 0xfc, 0x03, 0x07, 0x03,
  0x0d, 0x0b, 0x0d, 0x0b, 0x0f, 0x11, 0x05, 0xf8, 0xfb, 0x0b, 0x08, 0x0d,
  0x07, 0x06, 0x08, 0x01, 0xfe, 0x02, 0xf4, 0x02, 0x02, 0xfc, 0x07, 0x02,
  0x06, 0x06, 0x05, 0x12, 0x0e, 0x01, 0x01, 0x06, 0x0c, 0x06, 0xff, 0xfb,
  0x03, 0x06, 0x09, 0x0c, 0x0b, 0x05, 0x06, 0x07, 0xf5, 0xf5, 0xf8, 0xfd,
  0x05, 0xf6, 0xfb, 0x06, 0x02, 0xf8, 0x00, 0x11, 0x13, 0xfa, 0x05, 0x04,
  0x05, 0x05, 0x0e, 0x06, 0x05, 0x08, 0x0c, 0x07, 0xfb, 0x06, 0xfe, 0xf7,
  0xfa, 0xf8, 0xfe, 0x00, 0x05, 0xef, 0xf2, 0xf8, 0xed, 0xdf, 0xec, 0xea,
  0x06, 0x08, 0x15, 0x09, 0x09, 0x03, 0x09, 0xfe, 0x0a, 0x07, 0x06, 0x01,
  0xfd, 0xfc, 0x09, 0xff, 0xfb, 0xfb, 0xfb, 0xfb, 0xf2, 0xf1, 0xe3, 0xe8,
  0xd7, 0xd9, 0xd9, 0xd9, 0x0a, 0x12, 0x14, 0xfb, 0xf9, 0x0a, 0x04, 0xfc,
  0x12, 0x0b, 0x0e, 0xfc, 0xfb, 0xfd, 0x09, 0xfb, 0x02, 0xf7, 0x01, 0x00,
  0xf6, 0xf0, 0xe8, 0xe4, 0xd7, 0xce, 0xdb, 0xe9, 0x07, 0x0c, 0x05, 0xf9,
  0xf9, 0x06, 0x04, 0x01, 0x07, 0x10, 0x04, 0xf7, 0xf5, 0xf3, 0xfd, 0x00,
  0x06, 0x02, 0xfe, 0x02, 0xf3, 0xee, 0xe5, 0xe6, 0xe6, 0xdb, 0xdc, 0xef,
  0x11, 0x01, 0xf5, 0xf9, 0xfb, 0x01, 0xf7, 0xf8, 0xfc, 0xfb, 0x01, 0xf3,
  0xee, 0xe9, 0xed, 0xfd, 0x03, 0x02, 0xff, 0xfd, 0xfb, 0xf5, 0xf0, 0xf6,
  0xf1, 0xeb, 0xde, 0xf5, 0x02, 0xf9, 0xf7, 0xf1, 0xf7, 0xf0, 0xea, 0xec,
  0xf7, 0xf6, 0xf4, 0xec, 0xec, 0xf8, 0xf3, 0x01, 0xff, 0x05, 0x02, 0xff,
  0xfc, 0xfb, 0xf7, 0xfb, 0x03, 0xf8, 0xf2, 0xe8, 0xf9, 0xf7, 0xed, 0xef,
  0xf4, 0xf2, 0xf3, 0xea, 0xed, 0xfb, 0xf4, 0xf6, 0xf8, 0xff, 0xf9, 0xff,
  0xf7, 0xf9, 0xf7, 0x0a, 0x0c, 0xf9, 0xfd, 0x05, 0x0c, 0x06, 0xf4, 0xe6,
  0xf6, 0xf9, 0xf9, 0xf1, 0xfe, 0xf4, 0xf4, 0x02, 0x05, 0x02, 0x00, 0x03,
  0xfb, 0x04, 0xf8, 0xfb, 0xfd, 0xf9, 0x06, 0x0c, 0x07, 0x05, 0x00, 0x17,
  0x16, 0x0a, 0xef, 0xe2, 0xfa, 0xf7, 0xf4, 0xf6, 0x00, 0xfb, 0x07, 0x04,
  0x14, 0x10, 0x10, 0x04, 0x05, 0x00, 0xfe, 0xee, 0xf5, 0xf5, 0x02, 0x0e,
  0x08, 0x05, 0x0b, 0x18, 0x16, 0xfb, 0xf2, 0xe9, 0xf7, 0xfd, 0xfb, 0xf0,
  0xfb, 0x01, 0x03, 0xfa, 0xfe, 0x0e, 0x06, 0xfe, 0xf8, 0xf9, 0xfe, 0xf7,
  0xfb, 0xf2, 0x05, 0x0a, 0x0c, 0x03, 0x0c, 0x0f, 0x09, 0xf5, 0xe1, 0xe2,
  0xf9, 0xf4, 0xf3, 0xf4, 0xf2, 0xf3, 0xfb, 0xfe, 0xfa, 0xfb, 0x03, 0xfb,
  0xf7, 0xfa, 0xfd, 0xfa, 0x02, 0x06, 0x10, 0x14, 0x12, 0x0a, 0x06, 0x02,
  0xee, 0xe2, 0xe7, 0xde, 0xfb, 0xf8, 0xf7, 0xed, 0xef, 0xf1, 0xea, 0xe7,
  0xed, 0xf5, 0xf0, 0xf0, 0xe8, 0xf8, 0xf9, 0x02, 0x09, 0x18, 0x1b, 0x15,
  0x0c, 0x0d, 0x11, 0xfc, 0xec, 0xe2, 0xdc, 0xd8, 0x00, 0xf8, 0xfa, 0xf1,
  0xe9, 0xf3, 0xf7, 0xf3, 0xe4, 0xee, 0xed, 0xe5, 0xe3, 0xed, 0x09, 0x0d,
  0x16, 0x18, 0x1f, 0x16, 0x12, 0x0e, 0x0a, 0xf6, 0xe9, 0xdc, 0xe0, 0xe0,
  0x01, 0x07, 0x07, 0xff, 0xff, 0xff, 0xf4, 0xf1, 0xe5, 0xe4, 0xf2, 0xfc,
  0xfb, 0x02, 0x12, 0x17, 0x19, 0x15, 0x12, 0x0a, 0x0e, 0x0c, 0x02, 0xe6,
  0xe4, 0xe2, 0xe2, 0xeb, 0xff, 0x07, 0x0e, 0x11, 0x09, 0x0a, 0x03, 0xf0,
  0xf2, 0xf0, 0xf8, 0x0e, 0x0e, 0x12, 0x12, 0x1a, 0x18, 0x07, 0x0a, 0x06,
  0x03, 0xfe, 0xf8, 0xda, 0xdb, 0xdb, 0xee, 0xf1, 0x07, 0x0c, 0x0d, 0x1d,
  0x12, 0x0f, 0x07, 0x00, 0x04, 0x0a, 0x08, 0x13, 0x19, 0x10, 0x14, 0x19,
  0x12, 0x06, 0x01, 0xfb, 0x01, 0xf4, 0xe1, 0xd3, 0xdf, 0xe6, 0xf1, 0xf4,
  0x00, 0x0e, 0x12, 0x0c, 0x19, 0x08, 0x07, 0x0e, 0x0b, 0x19, 0x20, 0x1b,
  0x1f, 0x1a, 0x17, 0x08, 0xfe, 0x00, 0xfc, 0x03, 0xee, 0xea, 0xda, 0xcf,
  0xdc, 0xeb, 0xf8, 0xfc, 0x08, 0x0e, 0x0c, 0x1b, 0x14, 0x0d, 0x0c, 0x14,
  0x17, 0x1d, 0x15, 0x0b, 0x11, 0x12, 0x0d, 0x03, 0x02, 0xfa, 0xf5, 0xf0,
  0xef, 0xe6, 0xdc, 0xdc, 0xdf, 0xea, 0xfc, 0xfb, 0xfe, 0x06, 0x03, 0x0e,
  0x1a, 0x18, 0x1f, 0x28, 0x24, 0x1e, 0x13, 0xfe, 0xf9, 0x01, 0x03, 0xf9,
  0xf9, 0xf2, 0xee, 0xea, 0xe5, 0xd9, 0xe1, 0xe0, 0xeb, 0xed, 0xfc, 0xfe,
  0xfb, 0x01, 0x01, 0xfb, 0xfd, 0xfc, 0x00, 0x09, 0xfb, 0xfd, 0xfb, 0xfc,
  0x03, 0xfc, 0xff, 0xfd, 0xfa, 0x04, 0x05, 0x00, 0x07, 0xff, 0x09, 0x06,
  0x02, 0xfe, 0x09, 0xfb, 0x00, 0x03, 0xfb, 0x08, 0x01, 0xfa, 0xff, 0xfb,
  0x06, 0x05, 0xfa, 0xfa, 0x00, 0xfe, 0xf6, 0xfc, 0xf5, 0x02, 0xfd, 0xfe,
  0x07, 0x03, 0xfd, 0x07, 0x0a, 0x05, 0x00, 0x03, 0x06, 0xfb, 0x00, 0x00,
  0x05, 0x05, 0xfc, 0xf9, 0x04, 0xfe, 0xf7, 0xff, 0xf9, 0xf1, 0xf7, 0xf4,
  0xfe, 0x00, 0xff, 0xfc, 0x07, 0x09, 0x05, 0x0a, 0x03, 0xff, 0xfc, 0xfe,
  0x04, 0x06, 0xff, 0x01, 0x00, 0xfb, 0xf8, 0xff, 0xfa, 0x03, 0x00, 0x00,
  0xfb, 0xf9, 0xfa, 0xfa, 0xf2, 0xfd, 0xfc, 0x00, 0x02, 0x09, 0x04, 0x0e,
  0x02, 0x0d, 0x06, 0x03, 0x01, 0xfa, 0xfa, 0x07, 0xfe, 0xfd, 0x06, 0x00,
  0xf9, 0xfd, 0xf6, 0xf9, 0xf8, 0xf0, 0xec, 0xf3, 0xfb, 0xfb, 0x05, 0x00,
  0x05, 0x0b, 0x03, 0x0e, 0x0d, 0x0a, 0x02, 0x04, 0x05, 0x06, 0x02, 0x06,
  0xfd, 0x00, 0xf8, 0x04, 0x00, 0x03, 0xff, 0xf8, 0xfd, 0xf6, 0xed, 0xf9,
  0xf5, 0xf1, 0xf3, 0x03, 0x05, 0x03, 0x10, 0x0c, 0x04, 0x0b, 0x0d, 0x08,
  0x04, 0x03, 0xfd, 0xf9, 0xfe, 0x06, 0x02, 0xfc, 0xfb, 0xfa, 0xf6, 0xfc,
  0xf0, 0xf1, 0xeb, 0xe6, 0xec, 0xf3, 0xf8, 0xfc, 0x08, 0x04, 0x08, 0x0b,
  0x02, 0x0f, 0x01, 0x07, 0x06, 0xfd, 0xfc, 0x00, 0xfe, 0x05, 0x02, 0xfa,
  0x04, 0xf6, 0xfb, 0xff, 0xf0, 0xf2, 0xea, 0xe3, 0xd7, 0xe3, 0xe2, 0xec,
  0xf5, 0xfa, 0xfb, 0xfd, 0x01, 0x08, 0x09, 0x06, 0xfd, 0x03, 0x00, 0x0e,
  0x04, 0x0c, 0x0b, 0x04, 0x03, 0x05, 0x0b, 0x09, 0xff, 0xf6, 0xef, 0xd9,
  0xd5, 0xd4, 0xdb, 0xdc, 0xe0, 0xef, 0xf6, 0xff, 0x09, 0xff, 0x0a, 0x05,
  0x06, 0xfd, 0x0e, 0x09, 0x11, 0x0b, 0x0f, 0x09, 0x08, 0x07, 0x1c, 0x20,
  0x12, 0x10, 0xf3, 0xe1, 0xcb, 0xc8, 0xd4, 0xd5, 0xe1, 0xe0, 0xe5, 0xf2,
  0xfc, 0x09, 0x00, 0xff, 0x01, 0x03, 0x05, 0x0f, 0x14, 0x13, 0x0d, 0x09,
  0x17, 0x11, 0x29, 0x2a, 0x31, 0x16, 0xfe, 0xe7, 0xda, 0xdd, 0xe1, 0xe7,
  0xdd, 0xe0, 0xe7, 0xf0, 0xf6, 0x03, 0x0c, 0x06, 0xff, 0x07, 0x06, 0x1a,
  0x15, 0x15, 0x12, 0x18, 0x17, 0x20, 0x35, 0x33, 0x2c, 0x23, 0xf6, 0xd7,
  0xe3, 0xed, 0xf6, 0xf1, 0xee, 0xea, 0xeb, 0xf5, 0xff, 0x02, 0x0a, 0x02,
  0xfb, 0x05, 0x0c, 0x13, 0x15, 0x19, 0x1a, 0x16, 0x1e, 0x25, 0x34, 0x33,
  0x2f, 0x24, 0xfd, 0xd5, 0xe2, 0xfd, 0xff, 0x00, 0xf6, 0xef, 0xf5, 0xf8,
  0xfa, 0x02, 0x00, 0xfb, 0xff, 0x07, 0x0f, 0x1d, 0x15, 0x1e, 0x1e, 0x1d,
  0x1e, 0x19, 0x28, 0x2b, 0x24, 0x14, 0xf3, 0xdd, 0xdf, 0xf0, 0xfa, 0xfd,
  0xf3, 0xf1, 0xf0, 0xfd, 0x01, 0x05, 0x05, 0x05, 0x09, 0x0a, 0x0a, 0x0f,
  0x1d, 0x14, 0x18, 0x0d, 0x17, 0x14, 0x1d, 0x28, 0x22, 0x17, 0xf0, 0xd0,
  0xe0, 0xea, 0xf7, 0xef, 0xee, 0xf3, 0xf4, 0xf7, 0xf9, 0xfd, 0xfe, 0xfc,
  0x09, 0x0b, 0x12, 0x15, 0x1a, 0x14, 0x16, 0x14, 0x15, 0x19, 0x1c, 0x1c,
  0x1e, 0x13, 0xfa, 0xd9, 0xdc, 0xf4, 0xef, 0xf4, 0xf1, 0xf3, 0xfd, 0xfb,
  0xff, 0xfb, 0x08, 0x02, 0x08, 0x00, 0x03, 0x13, 0x13, 0x0f, 0x14, 0x13,
  0x12, 0x17, 0x0e, 0x0c, 0x15, 0x02, 0xf2, 0xde, 0xf2, 0xfb, 0xfb, 0xfd,
  0xfb, 0xfe, 0xfb, 0xff, 0x00, 0x00, 0xf8, 0x04, 0x04, 0x02, 0x05, 0x0c,
  0x03, 0x11, 0x10, 0x0d, 0x09, 0x0a, 0x13, 0x11, 0x09, 0xf7, 0xfd, 0xf4,
  0xff, 0xfb, 0xfe, 0xfc, 0xfa, 0xfc, 0xfb, 0xfa, 0xfd, 0xff, 0x04, 0xfa,
  0x03, 0x05, 0xfa, 0x03, 0x00, 0x02, 0x03, 0x0b, 0x07, 0x02, 0x0a, 0x06,
  0x02, 0xff, 0xfc, 0xfe, 0x08, 0x05, 0x07, 0xf8, 0xfe, 0xf8, 0xfa, 0xfc,
  0xfa, 0xf9, 0xfd, 0x05, 0x01, 0xfc, 0xf8, 0xfc, 0x01, 0x01, 0x09, 0x00,
  0x02, 0x03, 0x03, 0xfe, 0xfb, 0x00, 0xfd, 0x01, 0x08, 0x05, 0x01, 0xf7,
  0xf6, 0xfc, 0xfc, 0xff, 0xf4, 0xfa, 0xf8, 0x00, 0x05, 0x01, 0xf8, 0xf8,
  0x04, 0xfd, 0xfd, 0xfc, 0xfa, 0xff, 0xf9, 0x03, 0x01, 0x07, 0xfe, 0x09,
  0x00, 0xf4, 0xff, 0xf0, 0xef, 0xf5, 0xf1, 0xf4, 0xfa, 0xfe, 0xf8, 0xfb,
  0x00, 0xf6, 0xfd, 0xf3, 0xfd, 0xfe, 0xff, 0xfb, 0xf8, 0xf7, 0x00, 0xfd,
  0xfc, 0x08, 0xff, 0xfb, 0xfe, 0xf3, 0xfa, 0xf2, 0xfa, 0x01, 0xfa, 0xff,
  0xfd, 0x01, 0xfc, 0xfb, 0x02, 0xfb, 0xf4, 0xfb, 0xff, 0xfc, 0xf2, 0x00,
  0xfe, 0x01, 0xfa, 0x04, 0x00, 0x06, 0x06, 0x01, 0x00, 0x01, 0xff, 0x08,
  0x03, 0x00, 0xfb, 0xfd, 0xfb, 0xfe, 0xfc, 0x03, 0xfc, 0x05, 0xf5, 0xfc,
  0xf8, 0xf9, 0xf9, 0xfc, 0xf7, 0xfd, 0xfc, 0x08, 0x04, 0xfa, 0x05, 0xf8,
  0xff, 0x05, 0x08, 0xff, 0xfe, 0x02, 0x07, 0x04, 0xfd, 0x02, 0x06, 0x00,
  0x08, 0xfa, 0xff, 0xf6, 0xfa, 0xfd, 0xf8, 0xfd, 0x00, 0x03, 0x03, 0x00,
  0x00, 0x02, 0xfa, 0xff, 0xfe, 0x0a, 0xfe, 0x06, 0x09, 0xff, 0x02, 0x07,
  0x07, 0x09, 0x05, 0xfe, 0xfa, 0x02, 0x04, 0x01, 0xfb, 0xf9, 0x00, 0xf8,
  0xff, 0x03, 0xfa, 0xff, 0x00, 0xfa, 0x00, 0xfb, 0x01, 0xff, 0x02, 0x0a,
  0xfd, 0xff, 0x04, 0x06, 0x06, 0x06, 0x05, 0x04, 0x00, 0x07, 0x03, 0x03,
  0x01, 0xf7, 0x00, 0x02, 0x02, 0xf9, 0xfe, 0x05, 0xf7, 0x01, 0xfb, 0xfa,
  0x03, 0x02, 0x02, 0x02, 0x01, 0x06, 0x03, 0x03, 0x00, 0x04, 0xff, 0x00,
  0x04, 0xfc, 0x06, 0x04, 0xfd, 0x01, 0xfe, 0xfe, 0xf9, 0xf9, 0xff, 0xf9,
  0xf6, 0xfd, 0x00, 0x01, 0x07, 0x03, 0x02, 0x07, 0xfc, 0x01, 0x05, 0xfc,
  0x03, 0x09, 0x01, 0x04, 0x03, 0xff, 0x02, 0xf5, 0xfd, 0xf2, 0xed, 0xf0,
  0xf4, 0xfa, 0x07, 0x07, 0xff, 0xf3, 0xee, 0xef, 0xec, 0xfa, 0x05, 0x04,
  0x0e, 0x09, 0x0c, 0x00, 0x03, 0x07, 0xfc, 0x04, 0x06, 0x08, 0xfb, 0xf7,
  0xf5, 0xf7, 0xf3, 0xf6, 0xf0, 0x02, 0x0b, 0x12, 0x0b, 0x0b, 0xf2, 0xfa,
  0xf1, 0xfc, 0x03, 0x08, 0x12, 0x04, 0x0d, 0x03, 0xf6, 0xfd, 0x00, 0xf7,
  0x00, 0x00, 0xf8, 0xf8, 0xf4, 0xfc, 0xfe, 0xfd, 0x00, 0x06, 0xfb, 0x00,
  0xf5, 0x02, 0xf8, 0xf7, 0xf8, 0xf2, 0xfc, 0x0d, 0x14, 0x15, 0x10, 0x05,
  0x00, 0xf8, 0xfd, 0xee, 0x03, 0xfe, 0xfd, 0x08, 0x0b, 0x03, 0x03, 0x02,
  0xfc, 0xfc, 0x01, 0xf8, 0xef, 0xfe, 0xfe, 0xf7, 0xf4, 0xf3, 0xf8, 0x0c,
  0x09, 0x14, 0x0b, 0x0c, 0x0a, 0x01, 0xf1, 0xe7, 0x12, 0x17, 0x0e, 0x16,
  0x07, 0x00, 0x08, 0x05, 0x06, 0xfc, 0xf8, 0xfe, 0xfa, 0xfa, 0xf2, 0xfc,
  0xf5, 0x03, 0x0a, 0x0d, 0x09, 0xff, 0x06, 0x09, 0x04, 0x04, 0xf1, 0xef,
  0x07, 0x13, 0x04, 0x09, 0x03, 0xfa, 0x06, 0x03, 0x02, 0xfe, 0xfe, 0xfa,
  0x05, 0xfc, 0xfb, 0xf6, 0xfe, 0x01, 0x0c, 0xff, 0x04, 0x05, 0x11, 0x0b,
  0x02, 0xff, 0xe5, 0xd9, 0x01, 0x0f, 0x0e, 0xfb, 0xfe, 0xfe, 0x0d, 0x0c,
  0x09, 0xfe, 0xfb, 0x09, 0x02, 0xf9, 0xfb, 0xfd, 0xfc, 0xfe, 0x04, 0x09,
  0x02, 0x00, 0x04, 0x0b, 0xfe, 0xe7, 0xe2, 0xf3, 0xf4, 0xf6, 0x00, 0xfa,
  0xf1, 0xfd, 0x01, 0x09, 0xfe, 0x00, 0xf8, 0x00, 0xf8, 0x01, 0x02, 0xff,
  0xfc, 0xfb, 0x04, 0x03, 0xfd, 0xfb, 0x04, 0xfb, 0xe8, 0xd7, 0xde, 0xeb,
  0xeb, 0xe5, 0xf6, 0xf0, 0xfa, 0x03, 0xfb, 0x05, 0xfd, 0xf1, 0xf3, 0x02,
  0xfa, 0xfd, 0xff, 0xfb, 0x03, 0xfd, 0x05, 0x07, 0x03, 0x02, 0xfe, 0xf2,
  0xf0, 0xe0, 0xe0, 0xef, 0xf4, 0xee, 0xea, 0xfa, 0xfc, 0xfb, 0x02, 0x09,
  0x00, 0xf4, 0xf9, 0xf0, 0xfe, 0x00, 0xfe, 0xf8, 0x09, 0x07, 0x0c, 0x03,
  0x03, 0x02, 0xf4, 0xf1, 0xe9, 0xdf, 0xd6, 0xe2, 0xfa, 0xe5, 0xf1, 0xfd,
  0x0d, 0x05, 0x03, 0xfe, 0xf7, 0xfb, 0xfe, 0xfc, 0xff, 0x06, 0xfb, 0x00,
  0x09, 0x13, 0x18, 0x01, 0xfe, 0xf7, 0xe9, 0xe3, 0xd8, 0xe0, 0xdf, 0xf7,
  0xf6, 0xe5, 0xf0, 0xfa, 0x08, 0x0d, 0x06, 0x0a, 0xfd, 0x00, 0xf6, 0xf8,
  0x03, 0xfe, 0x04, 0xfd, 0x10, 0x19, 0x15, 0x0f, 0xf5, 0xec, 0xd8, 0xe0,
  0xd6, 0xde, 0xec, 0xed, 0xf4, 0xe3, 0xf3, 0xfd, 0x07, 0x0a, 0x09, 0x03,
  0x04, 0x08, 0x08, 0xfc, 0xf7, 0xfc, 0x01, 0x06, 0x10, 0x1d, 0x1c, 0x07,
  0xee, 0xe3, 0xdc, 0xd3, 0xca, 0xd5, 0xe0, 0xed, 0xe0, 0xe0, 0xf5, 0xfe,
  0x07, 0x0b, 0x03, 0x06, 0x03, 0x10, 0x0a, 0x01, 0xf1, 0xee, 0x06, 0x11,
  0x17, 0x1d, 0x13, 0x0a, 0xf2, 0xdb, 0xdd, 0xd2, 0xc1, 0xd2, 0xd4, 0xea,
  0xd9, 0xcf, 0xec, 0xff, 0xff, 0x01, 0x03, 0x02, 0x05, 0x00, 0xfe, 0xfd,
  0xeb, 0xfc, 0x09, 0x13, 0x1b, 0x17, 0x13, 0x09, 0xdf, 0xcf, 0xcb, 0xc4,
  0xd6, 0xd8, 0xe7, 0xe9, 0xdc, 0xd8, 0xeb, 0xf2, 0xfa, 0xf1, 0xf2, 0xfc,
  0xfb, 0xff, 0xf7, 0xf8, 0xf6, 0xf7, 0x0a, 0x17, 0x05, 0xfa, 0xf7, 0xea,
  0xcb, 0xc2, 0xaa, 0xaa, 0xce, 0xde, 0xef, 0xf8, 0xe6, 0xe0, 0xea, 0xe9,
  0xef, 0xed, 0xf1, 0x01, 0xf5, 0xfa, 0xfb, 0xfa, 0xf4, 0xfa, 0x0d, 0x0c,
  0x07, 0xf2, 0xee, 0xce, 0xb6, 0xb8, 0xae, 0xb2, 0xc6, 0xe9, 0xea, 0xf8,
  0xe3, 0xee, 0xef, 0xe3, 0xf5, 0xfd, 0xfc, 0xff, 0xf6, 0x01, 0x01, 0xf9,
  0xf3, 0xf9, 0x02, 0x07, 0xf4, 0xe3, 0xd1, 0xba, 0xb2, 0xc3, 0xd1, 0xd1,
  0xe9, 0xf3, 0xf8, 0x09, 0xea, 0xf1, 0xea, 0xf0, 0x03, 0xff, 0x03, 0x02,
  0xf2, 0xf5, 0xf4, 0xf1, 0xee, 0xf3, 0xff, 0xf0, 0xe9, 0xdb, 0xd0, 0xb9,
  0xc9, 0xe3, 0xf1, 0xf4, 0x01, 0x09, 0xff, 0x0a, 0xf0, 0xed, 0xf7, 0xfb,
  0x0b, 0x05, 0x00, 0x04, 0xf3, 0xf8, 0xf9, 0xf0, 0xf2, 0xf8, 0x03, 0xfb,
  0xeb, 0xe2, 0xe2, 0xdf, 0xec, 0x0e, 0x15, 0x06, 0x09, 0xff, 0x0a, 0x04,
  0x01, 0xef, 0xff, 0x05, 0x00, 0xff, 0xf7, 0xf5, 0xfa, 0x08, 0x0e, 0x09,
  0x0c, 0x11, 0x0d, 0x08, 0x0f, 0x0f, 0xfd, 0x0e, 0x09, 0x1e, 0x17, 0x0a,
  0x00, 0xfd, 0xf8, 0x0b, 0x01, 0xff, 0x07, 0x09, 0x04, 0xf9, 0xff, 0xfd,
  0x05, 0x0a, 0x09, 0x09, 0x11, 0x19, 0x1c, 0x1f, 0x20, 0x22, 0x1f, 0x1c,
  0x10, 0x1d, 0x06, 0xf4, 0xfe, 0xf4, 0x05, 0x0c, 0x02, 0xfa, 0xf7, 0xf6,
  0xff, 0xf8, 0xf9, 0x06, 0x00, 0x0b, 0x02, 0x07, 0x09, 0x0f, 0x0f, 0x14,
  0x1d, 0x20, 0x21, 0x0e, 0x11, 0x0e, 0x06, 0xef, 0xf6, 0x05, 0x0f, 0x14,
  0x01, 0xf7, 0xfc, 0xf4, 0xf1, 0x06, 0x0c, 0x05, 0x00, 0x04, 0x04, 0xfd,
  0x03, 0x01, 0xfc, 0x09, 0x17, 0x1f, 0x11, 0x0f, 0x11, 0x14, 0xff, 0xf8,
  0xfe, 0x0c, 0x0d, 0x09, 0xf5, 0xf8, 0xf5, 0xf8, 0xf1, 0xfa, 0xfc, 0x09,
  0x08, 0xf7, 0xf7, 0x04, 0xfe, 0xff, 0xff, 0x0d, 0x15, 0x22, 0x1d, 0x10,
  0x06, 0x09, 0x0c, 0x04, 0x0a, 0x0f, 0x15, 0x13, 0xfb, 0xfb, 0x02, 0xff,
  0xea, 0xf8, 0xfa, 0x05, 0xfa, 0xf9, 0xf4, 0xff, 0xf6, 0xf2, 0x04, 0x00,
  0x0b, 0x14, 0x15, 0x04, 0x05, 0x05, 0x12, 0x17, 0x08, 0x15, 0x14, 0x0c,
  0xfe, 0xff, 0xf9, 0xf9, 0x00, 0xeb, 0xee, 0xed, 0xfb, 0xf5, 0x00, 0x01,
  0xf9, 0xfb, 0xf2, 0xf8, 0x0a, 0x17, 0x13, 0xfa, 0xef, 0x05, 0x0a, 0x0b,
  0x0e, 0x11, 0x08, 0x09, 0x01, 0xf0, 0xf3, 0xf1, 0xf9, 0xff, 0xf5, 0xee,
  0xef, 0xee, 0xf0, 0xfa, 0xee, 0xed, 0xe1, 0xf4, 0x00, 0x07, 0xfe, 0xe5,
  0xd7, 0xf5, 0xfe, 0x05, 0x08, 0x0d, 0x01, 0xfd, 0x01, 0xf8, 0xf7, 0xf6,
  0xfb, 0xfd, 0xfe, 0xf5, 0xec, 0xee, 0xec, 0xe8, 0xe3, 0xdb, 0xe3, 0xe2,
  0xde, 0xea, 0xe1, 0xf4, 0xe8, 0xe5, 0xe6, 0xf3, 0xfe, 0xef, 0xfd, 0xf9,
  0xf8, 0xf8, 0xf7, 0xf0, 0xfa, 0xf2, 0xf5, 0xe6, 0xea, 0xea, 0xe3, 0xe4,
  0xda, 0xe1, 0xcf, 0xd0, 0xd5, 0xe4, 0xd9, 0xda, 0xe2, 0xd6, 0xdd, 0xf0,
  0xee, 0xef, 0xfa, 0xff, 0xf2, 0xf7, 0xee, 0xee, 0xf0, 0xe5, 0xd7, 0xd0,
  0xd8, 0xd9, 0xd7, 0xd9, 0xd3, 0xc4, 0xbe, 0xc1, 0xce, 0xd5, 0xcc, 0xdf,
  0xe1, 0xd3, 0xe0, 0xe9, 0xe5, 0xed, 0xe3, 0xe9, 0xf4, 0xf8, 0xe9, 0xf1,
  0xe8, 0xdb, 0xd2, 0xcf, 0xcb, 0xda, 0xcc, 0xce, 0xcc, 0xb4, 0xb1, 0xb2,
  0xc7, 0xc4, 0xd8, 0xd2, 0xd1, 0xd2, 0xd5, 0xd8, 0xf2, 0xf1, 0xf4, 0xec,
  0xfb, 0xfc, 0xee, 0xe0, 0xdf, 0xdd, 0xd7, 0xbf, 0xc3, 0xbe, 0xc2, 0xc3,
  0xcb, 0xd7, 0xc9, 0xcc, 0xcb, 0xd9, 0xe7, 0xdd, 0xd8, 0xcd, 0xd4, 0xdf,
  0xe8, 0xef, 0xf1, 0xf1, 0x01, 0xf7, 0xea, 0xd8, 0xd8, 0xda, 0xda, 0xc1,
  0xc2, 0xc1, 0xd7, 0xe5, 0xef, 0xf0, 0xfb, 0x01, 0xf4, 0xf2, 0xf2, 0xef,
  0xf0, 0xf3, 0xec, 0xea, 0xea, 0xf5, 0xf9, 0xea, 0xfb, 0xf5, 0xe5, 0xd4,
  0xcf, 0xd2, 0xc9, 0xca, 0xcd, 0xe0, 0xed, 0xf6, 0x03, 0x08, 0x01, 0xfa,
  0xfd, 0xff, 0x04, 0x0a, 0x07, 0xff, 0xff, 0xf9, 0xf7, 0xf3, 0xf3, 0xf6,
  0xf4, 0xe5, 0xda, 0xd0, 0xd7, 0xe2, 0xdc, 0xf4, 0xf3, 0xf9, 0x07, 0x08,
  0xf8, 0xf5, 0xf6, 0xfb, 0x04, 0x08, 0x09, 0x0b, 0xff, 0x05, 0x05, 0xf9,
  0x02, 0xfd, 0x08, 0x14, 0xfb, 0xe8, 0xd9, 0xeb, 0xee, 0xf0, 0x01, 0xfd,
  0x08, 0x08, 0x0e, 0x04, 0xfa, 0x00, 0x03, 0x02, 0xff, 0xff, 0x05, 0x03,
  0x07, 0x0c, 0x06, 0x01, 0x02, 0x0e, 0x13, 0x21, 0xf2, 0xed, 0xf6, 0xff,
  0xf9, 0x08, 0x0f, 0x10, 0x13, 0x06, 0x0b, 0xfe, 0x02, 0xff, 0x07, 0x05,
  0xfb, 0x03, 0x07, 0x04, 0x0f, 0x0d, 0x0b, 0x06, 0xfc, 0x03, 0x15, 0x1a,
  0x01, 0xfa, 0x02, 0x0a, 0xfb, 0x03, 0x0d, 0x16, 0x0d, 0x07, 0x04, 0x06,
  0xfe, 0x00, 0x0e, 0x08, 0x07, 0x0d, 0x13, 0x06, 0x09, 0x09, 0x03, 0xfd,
  0xfe, 0xfb, 0x08, 0x1b, 0xfd, 0xfe, 0x04, 0x0e, 0x09, 0x0d, 0x13, 0x0f,
  0x15, 0x12, 0x03, 0xfb, 0xfa, 0x0b, 0x0a, 0x15, 0x11, 0x0e, 0x08, 0x02,
  0x09, 0x07, 0x01, 0xff, 0xff, 0xfe, 0x10, 0x09, 0x04, 0x00, 0xfe, 0x0f,
  0x05, 0x06, 0x0f, 0x15, 0x11, 0x15, 0x0e, 0xfc, 0x04, 0x0a, 0x06, 0x0a,
  0x0e, 0x10, 0x06, 0x08, 0x08, 0x02, 0xfb, 0x03, 0x07, 0x0a, 0x01, 0xff,
  0x03, 0x0a, 0x08, 0x13, 0x15, 0x0d, 0x15, 0x0d, 0x08, 0x0c, 0x05, 0x02,
  0x03, 0xfb, 0xf9, 0x03, 0x06, 0x04, 0x01, 0x10, 0x07, 0x06, 0x0b, 0x0a,
  0x09, 0xff, 0xfd, 0x07, 0x13, 0x16, 0x0d, 0x18, 0x18, 0x11, 0x18, 0x0e,
  0x09, 0x0d, 0x0d, 0x00, 0xf6, 0xf7, 0xf7, 0xf9, 0xff, 0x01, 0xff, 0x04,
  0x0d, 0x07, 0x01, 0x00, 0x00, 0xf7, 0xf4, 0xf8, 0xfd, 0x10, 0x11, 0x15,
  0x10, 0x0c, 0x09, 0x06, 0x0c, 0x0f, 0xff, 0xfe, 0xf5, 0xf6, 0xf4, 0xfc,
  0xf7, 0xfa, 0xf0, 0xf4, 0xfb, 0xfc, 0xf8, 0xf7, 0x00, 0xf5, 0xf4, 0x06,
  0xf9, 0x04, 0x0c, 0x09, 0xfe, 0x02, 0x04, 0x13, 0x0d, 0x03, 0xfb, 0xfa,
  0xf5, 0xfa, 0xfa, 0xf9, 0xfe, 0xf4, 0xec, 0xed, 0xfb, 0xfa, 0xfc, 0x06,
  0x07, 0x02, 0x05, 0x04, 0xfb, 0x07, 0xf9, 0xf3, 0x01, 0x04, 0x02, 0x05,
  0x05, 0xff, 0xfe, 0xfb, 0xf7, 0xfa, 0x08, 0xf4, 0xf7, 0xee, 0xee, 0xf6,
  0xef, 0xf8, 0x0a, 0x04, 0x04, 0x18, 0x15, 0x0d, 0x00, 0x0f, 0xfc, 0xef,
  0xf9, 0xf7, 0xff, 0xfd, 0xf9, 0xff, 0x02, 0xfe, 0x00, 0x0f, 0x0b, 0xfb,
  0xfa, 0xed, 0xe6, 0xf5, 0xeb, 0x05, 0x0d, 0x18, 0x11, 0x0e, 0x19, 0x09,
  0x01, 0x0f, 0xf6, 0xfc, 0xf9, 0xfc, 0x04, 0x04, 0xfd, 0xfe, 0x07, 0x08,
  0x0c, 0x01, 0xfc, 0xfc, 0xf7, 0xf5, 0xf0, 0xf4, 0x03, 0x08, 0x13, 0x12,
  0x14, 0x14, 0x12, 0x0e, 0xfc, 0x07, 0xf7, 0xf5, 0xf2, 0xf7, 0xfc, 0xfe,
  0xf0, 0xf5, 0xfc, 0xfc, 0xf7, 0xfb, 0xe8, 0xeb, 0xf3, 0xec, 0xf4, 0x07,
  0x08, 0x1c, 0x1c, 0x1b, 0x18, 0x1b, 0x0e, 0x16, 0xf0, 0x01, 0x04, 0xf2,
  0xe2, 0xf0, 0xf2, 0xf4, 0xf8, 0xfd, 0xf2, 0xf1, 0xee, 0xe6, 0xe3, 0xeb,
  0xe9, 0xf7, 0xff, 0x0d, 0x16, 0x21, 0x14, 0x18, 0x0a, 0x16, 0x18, 0x15,
  0xe7, 0xfa, 0xfc, 0xf8, 0xea, 0xf2, 0xe6, 0xee, 0xf8, 0x01, 0xee, 0xef,
  0xef, 0xee, 0xf0, 0xeb, 0xeb, 0xfa, 0xfd, 0x0b, 0x12, 0x1d, 0x14, 0x11,
  0x08, 0x16, 0x22, 0x12, 0xf4, 0xf2, 0xf8, 0xf6, 0xf5, 0xfc, 0xe7, 0xec,
  0xf8, 0xf3, 0xef, 0xe7, 0xf6, 0xef, 0xf8, 0x01, 0x01, 0x00, 0xfa, 0x0d,
  0x16, 0x0a, 0x11, 0x0b, 0x19, 0x26, 0x20, 0x0c, 0x02, 0x00, 0xfa, 0xfe,
  0x10, 0x11, 0xfe, 0x00, 0xfe, 0xf5, 0xfb, 0xfd, 0x06, 0x02, 0x04, 0x09,
  0x04, 0x07, 0x0d, 0x0b, 0x1b, 0x0e, 0x0e, 0x16, 0x16, 0x13, 0x1d, 0x0a,
  0xff, 0xf7, 0xfa, 0x03, 0x0e, 0x06, 0x00, 0x06, 0x0d, 0x03, 0x02, 0x08,
  0x00, 0x0a, 0x0c, 0x0d, 0x07, 0x06, 0x05, 0x08, 0x1a, 0x17, 0x0f, 0x12,
  0x1c, 0x18, 0x1c, 0x0e, 0x00, 0xf9, 0xfd, 0x06, 0xf9, 0xf2, 0xf7, 0x02,
  0x05, 0x09, 0x0b, 0x05, 0x11, 0x04, 0x0d, 0x0c, 0x0b, 0x07, 0x17, 0x18,
  0x1d, 0x17, 0x11, 0x16, 0x12, 0x16, 0x0a, 0x11, 0xf3, 0xfd, 0x04, 0xff,
  0x03, 0x0c, 0x0f, 0x0c, 0x11, 0x11, 0x0e, 0x17, 0x15, 0x16, 0x12, 0x07,
  0x05, 0x0f, 0x1a, 0x22, 0x20, 0x1b, 0x11, 0x10, 0x06, 0xf9, 0xf9, 0xfb,
  0x07, 0x0a, 0x01, 0x05, 0xfd, 0xff, 0xf9, 0xf9, 0xf5, 0x02, 0xf2, 0xf8,
  0xfe, 0xff, 0xe9, 0xef, 0xf7, 0xf6, 0xfd, 0xff, 0xfc, 0x01, 0x02, 0xf6,
  0x03, 0xfc, 0x0a, 0x04, 0x0a, 0x02, 0x0a, 0x00, 0xf0, 0xf9, 0xff, 0x02,
  0x07, 0x09, 0x00, 0xfd, 0xff, 0xf8, 0xf5, 0xf9, 0x07, 0xfd, 0x06, 0xf5,
  0xfe, 0xfc, 0xef, 0xf2, 0xf0, 0xf1, 0x02, 0x0b, 0x0d, 0x02, 0x02, 0xf7,
  0xf6, 0xf3, 0xfc, 0x06, 0x03, 0x02, 0x01, 0xfc, 0xf8, 0xfb, 0xff, 0x08,
  0x02, 0xff, 0xfb, 0xfc, 0x04, 0xf1, 0x01, 0xfa, 0xf5, 0xfa, 0xef, 0xfe,
  0x0d, 0x03, 0x03, 0x05, 0xfc, 0xf6, 0xfe, 0x0b, 0x0b, 0x03, 0x08, 0xf7,
  0x03, 0xff, 0x04, 0x09, 0x02, 0xff, 0x05, 0x03, 0xf9, 0xf6, 0x02, 0xf9,
  0xfa, 0xf9, 0xf6, 0xfc, 0x12, 0xfb, 0x00, 0xfc, 0x05, 0xf3, 0x06, 0x07,
  0x00, 0x03, 0xf8, 0x05, 0xff, 0xff, 0x04, 0xf6, 0xfe, 0xfb, 0xfa, 0x02,
  0xf8, 0xfa, 0xf5, 0xfb, 0xf9, 0xf8, 0x02, 0xfc, 0x0e, 0xf8, 0xff, 0x04,
  0x04, 0xf9, 0xff, 0xf8, 0xfc, 0xf7, 0xf6, 0xfe, 0xfb, 0xfd, 0xf9, 0xf5,
  0xfb, 0xf5, 0xf9, 0x03, 0x00, 0xfb, 0xf6, 0xf6, 0xff, 0xff, 0xfb, 0xfc,
  0x03, 0xff, 0x0a, 0x02, 0x04, 0xff, 0xfd, 0xff, 0xf9, 0xf5, 0x04, 0xfe,
  0xfd, 0xfc, 0xff, 0xf9, 0x01, 0x05, 0x02, 0xff, 0x06, 0x02, 0xff, 0x02,
  0xfe, 0x0c, 0xfb, 0xfc, 0x0c, 0xf9, 0xfe, 0xfb, 0xff, 0x01, 0x08, 0x09,
  0xfe, 0xfb, 0x00, 0x02, 0xf7, 0xf7, 0xf6, 0xf8, 0x07, 0xfe, 0x02, 0x08,
  0xff, 0xfa, 0x0b, 0x06, 0x01, 0x00, 0x00, 0x03, 0x0f, 0x01, 0xfb, 0xf7,
  0x0c, 0x04, 0x01, 0x04, 0x04, 0xf8, 0xfe, 0x0c, 0xfe, 0xf9, 0x06, 0xfd,
  0x07, 0xff, 0x07, 0xff, 0xfe, 0xff, 0x02, 0x00, 0x06, 0x05, 0x04, 0x18,
  0x0c, 0x05, 0xf4, 0xfd, 0x08, 0x09, 0xff, 0x0a, 0x02, 0x03, 0x00, 0xff,
  0x07, 0x07, 0x05, 0xfe, 0xff, 0x03, 0xfd, 0xf8, 0x03, 0x01, 0xfe, 0x09,
  0x03, 0x04, 0x08, 0x0e, 0x10, 0x0b, 0xfb, 0x00, 0x0c, 0x02, 0xfc, 0x02,
  0xf8, 0x02, 0x03, 0x06, 0xfb, 0x01, 0xfc, 0x06, 0xf9, 0x02, 0xfc, 0x05,
  0x01, 0x04, 0x03, 0xfd, 0xf6, 0x02, 0x00, 0xfa, 0x0a, 0xfa, 0xfd, 0x03,
  0x04, 0x0c, 0xf9, 0x06, 0x02, 0xfb, 0x02, 0xff, 0xfe, 0xfb, 0x03, 0x02,
  0x04, 0xff, 0xff, 0x07, 0xfe, 0xfa, 0x03, 0xfa, 0xf9, 0xff, 0xfc, 0xf7,
  0x12, 0xfc, 0xfb, 0x07, 0x04, 0xfd, 0xf7, 0xfe, 0x03, 0xff, 0x06, 0xf8,
  0xfa, 0xfd, 0xfa, 0x00, 0xf7, 0x00, 0x07, 0xfd, 0x06, 0x04, 0x08, 0xfc,
  0x00, 0xf8, 0xf9, 0xf8, 0x14, 0x09, 0xf7, 0xfd, 0xfb, 0xfa, 0x07, 0x02,
  0x04, 0xfc, 0xfc, 0xfd, 0xf8, 0x01, 0x02, 0x01, 0xfc, 0x05, 0x03, 0x02,
  0x01, 0xff, 0x04, 0x05, 0xfe, 0x09, 0xfb, 0xe5, 0x17, 0x0f, 0xfd, 0x03,
  0x04, 0x06, 0xfe, 0xfb, 0xff, 0x02, 0xed, 0xf4, 0x00, 0xfc, 0xf5, 0xf8,
  0x06, 0x04, 0x07, 0x06, 0xfc, 0x05, 0xfc, 0xfe, 0x01, 0x00, 0xfe, 0xf5,
  0x0a, 0x0a, 0x00, 0x09, 0x08, 0x09, 0x02, 0xff, 0xfd, 0xf9, 0xf6, 0xfc,
  0xf9, 0x04, 0x01, 0xf4, 0xfc, 0x07, 0xfc, 0x0a, 0x08, 0x00, 0xff, 0xf7,
  0xfe, 0xff, 0x08, 0xf4, 0x06, 0x05, 0x01, 0x07, 0xff, 0x09, 0x07, 0xff,
  0x01, 0xf2, 0xf2, 0xfe, 0x00, 0x05, 0xff, 0xf2, 0xed, 0x00, 0x08, 0x09,
  0x0b, 0xfb, 0xfa, 0xf4, 0xfa, 0xff, 0x0c, 0xff, 0x01, 0xf5, 0x0b, 0x07,
  0xfc, 0x10, 0x05, 0xf7, 0xf1, 0xf4, 0xf9, 0x05, 0x1b, 0x10, 0x08, 0xf3,
  0xf2, 0xf9, 0x09, 0x08, 0xfe, 0xf4, 0xfb, 0xf8, 0xfc, 0xff, 0x05, 0x05,
  0xfe, 0xfe, 0x02, 0xf0, 0xf8, 0xfb, 0xf5, 0xe1, 0xdf, 0xec, 0xf9, 0x14,
  0x1f, 0x10, 0xfd, 0xe4, 0xea, 0x07, 0x0c, 0x0c, 0x06, 0xf4, 0xf4, 0xf0,
  0xf9, 0xff, 0x00, 0x05, 0xfe, 0xfa, 0xf5, 0xec, 0xf7, 0xf3, 0xdb, 0xdb,
  0xde, 0xfb, 0x09, 0x25, 0x1d, 0x01, 0xe6, 0xdf, 0xea, 0x09, 0x21, 0x09,
  0x09, 0xff, 0xfd, 0xf8, 0xec, 0xf6, 0xef, 0xfc, 0xf9, 0x03, 0xf1, 0xe3,
  0xed, 0xea, 0xde, 0xda, 0xf7, 0x06, 0x1a, 0x2a, 0x1d, 0xec, 0xe3, 0xd0,
  0xdf, 0x0e, 0x1d, 0x1d, 0x03, 0x02, 0xfa, 0xf1, 0xe2, 0xd9, 0xf1, 0xf6,
  0x04, 0xfd, 0xe8, 0xdf, 0xe3, 0xda, 0xdc, 0xf4, 0x0b, 0x13, 0x28, 0x2a,
  0x12, 0xe3, 0xdf, 0xd7, 0xdf, 0x0f, 0x27, 0x1c, 0x18, 0x0f, 0xf7, 0xef,
  0xeb, 0xea, 0xf7, 0xf0, 0xfe, 0xf0, 0xe2, 0xdc, 0xdb, 0xe7, 0xf2, 0x04,
  0x0a, 0x1b, 0x23, 0x1c, 0x03, 0xde, 0xde, 0xc7, 0xd1, 0x03, 0x31, 0x1c,
  0x1b, 0x15, 0xfd, 0xef, 0xec, 0xe5, 0xee, 0xed, 0xf6, 0xe0, 0xeb, 0xe4,
  0xe0, 0xf4, 0x04, 0x0e, 0x15, 0x1c, 0x24, 0x19, 0xf7, 0xd2, 0xd2, 0xb2,
  0xc3, 0x07, 0x28, 0x22, 0x18, 0x1a, 0x02, 0xff, 0xe8, 0xf3, 0xf1, 0xf2,
  0xec, 0xdf, 0xf6, 0xf0, 0xfe, 0xfe, 0x0a, 0x12, 0x13, 0x20, 0x13, 0x04,
  0xe9, 0xde, 0xc3, 0xbb, 0xcc, 0x09, 0x20, 0x1b, 0x21, 0x1b, 0x10, 0x05,
  0xfe, 0x03, 0xf8, 0xf2, 0xfd, 0xec, 0xf6, 0x08, 0x08, 0x14, 0x19, 0x1b,
  0x24, 0x1d, 0x0e, 0x07, 0xe2, 0xd6, 0xbc, 0xa9, 0xd8, 0x02, 0x0e, 0x0b,
  0x13, 0x21, 0x1a, 0x00, 0x05, 0x06, 0x07, 0xf8, 0xfa, 0xed, 0xff, 0x0e,
  0x0b, 0x11, 0x13, 0x22, 0x21, 0x15, 0x12, 0x05, 0xe3, 0xbb, 0x94, 0xa5,
  0xc5, 0xf2, 0x09, 0x0b, 0x0e, 0x14, 0x12, 0x09, 0x05, 0x05, 0x0a, 0x01,
  0x04, 0x01, 0x06, 0x08, 0x0f, 0x0e, 0x14, 0x19, 0x26, 0x11, 0x14, 0xea,
  0xc1, 0x8f, 0x8f, 0xb3, 0xcd, 0xe3, 0xfc, 0x06, 0x02, 0x08, 0x19, 0x11,
  0x1a, 0x19, 0x0f, 0x0e, 0xfc, 0x03, 0x00, 0x01, 0xfa, 0xf8, 0xf4, 0xfb,
  0xfa, 0xf9, 0xf3, 0xf4, 0xf5, 0xf8, 0xf1, 0xec, 0xe8, 0xeb, 0xf2, 0xf2,
  0xe7, 0xeb, 0xec, 0xe7, 0xea, 0xf1, 0xfd, 0xff, 0xfd, 0x01, 0x03, 0xfa,
  0x05, 0xf2, 0xef, 0xf2, 0xef, 0xf5, 0xf7, 0xf7, 0xf3, 0xeb, 0xeb, 0xe7,
  0xde, 0xd9, 0xde, 0xec, 0xf2, 0xe4, 0xe9, 0xe1, 0xed, 0xfd, 0x02, 0x05,
  0x00, 0x03, 0x05, 0x02, 0xf9, 0xf5, 0xf5, 0xf0, 0xf0, 0xed, 0xed, 0xeb,
  0xde, 0xe7, 0xd4, 0xd9, 0xd3, 0xcc, 0xd1, 0xce, 0xdb, 0xd4, 0xd9, 0xdc,
  0xdf, 0xf2, 0xff, 0xfd, 0x05, 0xfb, 0x00, 0xf9, 0xef, 0xf4, 0xf0, 0xeb,
  0xec, 0xf3, 0xef, 0xd8, 0xda, 0xd9, 0xd1, 0xd9, 0xcf, 0xc2, 0xcd, 0xc9,
  0xcc, 0xdd, 0xda, 0xe0, 0xf2, 0xf2, 0x00, 0xfe, 0x02, 0xfb, 0xf6, 0xf4,
  0xea, 0xef, 0xf0, 0xe6, 0xe7, 0xe7, 0xdb, 0xcf, 0xd3, 0xca, 0xd3, 0xd9,
  0xd4, 0xc7, 0xcf, 0xe2, 0xe6, 0xe7, 0xe6, 0xe5, 0xf2, 0xf4, 0xf4, 0xf2,
  0x00, 0xfe, 0xf8, 0xf2, 0xe5, 0xeb, 0xe4, 0xd7, 0xdf, 0xdb, 0xda, 0xcb,
  0xd1, 0xdd, 0xe3, 0xe7, 0xed, 0xf1, 0xeb, 0xe9, 0xf8, 0xf4, 0xf3, 0xfa,
  0xeb, 0xea, 0xf7, 0xf5, 0xf7, 0xf2, 0xf0, 0xea, 0xe8, 0xe3, 0xd9, 0xce,
  0xd4, 0xd9, 0xd7, 0xda, 0xe1, 0xe0, 0xea, 0xec, 0xfa, 0xfa, 0xf1, 0xfc,
  0xfd, 0xf9, 0xf0, 0xf4, 0xf0, 0xf1, 0xf7, 0xf6, 0xfa, 0xed, 0xf2, 0xe2,
  0xe5, 0xd8, 0xce, 0xd7, 0xd3, 0xcf, 0xd2, 0xd7, 0xe7, 0xf1, 0xfa, 0xed,
  0xf8, 0xf3, 0xff, 0xfb, 0xfd, 0xf9, 0xee, 0xf6, 0xf7, 0xf7, 0x03, 0x06,
  0xf7, 0xf4, 0xec, 0xd8, 0xe2, 0xef, 0xe1, 0xd6, 0xd7, 0xd5, 0xed, 0xf9,
  0x08, 0x06, 0x06, 0xfd, 0xfa, 0xfe, 0x09, 0x02, 0x06, 0x07, 0xfe, 0x04,
  0x07, 0xff, 0x04, 0x09, 0xfc, 0xfe, 0xf2, 0xdf, 0xf5, 0xf2, 0xe7, 0xe6,
  0xe8, 0xe7, 0xf9, 0x05, 0x02, 0x0f, 0x13, 0x12, 0x0a, 0x09, 0x09, 0x06,
  0x0b, 0x0b, 0x03, 0x0a, 0x09, 0xfe, 0x05, 0x10, 0xfa, 0xf7, 0xe2, 0xe9,
  0xe8, 0xf5, 0xf9, 0xf8, 0xf6, 0xfd, 0xf8, 0x00, 0xfe, 0x10, 0x0d, 0x0d,
  0x13, 0x05, 0x0a, 0x09, 0x0e, 0x0f, 0x0b, 0x0f, 0x04, 0x09, 0x0b, 0x0f,
  0x04, 0xff, 0xe7, 0xee, 0xf3, 0xf0, 0xf7, 0xfa, 0xfe, 0xf9, 0x09, 0x00,
  0x01, 0xfa, 0xf9, 0xf8, 0xf2, 0xfb, 0xfc, 0x00, 0x06, 0x06, 0x0d, 0x0f,
  0x12, 0x0d, 0x16, 0x15, 0xf4, 0xfc, 0xf8, 0xf4, 0xfd, 0xef, 0xf3, 0x01,
  0xf5, 0xf7, 0xfa, 0xfc, 0xef, 0xed, 0xe8, 0xde, 0xe2, 0xf5, 0xfa, 0x08,
  0x16, 0x17, 0x16, 0x1e, 0x17, 0x21, 0x1c, 0x1a, 0x00, 0xf9, 0xf9, 0x00,
  0xfb, 0xf0, 0xf7, 0xec, 0xdf, 0xee, 0xef, 0xf9, 0xf3, 0xf5, 0xed, 0xe9,
  0xe7, 0x00, 0x04, 0x0e, 0x19, 0x17, 0x0d, 0x18, 0x1e, 0x1b, 0x1e, 0x1e,
  0xf6, 0x03, 0xfb, 0xf4, 0xf9, 0xfa, 0xf9, 0xee, 0xe2, 0xec, 0xf5, 0xf4,
  0xfd, 0x00, 0xff, 0xf3, 0xff, 0x08, 0x0d, 0x16, 0x1e, 0x0c, 0x0e, 0x0d,
  0x0e, 0x07, 0x08, 0x09, 0x08, 0x01, 0x0c, 0xfa, 0x01, 0xf3, 0xf7, 0xe7,
  0xee, 0xf2, 0xf6, 0x02, 0x0b, 0x15, 0x05, 0x03, 0x00, 0x05, 0x05, 0x10,
  0x0c, 0x07, 0xfd, 0x04, 0xfd, 0xf5, 0xf2, 0xf4, 0x04, 0x05, 0x03, 0xff,
  0x05, 0xf9, 0xfd, 0xf8, 0x01, 0x04, 0x09, 0x0f, 0x0c, 0x1b, 0x0a, 0x0b,
  0x0f, 0x05, 0xff, 0x01, 0xfa, 0x02, 0xf3, 0xf2, 0xe3, 0xdf, 0xf0, 0xf6,
  0x11, 0x11, 0xfc, 0x0c, 0x02, 0x01, 0x05, 0x08, 0x0c, 0x0a, 0x14, 0x14,
  0x0f, 0x23, 0x22, 0x0a, 0x04, 0xf6, 0xf8, 0xed, 0xe9, 0xf0, 0xe1, 0xe2,
  0xd5, 0xe0, 0xe8, 0xec, 0x15, 0x14, 0x07, 0x15, 0x06, 0x07, 0x0f, 0x11,
  0x0b, 0x10, 0x0f, 0x12, 0x14, 0x12, 0x1a, 0x0f, 0x0f, 0x01, 0xfc, 0xf4,
  0xe7, 0xe3, 0xdf, 0xd8, 0xda, 0xd6, 0xda, 0xeb, 0x10, 0x15, 0x11, 0x0a,
  0x17, 0x0f, 0x0e, 0x0b, 0x0b, 0x06, 0x0c, 0x06, 0x09, 0x0e, 0x0b, 0x08,
  0x0c, 0xff, 0xfd, 0xfe, 0xf0, 0xef, 0xf0, 0xef, 0xdf, 0xe1, 0xea, 0xec,
  0xff, 0x0c, 0x08, 0x0e, 0x0b, 0x14, 0x0f, 0x02, 0x08, 0x06, 0x05, 0x0a,
  0x0f, 0x06, 0x07, 0x03, 0x0f, 0x10, 0x08, 0x0d, 0xfb, 0xfd, 0x09, 0xee,
  0xe7, 0xe1, 0xf5, 0xfd, 0xfa, 0x00, 0x0c, 0x02, 0x07, 0x07, 0xfe, 0x00,
  0x01, 0x03, 0x01, 0x08, 0x0a, 0xfb, 0x01, 0x03, 0x17, 0x14, 0x0f, 0x07,
  0x02, 0x02, 0xfd, 0xf4, 0xe8, 0xf7, 0xf9, 0x0c, 0x03, 0xfb, 0x06, 0xf4,
  0xfa, 0x04, 0xfd, 0xfc, 0xf8, 0xf9, 0xf3, 0xfa, 0x05, 0xf5, 0xf6, 0x07,
  0x10, 0x09, 0x0b, 0x0d, 0x07, 0x02, 0xff, 0xec, 0xee, 0xfd, 0x02, 0x09,
  0x05, 0x07, 0xf3, 0xf2, 0xfe, 0x08, 0xfb, 0xfb, 0xf8, 0xf9, 0xf3, 0xf6,
  0xfe, 0xfe, 0xf7, 0xfa, 0x03, 0x04, 0x07, 0x05, 0x03, 0x05, 0x06, 0xfb,
  0x05, 0x14, 0x08, 0x12, 0x02, 0xf5, 0xfe, 0xff, 0x04, 0xfd, 0x02, 0x0b,
  0x0c, 0xff, 0xff, 0x05, 0xfe, 0xfc, 0x07, 0x03, 0xfe, 0xf7, 0xfe, 0x02,
  0x06, 0x0a, 0x0f, 0x09, 0x10, 0x14, 0x0c, 0x09, 0x04, 0xf8, 0x03, 0x05,
  0x05, 0xf1, 0xfb, 0x06, 0x0c, 0x13, 0x0a, 0x06, 0x05, 0x08, 0x07, 0x06,
  0xf7, 0xf6, 0xfd, 0x12, 0x1b, 0x11, 0x0f, 0x0c, 0x1a, 0x15, 0x0f, 0x0e,
  0x0f, 0xfe, 0x00, 0x0a, 0x05, 0xfb, 0x05, 0x0d, 0x17, 0x0d, 0x0b, 0x0f,
  0x0e, 0x09, 0x13, 0x0f, 0x0b, 0x09, 0x05, 0x0c, 0x0d, 0x0f, 0x0d, 0x17,
  0x25, 0x1e, 0x0e, 0x13, 0x0a, 0x00, 0x08, 0x08, 0x03, 0xfd, 0x10, 0x07,
  0x10, 0x0b, 0x0e, 0x08, 0x07, 0x12, 0x0f, 0x0d, 0x0a, 0x03, 0x0c, 0x13,
  0x27, 0x1b, 0x1c, 0x2c, 0x1f, 0x09, 0xf9, 0xfd, 0xfd, 0xfa, 0x06, 0x01,
  0xfb, 0x07, 0xfc, 0xfe, 0x00, 0xfe, 0x08, 0x08, 0x09, 0x0b, 0xfe, 0x04,
  0x04, 0x06, 0xfd, 0x03, 0x08, 0x04, 0x05, 0x04, 0x06, 0xff, 0xfc, 0x07,
  0x06, 0x06, 0x02, 0xfc, 0x01, 0x02, 0x00, 0xfe, 0x08, 0xff, 0x09, 0x07,
  0x0f, 0x11, 0x04, 0x0b, 0x04, 0x0c, 0x07, 0x05, 0x02, 0x03, 0x07, 0x05,
  0x03, 0xfd, 0x06, 0x06, 0x07, 0xfb, 0x05, 0x06, 0x02, 0x04, 0x07, 0x06,
  0x07, 0x08, 0x06, 0x0b, 0x0d, 0x19, 0x0f, 0x0c, 0x11, 0x0f, 0x09, 0xff,
  0x07, 0x00, 0xfe, 0x01, 0xfa, 0xff, 0x04, 0x01, 0xff, 0x07, 0x01, 0x02,
  0x00, 0xfc, 0x0b, 0x03, 0x03, 0x0d, 0x09, 0x05, 0x10, 0x11, 0x0b, 0x0d,
  0x0e, 0x09, 0x0c, 0x0a, 0x07, 0x08, 0x0c, 0x04, 0x06, 0x09, 0xfd, 0xfd,
  0x05, 0x06, 0xff, 0x01, 0xfb, 0x09, 0xfd, 0x02, 0x09, 0x06, 0x0a, 0x08,
  0x0b, 0x04, 0x10, 0x09, 0x09, 0x10, 0x0a, 0x0b, 0x0b, 0x08, 0x0a, 0x00,
  0x0b, 0x02, 0xfd, 0x07, 0xfb, 0xfc, 0x00, 0xfd, 0x01, 0x06, 0xfb, 0x01,
  0x07, 0x07, 0xfc, 0x06, 0x06, 0xff, 0x10, 0x0e, 0x0d, 0x0f, 0x0d, 0x06,
  0x07, 0xfe, 0xff, 0x07, 0x04, 0xfe, 0x01, 0xfd, 0x05, 0x04, 0x00, 0xfd,
  0x06, 0x01, 0x03, 0xfa, 0x00, 0x04, 0x00, 0xff, 0x05, 0x05, 0x0b, 0x14,
  0x10, 0x08, 0x05, 0x01, 0x09, 0x08, 0xfb, 0x00, 0x09, 0xfb, 0x05, 0x01,
  0xfa, 0x00, 0x03, 0x01, 0x00, 0xf9, 0xfc, 0x02, 0xfe, 0x05, 0x04, 0x0a,
  0x06, 0xfe, 0x13, 0x0c, 0x07, 0x05, 0x06, 0xfe, 0x0a, 0xfd, 0xfa, 0xf9,
  0xfb, 0x06, 0xfd, 0x06, 0xfd, 0x02, 0xfe, 0xfe, 0x02, 0x06, 0x01, 0x0b,
  0xfe, 0x08, 0x0c, 0x0b, 0x0a, 0x11, 0x0f, 0x1c, 0x10, 0x06, 0x06, 0x0a,
  0x04, 0xfe, 0xf6, 0x00, 0x03, 0xfc, 0x01, 0x02, 0xfd, 0xf9, 0xfd, 0x03,
  0xfc, 0x06, 0xfd, 0x03, 0x07, 0xfe, 0x06, 0x0d, 0x13, 0x0e, 0x16, 0x1a,
  0x18, 0x03, 0x0c, 0x0c, 0xff, 0xfb, 0x07, 0x04, 0xfe, 0xff, 0xff, 0xfd,
  0xfe, 0xf9, 0x05, 0xff, 0x01, 0x02, 0xf5, 0xf7, 0xf9, 0xff, 0xfd, 0xfd,
  0xf9, 0x0b, 0x10, 0x0b, 0x03, 0x02, 0xfc, 0x00, 0xfc, 0x03, 0x05, 0x06,
  0x04, 0x04, 0x00, 0x02, 0x02, 0xfd, 0x00, 0x06, 0xf9, 0xfa, 0xf9, 0xf2,
  0xf1, 0xf4, 0x02, 0xf9, 0x02, 0x12, 0x19, 0x14, 0x0b, 0xfd, 0x03, 0xfb,
  0xff, 0x09, 0xff, 0xfd, 0xff, 0x06, 0x09, 0x09, 0x00, 0xff, 0x03, 0x07,
  0xff, 0x01, 0xfb, 0xf5, 0xfa, 0xfa, 0x0c, 0x0a, 0x15, 0x26, 0x2c, 0x23,
  0x15, 0x08, 0xff, 0xff, 0xff, 0xfe, 0xff, 0xfc, 0x03, 0x07, 0x02, 0x00,
  0xfb, 0x09, 0x0f, 0x06, 0x08, 0x01, 0xfb, 0x08, 0x09, 0x1b, 0x14, 0x24,
  0x30, 0x30, 0x22, 0x12, 0x06, 0x00, 0x0a, 0xfe, 0x07, 0xfe, 0xf8, 0x04,
  0xfb, 0x00, 0x06, 0xfa, 0x04, 0x08, 0x09, 0x12, 0x13, 0x11, 0x0b, 0x0f,
  0x1b, 0x2e, 0x32, 0x34, 0x2d, 0x23, 0x07, 0x04, 0x01, 0x07, 0xfd, 0x04,
  0x04, 0xfc, 0x03, 0xf8, 0x07, 0x01, 0x03, 0xfd, 0x06, 0x08, 0x09, 0x1b,
  0x10, 0x1c, 0x1c, 0x21, 0x29, 0x2e, 0x37, 0x32, 0x1b, 0xf7, 0xee, 0xf0,
  0xff, 0xfe, 0xff, 0xfe, 0xff, 0x09, 0x02, 0x08, 0x0c, 0x06, 0x0b, 0xfd,
  0xfb, 0x0e, 0x09, 0x15, 0x17, 0x17, 0x1c, 0x1c, 0x1f, 0x20, 0x1b, 0x09,
  0xec, 0xd7, 0xd7, 0xed, 0x04, 0x02, 0xf8, 0xfc, 0x01, 0x0c, 0x07, 0x0c,
  0x0f, 0x08, 0x0a, 0xfa, 0x03, 0x06, 0x12, 0x16, 0x18, 0x16, 0x1f, 0x1a,
  0x19, 0x0d, 0xf4, 0xe4, 0xd3, 0xcb, 0xd5, 0xea, 0xfe, 0x01, 0xfd, 0xfc,
  0x05, 0x08, 0x0e, 0x11, 0x06, 0x00, 0x01, 0x02, 0x06, 0x02, 0x10, 0x0b,
  0x0f, 0x13, 0x13, 0x0b, 0x06, 0xf2, 0xec, 0xd3, 0xd2, 0xc9, 0xdf, 0xe6,
  0xf3, 0xfa, 0xf8, 0x04, 0xfd, 0x07, 0x06, 0x07, 0x0a, 0xfc, 0xf8, 0xfb,
  0x04, 0x03, 0x0c, 0x08, 0x0e, 0x12, 0x08, 0x0a, 0xfc, 0xf3, 0xef, 0xe2,
  0xda, 0xe1, 0xe3, 0xec, 0xfc, 0xfd, 0xfc, 0xff, 0x01, 0x04, 0xff, 0xfe,
  0x04, 0xfe, 0xfe, 0xf8, 0x05, 0x05, 0xfe, 0x01, 0x0a, 0x08, 0x02, 0xf6,
  0xf9, 0xf7, 0xee, 0xee, 0xe8, 0xe1, 0xe2, 0xe7, 0xef, 0x00, 0xfc, 0xf7,
  0xfc, 0xf6, 0xf2, 0xf2, 0xf0, 0xf3, 0xf5, 0xfa, 0xfd, 0xf7, 0x03, 0xfd,
  0xfb, 0xf2, 0xf8, 0xf6, 0xf4, 0xef, 0xf3, 0xf2, 0xea, 0xea, 0xdd, 0xed,
  0xea, 0xf2, 0xee, 0xf1, 0xef, 0xeb, 0xf1, 0xf4, 0xf1, 0xf9, 0xf4, 0xf9,
  0x01, 0xf6, 0x00, 0xfc, 0xfa, 0xf8, 0xf1, 0xec, 0xf0, 0xf3, 0xf7, 0xec,
  0xea, 0xec, 0xe3, 0xe4, 0xe3, 0xdf, 0xe5, 0xeb, 0xe7, 0xe4, 0xe4, 0xe9,
  0xed, 0xef, 0xf7, 0xfe, 0xff, 0xff, 0xf6, 0xfc, 0xf2, 0xef, 0xef, 0xed,
  0xf2, 0xee, 0xf2, 0xef, 0xec, 0xe5, 0xe7, 0xe3, 0xe0, 0xe5, 0xdd, 0xdf,
  0xe8, 0xeb, 0xe0, 0xee, 0xf3, 0xf4, 0xfa, 0x03, 0x04, 0x01, 0x00, 0xfb,
  0xf2, 0xf2, 0xf3, 0xf2, 0xf2, 0xfb, 0xf1, 0xec, 0xee, 0xeb, 0xe2, 0xea,
  0xe0, 0xe0, 0xe9, 0xe0, 0xe3, 0xe5, 0xed, 0xec, 0xf4, 0xf8, 0xfe, 0xff,
  0xfd, 0xff, 0x04, 0x03, 0xff, 0xfc, 0xfc, 0xfa, 0xf8, 0xf6, 0xf9, 0xef,
  0xf0, 0xee, 0xe9, 0xf1, 0xeb, 0xe0, 0xf0, 0xef, 0xf0, 0xee, 0xf3, 0xfd,
  0xf4, 0x02, 0x05, 0x03, 0xfb, 0x05, 0x00, 0x04, 0x01, 0xf7, 0x00, 0xf9,
  0xf6, 0xf4, 0x00, 0xfa, 0xf6, 0xf2, 0xf2, 0xf4, 0xf0, 0xf1, 0xef, 0xf1,
  0xf4, 0xf8, 0xfc, 0xfb, 0x02, 0xfd, 0xfc, 0x04, 0x04, 0x01, 0x03, 0xff,
  0xfd, 0xfe, 0xfb, 0xfc, 0xfc, 0x02, 0x03, 0xfe, 0x03, 0xff, 0x03, 0xf9,
  0xfe, 0x04, 0x00, 0x06, 0x06, 0xfd, 0xfe, 0x01, 0xff, 0xfc, 0x01, 0x06,
  0xf8, 0xfa, 0x00, 0x02, 0xfa, 0x06, 0x08, 0xfc, 0xf6, 0xf5, 0xf3, 0xed,
  0xe9, 0xe0, 0xe3, 0xef, 0xf2, 0xff, 0x00, 0xfb, 0xff, 0xfd, 0xec, 0xec,
  0xfe, 0xff, 0xf3, 0x0a, 0xfa, 0xff, 0xf7, 0xf7, 0xfa, 0x06, 0x06, 0xf8,
  0xf0, 0xda, 0xe6, 0xf2, 0xdc, 0xe7, 0xee, 0xfd, 0xfa, 0xec, 0xee, 0xf4,
  0xec, 0xf7, 0xfa, 0xfc, 0x04, 0xf9, 0xf4, 0x04, 0x03, 0xff, 0xf9, 0xfc,
  0x03, 0xf9, 0x06, 0xf6, 0xe3, 0xd8, 0xe4, 0xe6, 0xf1, 0xf8, 0xf7, 0x03,
  0xfb, 0xfb, 0xf8, 0xf5, 0xeb, 0xee, 0xf6, 0xef, 0xef, 0xfa, 0xec, 0xf3,
  0x00, 0xfc, 0x02, 0x0a, 0xfe, 0x05, 0x03, 0xf3, 0xd8, 0xd7, 0xd4, 0xf0,
  0xf4, 0xf5, 0xf2, 0xfa, 0xff, 0x0a, 0xfc, 0x03, 0xfa, 0xf0, 0xf4, 0xf4,
  0xfd, 0x01, 0x05, 0x01, 0xfd, 0xf6, 0xfe, 0x06, 0x0a, 0x02, 0xf0, 0xe3,
  0xd7, 0xd4, 0xdf, 0xf1, 0xff, 0x05, 0xfc, 0xfe, 0x05, 0xfc, 0xfb, 0xf6,
  0x00, 0xf7, 0xf3, 0xf9, 0x0b, 0x07, 0x0a, 0x0e, 0xf1, 0xfa, 0xfb, 0x01,
  0x04, 0x00, 0xf6, 0xd8, 0xc4, 0xcb, 0xe9, 0xf8, 0xf8, 0xfe, 0x05, 0x06,
  0x07, 0x02, 0xff, 0x06, 0x04, 0x10, 0x09, 0x07, 0x0d, 0x12, 0x11, 0x04,
  0xfd, 0xf0, 0xfb, 0x05, 0x08, 0xfb, 0xee, 0xdc, 0xc9, 0xda, 0xee, 0xff,
  0xff, 0x0d, 0x09, 0x11, 0x06, 0x08, 0x00, 0x02, 0x05, 0x09, 0x09, 0x14,
  0x0a, 0x16, 0x13, 0x0e, 0xfd, 0x01, 0xfb, 0x01, 0x0a, 0xf8, 0xe3, 0xd9,
  0xc8, 0xd9, 0xeb, 0xfe, 0x09, 0x0c, 0x11, 0x05, 0x0b, 0x04, 0x06, 0x07,
  0x09, 0x09, 0x05, 0x0d, 0x0b, 0x0f, 0x08, 0x08, 0xfd, 0x02, 0x04, 0xf8,
  0x02, 0xf4, 0xd2, 0xd2, 0xd5, 0xda, 0xef, 0xfe, 0x11, 0x0b, 0x03, 0x0d,
  0x07, 0x09, 0xfb, 0xf5, 0xfe, 0xf8, 0xfc, 0x06, 0x03, 0x0b, 0x0f, 0xf0,
  0xfb, 0x00, 0xfb, 0xf3, 0xf0, 0xe2, 0xd4, 0xcc, 0xe4, 0xe9, 0xf9, 0x0c,
  0x0f, 0x10, 0x03, 0x08, 0x05, 0xf4, 0xfc, 0xf7, 0xf0, 0xf2, 0xf1, 0xf0,
  0xe8, 0xf9, 0xfd, 0xf5, 0xfd, 0xf8, 0xf1, 0xe0, 0xe9, 0xe2, 0xce, 0xd4,
  0xe0, 0xfb, 0x11, 0x22, 0x17, 0xfb, 0xf6, 0xf0, 0xf2, 0xf3, 0xf8, 0x02,
  0xf6, 0xf5, 0xf3, 0xef, 0xeb, 0xe2, 0xee, 0xf2, 0x0a, 0x03, 0xf3, 0xe5,
  0xdb, 0xd4, 0xd6, 0xdf, 0xe7, 0x0a, 0x23, 0x27, 0x14, 0xfc, 0xea, 0xeb,
  0xf6, 0x04, 0x03, 0xfd, 0x03, 0xf2, 0xfb, 0xf5, 0xee, 0xf0, 0xf3, 0xf1,
  0x0a, 0x07, 0xec, 0xdb, 0xd8, 0xd8, 0xdd, 0xe2, 0x03, 0x1d, 0x27, 0x29,
  0x07, 0xe9, 0xd6, 0xf3, 0xfa, 0x07, 0x03, 0xf7, 0xfe, 0xfb, 0xf2, 0xf1,
  0xf8, 0xfe, 0x00, 0x02, 0x05, 0x01, 0xe6, 0xdc, 0xd2, 0xe6, 0xe6, 0xf6,
  0x12, 0x23, 0x23, 0x14, 0xee, 0xc8, 0xd2, 0xe5, 0x01, 0x04, 0x07, 0x08,
  0x06, 0xfe, 0xfb, 0xf8, 0x02, 0xf5, 0xf1, 0xf6, 0xf5, 0xf4, 0xe0, 0xdc,
  0xd9, 0xe3, 0xec, 0x00, 0x12, 0x1f, 0x17, 0x0c, 0xe5, 0xcd, 0xdf, 0xfe,
  0x04, 0x08, 0x05, 0x0a, 0x02, 0x00, 0x00, 0x05, 0x0d, 0x07, 0xe3, 0xeb,
  0xf9, 0xf0, 0xe3, 0xe5, 0xee, 0xf5, 0xf7, 0xff, 0x19, 0x20, 0x15, 0x0e,
  0xf0, 0xea, 0xf7, 0x14, 0x0e, 0x0c, 0x0a, 0x11, 0x03, 0x06, 0xfe, 0x04,
  0x14, 0x0d, 0xf5, 0xee, 0x05, 0xf6, 0xf4, 0xea, 0xf5, 0xf5, 0xff, 0x08,
  0x0f, 0x15, 0x16, 0x06, 0xf5, 0xf4, 0x04, 0x17, 0x06, 0x0c, 0x0a, 0x0f,
  0x03, 0xfe, 0xf4, 0xf6, 0x00, 0x05, 0xed, 0xe9, 0xf3, 0xf6, 0xfd, 0xfb,
  0xf0, 0xfa, 0x09, 0x0c, 0x12, 0x0f, 0x0d, 0x01, 0xfa, 0x00, 0x0d, 0x08,
  0x0a, 0xfb, 0xff, 0x10, 0x0f, 0xfe, 0x01, 0xfd, 0x05, 0x04, 0xf6, 0xf4,
  0xeb, 0xfc, 0x01, 0xfa, 0xf5, 0x0a, 0x04, 0x08, 0xff, 0x02, 0x01, 0x06,
  0x02, 0xfb, 0x07, 0x03, 0xf8, 0xff, 0x0a, 0x09, 0x0b, 0xfd, 0xf0, 0xff,
  0xfc, 0x10, 0x05, 0xf8, 0x00, 0xf5, 0xf5, 0xe3, 0xf9, 0x00, 0x07, 0x04,
  0x04, 0x05, 0x06, 0x03, 0x06, 0xff, 0x01, 0xfc, 0xf8, 0x01, 0x03, 0x01,
  0xf7, 0xfa, 0x00, 0xf4, 0xf7, 0x0c, 0x0c, 0xfd, 0x04, 0x0b, 0xfa, 0xe6,
  0xf4, 0xf2, 0xef, 0xfb, 0x04, 0x03, 0xfd, 0x04, 0xfe, 0x01, 0xfc, 0xf4,
  0xfa, 0xf7, 0x01, 0xed, 0xf5, 0xfc, 0xf6, 0xf6, 0xf6, 0x09, 0x10, 0x00,
  0x03, 0x03, 0xfe, 0xf7, 0xf0, 0xf9, 0xfd, 0xfb, 0xfc, 0xff, 0x01, 0x04,
  0xf4, 0xff, 0xf2, 0xfc, 0xef, 0xf7, 0xf3, 0xf1, 0xee, 0xf7, 0x03, 0xfe,
  0xf6, 0x05, 0x04, 0xf8, 0xfb, 0xfb, 0xe9, 0xec, 0xf4, 0xfd, 0x00, 0xfa,
  0xfd, 0x00, 0x03, 0xf9, 0xfb, 0xf9, 0xfa, 0xf0, 0xf2, 0xf1, 0xf8, 0xe7,
  0xf8, 0x04, 0x05, 0xfc, 0xfc, 0x01, 0xf0, 0xf6, 0xff, 0xfc, 0xf1, 0xec,
  0xf0, 0xfd, 0xf9, 0xfd, 0xfe, 0x05, 0x08, 0xff, 0xf8, 0x02, 0x00, 0x02,
  0xf9, 0xfb, 0xf5, 0xec, 0xfe, 0xf6, 0xfe, 0x06, 0xef, 0xf2, 0xf6, 0xf7,
  0x06, 0xf6, 0xf1, 0xe8, 0xe2, 0xf7, 0xfa, 0xfb, 0xff, 0x0b, 0x04, 0x0a,
  0x08, 0xff, 0x01, 0xfe, 0xfe, 0xff, 0xf8, 0xed, 0xfa, 0xf4, 0x00, 0x02,
  0xf1, 0xdf, 0xe8, 0xea, 0x02, 0xf5, 0xed, 0xef, 0xea, 0xf4, 0xf3, 0xfb,
  0xfa, 0x07, 0x06, 0x0a, 0x03, 0xfb, 0xf9, 0x02, 0xf7, 0xfc, 0xf6, 0xf5,
  0xeb, 0xf3, 0xfb, 0xfd, 0xf8, 0xec, 0xf8, 0xf5, 0xf8, 0xf3, 0xfa, 0x01,
  0xfa, 0xf0, 0xef, 0xf8, 0x02, 0x0d, 0x0c, 0x05, 0xfd, 0x07, 0xfc, 0xfd,
  0x00, 0xfe, 0xf6, 0xf8, 0xf6, 0xf6, 0x02, 0x01, 0x02, 0xf6, 0xf2, 0xfa,
  0xf2, 0xfc, 0xf5, 0xff, 0xf2, 0xea, 0xec, 0x03, 0x08, 0x0d, 0x07, 0x04,
  0x07, 0x07, 0x15, 0x0e, 0x04, 0xf7, 0xf9, 0xf6, 0xee, 0x05, 0xff, 0xf9,
  0x07, 0x07, 0xf7, 0xf3, 0xf3, 0xf2, 0xf5, 0xeb, 0xed, 0xf2, 0xf9, 0xf1,
  0xe9, 0xee, 0xee, 0x01, 0xf7, 0xf5, 0xfd, 0x01, 0xfe, 0x08, 0x08, 0x0d,
  0x00, 0x01, 0x07, 0x0a, 0xfe, 0xf0, 0xf2, 0xf9, 0xf7, 0xef, 0xed, 0xf5,
  0xf1, 0xf0, 0x04, 0xfb, 0xff, 0xf4, 0x02, 0xf9, 0xff, 0xf4, 0xf2, 0x06,
  0x08, 0x0c, 0x0a, 0x00, 0xfc, 0x05, 0x09, 0x02, 0x08, 0x06, 0x00, 0xfc,
  0xfc, 0xee, 0xe7, 0xeb, 0xf4, 0x06, 0x0c, 0x00, 0x00, 0xf6, 0xfb, 0xf5,
  0xf9, 0xfb, 0xf4, 0xf5, 0x03, 0xfe, 0xfe, 0x01, 0xfd, 0xfd, 0xfd, 0x06,
  0x01, 0x03, 0x09, 0xfc, 0xf5, 0xf4, 0x02, 0x02, 0x04, 0xfa, 0x07, 0x08,
  0x02, 0xfe, 0x01, 0xfa, 0xf7, 0xf8, 0xfc, 0x07, 0x02, 0x04, 0x04, 0xfb,
  0x02, 0x03, 0xf7, 0xf5, 0x01, 0x0a, 0x0b, 0xf8, 0xfd, 0xff, 0x08, 0x0b,
  0x0e, 0xfe, 0xfd, 0x0c, 0x0b, 0x04, 0xfb, 0x07, 0xfe, 0x04, 0x0b, 0x07,
  0xfb, 0xff, 0x04, 0x01, 0xfe, 0xf2, 0x01, 0x04, 0x07, 0x09, 0x03, 0xfc,
  0xf4, 0xfa, 0x03, 0x11, 0x19, 0x0b, 0xfb, 0xff, 0x01, 0x0f, 0x10, 0x07,
  0x08, 0x08, 0x0f, 0x07, 0xff, 0xf6, 0xfa, 0x06, 0xff, 0xff, 0x04, 0x14,
  0x13, 0x01, 0xfe, 0x02, 0xf3, 0xef, 0xef, 0xfb, 0x07, 0xff, 0x05, 0xf9,
  0xfd, 0x04, 0x08, 0x0e, 0x0b, 0x0b, 0x0c, 0x04, 0x0c, 0x01, 0xf9, 0x0a,
  0x04, 0x02, 0x09, 0x07, 0x0f, 0xfe, 0x05, 0x03, 0xf4, 0xf6, 0xeb, 0xf8,
  0xfe, 0x00, 0xfc, 0x02, 0xff, 0x10, 0x11, 0x0d, 0x0d, 0x10, 0x15, 0x13,
  0x01, 0xf6, 0xf8, 0x01, 0x06, 0x09, 0x03, 0xf6, 0xfc, 0xf9, 0x01, 0x00,
  0xf0, 0xe8, 0xf0, 0xfc, 0xfa, 0xf4, 0x01, 0xf8, 0x09, 0x0a, 0x0c, 0x09,
  0xff, 0x09, 0x13, 0x03, 0xfc, 0xfc, 0xfd, 0xfc, 0xff, 0x03, 0xfc, 0xfd,
  0xeb, 0xfc, 0xff, 0xfb, 0xe2, 0xe8, 0xf2, 0x04, 0x04, 0x09, 0x02, 0xfe,
  0x00, 0xff, 0xfd, 0xf4, 0xf8, 0x0e, 0x09, 0x02, 0xf3, 0xf1, 0xfc, 0x04,
  0x01, 0xf5, 0x00, 0xfe, 0xfe, 0x02, 0x02, 0x06, 0xe6, 0xed, 0x06, 0x08,
  0x08, 0x09, 0x06, 0x02, 0x02, 0xf3, 0xec, 0xee, 0xf4, 0x0b, 0x0c, 0x09,
  0xfd, 0x05, 0x06, 0x02, 0xfe, 0x01, 0xf9, 0x02, 0x00, 0xff, 0xf8, 0xf6,
  0xe6, 0xe3, 0xff, 0x08, 0x10, 0x0c, 0x15, 0x0d, 0x06, 0xff, 0xe8, 0xe2,
  0xf6, 0xf9, 0x00, 0x0b, 0x0b, 0x0e, 0x0e, 0x0d, 0x0f, 0xfe, 0xfe, 0xef,
  0xfa, 0xf4, 0xe9, 0xed, 0xe4, 0xf7, 0xf9, 0x0c, 0x15, 0x12, 0x1d, 0x15,
  0x16, 0xfb, 0xf7, 0xed, 0xeb, 0xef, 0xfa, 0x08, 0x0d, 0x13, 0x17, 0x0c,
  0x0d, 0x07, 0xf0, 0xe7, 0xe3, 0xe4, 0xda, 0xdc, 0xe5, 0xf1, 0x02, 0x08,
  0x12, 0x18, 0x1c, 0x18, 0x10, 0x0c, 0xfb, 0xff, 0xf7, 0xf9, 0xfd, 0x01,
  0xfc, 0x05, 0x0f, 0x01, 0x08, 0xf8, 0xe0, 0xd3, 0xd6, 0xd8, 0xd4, 0xde,
  0xe1, 0xf2, 0xfe, 0x13, 0x15, 0x18, 0x17, 0x1c, 0x0d, 0x0f, 0x14, 0x09,
  0x0c, 0xfd, 0xfc, 0xf8, 0xfa, 0xfc, 0xfe, 0xfa, 0xf4, 0xe0, 0xdb, 0xd6,
  0xc9, 0xd5, 0xd5, 0xd3, 0xee, 0xf0, 0xf5, 0x08, 0x0b, 0x19, 0x10, 0x0d,
  0x0c, 0x1b, 0x23, 0x23, 0x1e, 0x18, 0xfd, 0xf3, 0xf1, 0xf2, 0xf4, 0xe1,
  0xe8, 0xd3, 0xd0, 0xd7, 0xd4, 0xd9, 0xcf, 0xdf, 0xf9, 0xed, 0xf2, 0x01,
  0x02, 0x10, 0x05, 0x01, 0x0f, 0x0e, 0x1c, 0x1c, 0x17, 0x14, 0x03, 0xfd,
  0xf8, 0xf1, 0xe2, 0xe4, 0xe1, 0xd8, 0xe2, 0xe8, 0xe9, 0xdb, 0xe3, 0xe9,
  0x02, 0xf1, 0xf7, 0xf3, 0xfc, 0xfd, 0x09, 0xff, 0x03, 0x0a, 0x12, 0x18,
  0x16, 0x10, 0x06, 0xf9, 0xfa, 0xec, 0xe9, 0xe9, 0xf1, 0xf3, 0xe5, 0xed,
  0xf0, 0xf5, 0xef, 0xee, 0x07, 0xf8, 0x03, 0xf1, 0xf5, 0xfd, 0x03, 0x05,
  0x01, 0xfa, 0x08, 0xfe, 0x04, 0xfe, 0x0b, 0xfe, 0x03, 0xfa, 0xf6, 0xfc,
  0xfd, 0x00, 0xfd, 0xfa, 0xfd, 0x00, 0xfe, 0x05, 0xf7, 0xfa, 0x03, 0xf7,
  0xf3, 0xfb, 0x04, 0x09, 0xfe, 0xff, 0xf6, 0xf1, 0xf9, 0xf0, 0xfb, 0xfb,
  0xfd, 0xfd, 0x03, 0x0b, 0xff, 0x0f, 0x15, 0x0a, 0x0a, 0x06, 0x08, 0x08,
  0xfc, 0xf2, 0xf6, 0xf4, 0xf6, 0x00, 0x00, 0x03, 0xfe, 0xf4, 0xfa, 0xee,
  0xef, 0xf6, 0xf6, 0xfb, 0x04, 0x06, 0x0b, 0xfe, 0x0a, 0x15, 0x13, 0x16,
  0x1b, 0x1b, 0x12, 0x06, 0x02, 0xf2, 0xef, 0x06, 0x00, 0xfd, 0xfa, 0x00,
  0x07, 0xf3, 0xea, 0xf3, 0xf2, 0xed, 0xed, 0xfc, 0x03, 0x01, 0x17, 0x15,
  0x19, 0x25, 0x17, 0x14, 0x14, 0x17, 0x22, 0x0e, 0xfc, 0xec, 0xf3, 0xf6,
  0x04, 0x04, 0xff, 0xfd, 0xf8, 0xf8, 0xef, 0xf4, 0xec, 0xeb, 0xe6, 0xf1,
  0x03, 0x00, 0x11, 0x0e, 0x0f, 0x1d, 0x20, 0x0d, 0x14, 0x19, 0x21, 0x11,
  0xf5, 0xeb, 0xe9, 0xf2, 0x04, 0xff, 0x06, 0xfe, 0x03, 0xfa, 0xf2, 0xfd,
  0xfe, 0xf8, 0xe8, 0xf7, 0xf1, 0xff, 0x07, 0x0b, 0x0b, 0x0c, 0x12, 0x16,
  0x1e, 0x1f, 0x12, 0x03, 0xf3, 0xf1, 0xf7, 0xfc, 0xf5, 0x0a, 0x01, 0x08,
  0x06, 0x03, 0x06, 0x0b, 0x0a, 0x03, 0x03, 0xfe, 0xfd, 0xf3, 0xfb, 0x04,
  0xfd, 0x07, 0x16, 0x13, 0x15, 0x14, 0x14, 0x0a, 0xf4, 0xf6, 0xf7, 0xef,
  0xf0, 0xf2, 0xf5, 0xf6, 0x01, 0x03, 0xfc, 0x05, 0x05, 0x00, 0x03, 0x01,
  0xf6, 0xfa, 0xfd, 0x05, 0xfd, 0x09, 0x0d, 0x13, 0x08, 0x05, 0x0c, 0xf9,
  0xfd, 0xf1, 0xfb, 0xfb, 0xec, 0xf5, 0xf5, 0xf1, 0xfc, 0xfb, 0xfa, 0x09,
  0x01, 0xfa, 0xf8, 0x06, 0xfc, 0xfc, 0xf9, 0xf1, 0xf3, 0xf8, 0x05, 0x03,
  0x08, 0xfd, 0x01, 0xf9, 0xf0, 0xfa, 0xf4, 0xed, 0xe9, 0xe7, 0xef, 0xef,
  0xf2, 0xf2, 0xeb, 0xf9, 0xf8, 0xf9, 0xfb, 0x03, 0x05, 0xfc, 0xf5, 0xf3,
  0xf7, 0xfa, 0xf9, 0x03, 0x02, 0xef, 0xf5, 0xf2, 0xfa, 0xfe, 0xf6, 0x03,
  0xfc, 0xfe, 0xf8, 0xfb, 0xf8, 0x02, 0x02, 0xfc, 0xfe, 0xf7, 0xf7, 0x03,
  0xfd, 0xf8, 0xf9, 0x00, 0xf9, 0x00, 0xfd, 0xfb, 0xf5, 0x02, 0xf5, 0xf5,
  0xf5, 0x03, 0xfe, 0xff, 0xfe, 0xfd, 0xf7, 0xf8, 0x00, 0xff, 0x06, 0x01,
  0xff, 0x02, 0xfd, 0xf6, 0x01, 0xf8, 0xfa, 0xfd, 0xf6, 0xfe, 0x01, 0xfe,
  0xfc, 0x00, 0xf8, 0xf5, 0xfc, 0xfc, 0xfa, 0xfa, 0xfa, 0xfc, 0x02, 0xfa,
  0xf8, 0x01, 0xfb, 0xf6, 0xfd, 0xf6, 0xf5, 0x03, 0xf9, 0xf6, 0xfb, 0xf9,
  0xf3, 0xf3, 0xff, 0xfa, 0xfe, 0xf9, 0xfa, 0x01, 0x03, 0x02, 0xfd, 0xfa,
  0xf8, 0xf6, 0xff, 0xfb, 0x00, 0xf7, 0xf9, 0xf7, 0xf8, 0xfc, 0xf8, 0xf6,
  0xfa, 0xf8, 0xf7, 0xf0, 0xfa, 0xf4, 0xed, 0xfa, 0xf4, 0xf1, 0xfb, 0xfb,
  0xfe, 0x01, 0x02, 0xf6, 0xfb, 0x03, 0x01, 0xf9, 0xf4, 0xf4, 0xfc, 0xfb,
  0xf2, 0xef, 0xf9, 0xf3, 0xf2, 0xef, 0xef, 0xee, 0xf4, 0xf6, 0xf0, 0xef,
  0xf1, 0xf4, 0xfb, 0xf7, 0x00, 0xfc, 0xfe, 0xf5, 0x02, 0xfc, 0xff, 0x01,
  0xf7, 0x02, 0xf1, 0xf5, 0xef, 0xf9, 0xff, 0xf5, 0xf8, 0xf8, 0xf3, 0xe7,
  0xe7, 0xee, 0xe7, 0xdd, 0xe7, 0xef, 0xf6, 0xfe, 0xf9, 0xf5, 0xf7, 0xfe,
  0xfd, 0x00, 0x04, 0xfe, 0xff, 0x04, 0xf7, 0xf7, 0xf5, 0xf6, 0x09, 0x01,
  0xff, 0xf8, 0xf3, 0xe7, 0xdf, 0xdc, 0xe6, 0xe2, 0xe5, 0xf1, 0xed, 0xfc,
  0xf9, 0xfc, 0xf8, 0xf6, 0xfa, 0x05, 0xfe, 0xff, 0xfc, 0xfd, 0xfb, 0xf2,
  0xf6, 0xf6, 0x03, 0x02, 0x08, 0xf9, 0xf5, 0xe7, 0xee, 0xe7, 0xe4, 0xeb,
  0xec, 0xf3, 0xec, 0xfc, 0xfe, 0xf6, 0x03, 0x00, 0xfe, 0x05, 0xfe, 0x04,
  0xf7, 0xf3, 0xee, 0xe3, 0xdc, 0xe3, 0xef, 0xf0, 0xf3, 0xe9, 0xed, 0xef,
  0xf1, 0xec, 0xec, 0xf5, 0xf6, 0xf3, 0xfc, 0xf4, 0xf9, 0xf5, 0x06, 0x00,
  0x08, 0x03, 0x0a, 0x03, 0xf8, 0xf4, 0xed, 0xdb, 0xd2, 0xcb, 0xd5, 0xe0,
  0xde, 0xec, 0xf1, 0xfe, 0xf5, 0xfe, 0xff, 0xf2, 0xfb, 0xf5, 0x00, 0xf7,
  0xf8, 0x04, 0x08, 0x0b, 0x06, 0x0d, 0x09, 0x0e, 0x08, 0xf6, 0xf3, 0xe3,
  0xce, 0xc6, 0xd3, 0xe8, 0xe6, 0xef, 0xf7, 0xf6, 0x00, 0x00, 0xfd, 0x01,
  0xf6, 0xfd, 0xf8, 0xf8, 0xfe, 0x05, 0xfe, 0x0b, 0x11, 0x10, 0x18, 0x19,
  0x0f, 0x08, 0x09, 0xf0, 0xe2, 0xd4, 0xdc, 0xed, 0xf5, 0xee, 0xf8, 0xf5,
  0xf3, 0xf5, 0x01, 0xfd, 0xf8, 0xfe, 0x01, 0x01, 0xfc, 0x06, 0x07, 0x10,
  0x18, 0x1e, 0x19, 0x24, 0x2e, 0x2a, 0x22, 0x16, 0xfb, 0xe7, 0xe9, 0xed,
  0xf5, 0xf8, 0xef, 0xf7, 0xf8, 0x03, 0x02, 0x07, 0x02, 0x02, 0xfa, 0x05,
  0xfc, 0x02, 0x0e, 0x08, 0x16, 0x1c, 0x20, 0x2c, 0x37, 0x30, 0x39, 0x29,
  0x12, 0x06, 0xf8, 0xff, 0x01, 0x00, 0xf7, 0xfd, 0x07, 0x04, 0x01, 0x05,
  0xff, 0x04, 0xfc, 0xff, 0xfe, 0x06, 0x00, 0x14, 0x15, 0x18, 0x1e, 0x21,
  0x28, 0x35, 0x37, 0x3b, 0x23, 0x18, 0x0b, 0x0b, 0x0c, 0x05, 0x02, 0x05,
  0x04, 0x0e, 0x07, 0x05, 0x04, 0xfd, 0x06, 0xff, 0xfc, 0x08, 0x09, 0x08,
  0x09, 0x01, 0x13, 0x10, 0x0c, 0x18, 0x1f, 0x23, 0x25, 0x17, 0x15, 0x15,
  0x0a, 0x11, 0x06, 0x05, 0x0d, 0x01, 0x03, 0x02, 0x03, 0x05, 0x01, 0x04,
  0x03, 0xfe, 0x01, 0x04, 0x06, 0xfe, 0x00, 0x00, 0xfc, 0xff, 0x0a, 0x14,
  0x14, 0x15, 0x15, 0x0b, 0x11, 0x16, 0x0c, 0x10, 0x14, 0x10, 0x02, 0xff,
  0xff, 0x02, 0x02, 0xff, 0xfc, 0x06, 0x02, 0x02, 0xf8, 0xfe, 0xed, 0xf6,
  0xf2, 0xf5, 0xfd, 0xfd, 0x10, 0x12, 0x12, 0x0b, 0x12, 0x10, 0x14, 0x0e,
  0x0b, 0x0a, 0x0a, 0xff, 0x07, 0x07, 0x04, 0xf9, 0x01, 0x03, 0xff, 0xff,
  0xfc, 0xf0, 0xf7, 0xe5, 0xe3, 0xea, 0xed, 0xfb, 0x0d, 0x16, 0x1a, 0x19,
  0x0c, 0x14, 0x0e, 0x0f, 0x0f, 0x06, 0x04, 0x01, 0x0b, 0x02, 0x08, 0xf9,
  0xfe, 0x0b, 0x0f, 0x06, 0x04, 0xfe, 0xfb, 0xf6, 0xee, 0xf6, 0xf2, 0x07,
  0x12, 0x1e, 0x14, 0x17, 0x16, 0x13, 0x17, 0x12, 0x08, 0x08, 0x0c, 0x07,
  0x06, 0x09, 0x09, 0x04, 0x06, 0x0b, 0x10, 0x0d, 0x05, 0x08, 0xff, 0xf4,
  0xf8, 0x06, 0xff, 0xfb, 0x07, 0x0f, 0x1e, 0x13, 0x15, 0x13, 0x18, 0x12,
  0x0b, 0x0a, 0x01, 0x0d, 0x08, 0x03, 0xfb, 0x04, 0x03, 0x09, 0x01, 0x0b,
  0xfd, 0x01, 0xff, 0xff, 0xfd, 0xf9, 0xfa, 0xff, 0x06, 0x12, 0x0d, 0x1c,
  0x17, 0x19, 0x0b, 0x0d, 0x10, 0x10, 0x03, 0x0e, 0x0e, 0x06, 0x03, 0x04,
  0x00, 0x05, 0x04, 0x09, 0x06, 0xf9, 0xf7, 0xfb, 0xf8, 0xf6, 0xfa, 0xfa,
  0x02, 0x03, 0x12, 0x08, 0x13, 0x09, 0x0c, 0x0a, 0x07, 0x0c, 0x05, 0x08,
  0x00, 0xfb, 0x02, 0x02, 0xfa, 0x05, 0xf8, 0xfd, 0x03, 0x01, 0xfa, 0xff,
  0x03, 0xfd, 0xfc, 0x03, 0xfe, 0x02, 0x05, 0x0e, 0x0c, 0x04, 0x10, 0x0a,
  0x03, 0x05, 0x0b, 0x02, 0x06, 0x00, 0xfc, 0xf5, 0x00, 0xfa, 0x04, 0xfd,
  0xfb, 0xff, 0xf8, 0x03, 0xfd, 0x0a, 0x06, 0x06, 0x08, 0x05, 0x04, 0x09,
  0x10, 0x00, 0x07, 0x08, 0x05, 0x01, 0x04, 0x09, 0xfb, 0xf9, 0xf8, 0xfe,
  0x02, 0x02, 0xf7, 0x06, 0x01, 0xff, 0x02, 0x06, 0xfc, 0x00, 0x00, 0x0c,
  0x05, 0x0e, 0x08, 0x0a, 0x0c, 0x0a, 0x08, 0xfc, 0x02, 0xfd, 0x07, 0xfb,
  0x01, 0xfc, 0xfb, 0x03, 0x00, 0xfc, 0xff, 0xf9, 0xfd, 0xf9, 0x06, 0x06,
  0xfc, 0x08, 0x05, 0x07, 0x0d, 0x0b, 0x0d, 0x0e, 0x0a, 0x06, 0xfe, 0x03,
  0x06, 0x01, 0x01, 0xff, 0x00, 0x00, 0x03, 0x00, 0xf7, 0xfd, 0xff, 0xf6,
  0xfa, 0x02, 0x01, 0x02, 0x06, 0x08, 0xfc, 0xfe, 0x06, 0x00, 0x0c, 0x02,
  0x0b, 0x08, 0xfd, 0x03, 0xf9, 0xfa, 0xfc, 0xfd, 0x00, 0x00, 0xf6, 0xfc,
  0x09, 0x01, 0x04, 0xfe, 0x02, 0xfd, 0x0a, 0x01, 0x08, 0x0a, 0x0c, 0x06,
  0x03, 0x04, 0xfd, 0xff, 0xf7, 0xf5, 0xfb, 0xfc, 0xf8, 0x06, 0xfc, 0x02,
  0x00, 0x02, 0x05, 0x09, 0x07, 0xfc, 0x06, 0x00, 0xfd, 0xfd, 0x0a, 0x00,
  0x0e, 0x09, 0x17, 0x11, 0x12, 0x10, 0x00, 0xff, 0xf4, 0xed, 0xf4, 0xf5,
  0xfb, 0x02, 0xfc, 0x02, 0x01, 0x02, 0x00, 0x05, 0xfc, 0xfe, 0x02, 0x02,
  0x09, 0x0d, 0x0d, 0x0a, 0x0e, 0x18, 0x1b, 0x0f, 0x08, 0x04, 0xf5, 0xf0,
  0xed, 0xec, 0xea, 0xf7, 0xf4, 0xfe, 0xfc, 0x03, 0x01, 0x01, 0x06, 0xfb,
  0x07, 0x07, 0xfe, 0xfd, 0x01, 0x0c, 0x0c, 0x0f, 0x17, 0x1e, 0x17, 0x09,
  0x00, 0xf5, 0xe7, 0xea, 0xe6, 0xef, 0xef, 0xf0, 0xf9, 0xfa, 0x00, 0xfc,
  0xfa, 0x05, 0xff, 0xfb, 0xff, 0x04, 0x08, 0x02, 0x02, 0x0e, 0x16, 0x11,
  0x16, 0x1a, 0x0b, 0x00, 0xe6, 0xde, 0xd7, 0xda, 0xe8, 0xeb, 0xfb, 0xf4,
  0xfb, 0xf5, 0x03, 0xf9, 0xfa, 0x01, 0x05, 0xfc, 0x00, 0x06, 0x01, 0x04,
  0x09, 0x0c, 0x13, 0x19, 0x21, 0x1e, 0x04, 0xf7, 0xda, 0xc8, 0xcf, 0xda,
  0xf0, 0xfb, 0xfd, 0x02, 0x00, 0xfc, 0x03, 0x07, 0x06, 0x06, 0x08, 0x01,
  0xff, 0x02, 0x06, 0x04, 0x0c, 0x0c, 0x18, 0x16, 0x1b, 0x18, 0x03, 0xe9,
  0xcd, 0xc2, 0xcc, 0xeb, 0x04, 0x0c, 0x15, 0x0f, 0x0e, 0x0c, 0x04, 0x06,
  0x03, 0xff, 0xfd, 0x09, 0xfe, 0x09, 0x06, 0x04, 0x0c, 0x0f, 0x11, 0x1e,
  0x15, 0x0c, 0xfc, 0xdf, 0xc1, 0xc1, 0xd2, 0xf8, 0x16, 0x24, 0x14, 0x16,
  0x13, 0x12, 0x09, 0x07, 0x0b, 0x05, 0xfc, 0xfb, 0x00, 0x00, 0x07, 0x03,
  0x0d, 0x13, 0x0f, 0x16, 0x15, 0x03, 0xef, 0xd8, 0xc1, 0xac, 0xcd, 0x15,
  0x2c, 0x2c, 0x14, 0x10, 0x11, 0x09, 0x07, 0x0b, 0x04, 0x04, 0xff, 0x0a,
  0x01, 0x07, 0xff, 0x09, 0x08, 0x15, 0x0f, 0x0c, 0x12, 0x01, 0xec, 0xcf,
  0xc0, 0xb3, 0xe3, 0x1d, 0x39, 0x2a, 0x1c, 0x0d, 0x11, 0x04, 0x03, 0x06,
  0x08, 0x09, 0x00, 0x09, 0x08, 0x07, 0x06, 0x09, 0x0b, 0x0a, 0x12, 0x0f,
  0x11, 0x03, 0xf4, 0xe0, 0xc3, 0xc8, 0xfb, 0x2e, 0x2b, 0x14, 0x0f, 0x07,
  0x0a, 0x01, 0x09, 0x06, 0x01, 0x01, 0x05, 0x07, 0x03, 0x03, 0x08, 0x01,
  0x0b, 0x09, 0x05, 0x0a, 0x06, 0xfd, 0xf0, 0xde, 0xcc, 0xe1, 0x1a, 0x2f,
  0x1e, 0x0c, 0x07, 0x02, 0x08, 0xfb, 0xf8, 0x06, 0xff, 0x06, 0x0a, 0x04,
  0x02, 0x02, 0x07, 0x09, 0xfc, 0x0a, 0x0b, 0x04, 0x09, 0xf5, 0xe8, 0xd3,
  0xe2, 0x00, 0x28, 0x32, 0x20, 0x15, 0x0a, 0x01, 0xf9, 0x03, 0x01, 0x05,
  0xf9, 0x04, 0x0a, 0x0a, 0x00, 0x05, 0x05, 0x00, 0xfc, 0x07, 0x07, 0x01,
  0x02, 0xf5, 0xe4, 0xda, 0xf2, 0x12, 0x23, 0x21, 0x1a, 0x12, 0x09, 0x0e,
  0x02, 0x04, 0xfa, 0xff, 0xf7, 0x02, 0x04, 0xfc, 0xfd, 0xfd, 0x03, 0xf8,
  0x00, 0x05, 0x00, 0x05, 0xfa, 0xf1, 0xe5, 0xe0, 0xf2, 0x17, 0x22, 0x17,
  0x10, 0x07, 0x09, 0x0c, 0x00, 0xfd, 0xfc, 0xf9, 0xfe, 0xfb, 0xf6, 0xfb,
  0xfe, 0xfb, 0xfc, 0xf8, 0xf6, 0xff, 0xfb, 0xfb, 0xfa, 0xfe, 0xee, 0xea,
  0xf8, 0x13, 0x0f, 0x10, 0x05, 0x00, 0x02, 0x02, 0xfc, 0x05, 0x06, 0xfe,
  0xf4, 0xf9, 0xf5, 0x01, 0x00, 0xff, 0xf8, 0xfe, 0x02, 0xf9, 0x03, 0x08,
  0xfb, 0x01, 0x04, 0x00, 0xfc, 0x09, 0x12, 0x0e, 0xf6, 0xf7, 0x00, 0x09,
  0x05, 0xfd, 0xfb, 0xfd, 0xf5, 0xf1, 0xf9, 0x02, 0xff, 0xf9, 0xff, 0xfa,
  0xfa, 0x03, 0x0a, 0x08, 0x06, 0x06, 0xff, 0xfb, 0x03, 0x0d, 0x12, 0x03,
  0x01, 0xfe, 0x06, 0x05, 0x00, 0x03, 0x00, 0xf4, 0xf1, 0xf7, 0xf6, 0x00,
  0x06, 0x01, 0xf3, 0xf8, 0x01, 0xfb, 0x00, 0x02, 0x05, 0x03, 0x06, 0xfb,
  0xfb, 0x03, 0x0f, 0x0e, 0x02, 0x04, 0x0d, 0x02, 0x08, 0x06, 0xf8, 0xfb,
  0xfd, 0xfc, 0xfe, 0x01, 0xfe, 0xff, 0xfa, 0xf6, 0xf6, 0x06, 0x01, 0xfe,
  0x04, 0x0a, 0xff, 0xf7, 0x01, 0xfb, 0x06, 0x00, 0x05, 0x00, 0x09, 0x02,
  0x08, 0x07, 0x01, 0xff, 0xf4, 0xfc, 0xfb, 0x04, 0xfc, 0x03, 0xfa, 0xfb,
  0xfd, 0x00, 0xfa, 0xfc, 0xfe, 0x02, 0xff, 0x01, 0xf7, 0xfb, 0xfd, 0xfc,
  0x02, 0xf8, 0xf7, 0x08, 0x05, 0x04, 0xff, 0xfe, 0xf9, 0xfa, 0xfd, 0x08,
  0x00, 0xfc, 0xfd, 0xf0, 0xfa, 0xfa, 0xfa, 0xf6, 0xf5, 0xfb, 0xf7, 0xf7,
  0xf9, 0xf7, 0xfa, 0xf2, 0xfb, 0xfa, 0xf8, 0x04, 0x04, 0xfd, 0xff, 0xfb,
  0xf7, 0xf7, 0x00, 0xfe, 0x01, 0xff, 0xf9, 0xf7, 0xf8, 0xfb, 0xfc, 0xf6,
  0xf0, 0xf7, 0xf5, 0xf7, 0xf9, 0xfc, 0xfa, 0xfd, 0xf0, 0xfd, 0xf9, 0x02,
  0x01, 0xfa, 0xfb, 0xfb, 0xf6, 0xf8, 0xfe, 0x05, 0xfd, 0x04, 0xfd, 0xff,
  0xfe, 0xf1, 0xf9, 0x00, 0xf9, 0xfa, 0xf6, 0x01, 0xff, 0xfa, 0xf7, 0xf5,
  0xfd, 0xf9, 0xfc, 0xfc, 0xfc, 0x07, 0x04, 0xfd, 0x01, 0x04, 0x04, 0x03,
  0x05, 0xfe, 0xfc, 0x05, 0xfd, 0xf4, 0x03, 0xfb, 0xfc, 0xff, 0xfd, 0xfa,
  0xfa, 0xf9, 0xfc, 0xf7, 0xfe, 0xf3, 0xfd, 0x03, 0xff, 0x07, 0xfb, 0x01,
  0xff, 0xfd, 0xfe, 0x03, 0xfb, 0xfd, 0xfc, 0xfa, 0xfa, 0xf9, 0x04, 0xfc,
  0xff, 0xfe, 0xfe, 0xff, 0x00, 0x00, 0xfa, 0xf0, 0xf2, 0xfd, 0x00, 0xfe,
  0x09, 0x04, 0xff, 0x06, 0x08, 0x06, 0xfb, 0xfd, 0x03, 0x06, 0xff, 0xff,
  0xfe, 0xfb, 0xfd, 0x05, 0xfd, 0x06, 0x01, 0xfd, 0x05, 0xfb, 0xfa, 0xf6,
  0xff, 0x00, 0xfe, 0x08, 0x01, 0x07, 0x07, 0xfe, 0x09, 0x05, 0xfb, 0x06,
  0xfc, 0xfc, 0x02, 0x00, 0x08, 0x01, 0xfd, 0x05, 0x08, 0x09, 0x01, 0x00,
  0x00, 0x04, 0x08, 0xff, 0x07, 0x07, 0x03, 0xfd, 0x02, 0xfe, 0x00, 0x09,
  0xff, 0xff, 0xfe, 0x05, 0x02, 0x02, 0xfc, 0xf8, 0x01, 0x00, 0x04, 0xf9,
  0xfb, 0xfd, 0x03, 0x08, 0x08, 0x08, 0x09, 0x07, 0x07, 0x07, 0xf9, 0x06,
  0x03, 0x02, 0xf8, 0x00, 0xf8, 0xfa, 0x03, 0xfe, 0x03, 0x05, 0xfc, 0xff,
  0x06, 0xfa, 0x00, 0x06, 0x00, 0x0c, 0x0d, 0x0f, 0x08, 0x0b, 0x03, 0x03,
  0xfe, 0x04, 0xfa, 0x05, 0x02, 0xfc, 0x05, 0xf8, 0xfc, 0xfd, 0xfb, 0x00,
  0x02, 0x03, 0xfd, 0xfc, 0x01, 0x06, 0xfd, 0x06, 0x0a, 0x0a, 0x0b, 0x12,
  0x16, 0x13, 0x13, 0x0c, 0x02, 0x02, 0xfe, 0x04, 0x04, 0x01, 0x00, 0xfe,
  0xfc, 0xfb, 0xf9, 0x03, 0x05, 0xfe, 0xfd, 0x02, 0xfe, 0x07, 0x04, 0x08,
  0x10, 0x0c, 0x0b, 0x0c, 0x11, 0x0c, 0x09, 0x0d, 0x06, 0x00, 0x03, 0xfb,
  0x00, 0xfd, 0x01, 0x00, 0xf7, 0x02, 0xfe, 0xf8, 0x00, 0x02, 0xfe, 0xfb,
  0xff, 0x04, 0x09, 0x0a, 0x0b, 0x0e, 0x08, 0x10, 0x11, 0x13, 0x06, 0x0e,
  0x11, 0x0b, 0x02, 0x05, 0xff, 0xfc, 0xff, 0xf8, 0xf7, 0xfa, 0x03, 0x05,
  0xff, 0xfa, 0xfa, 0xfa, 0x02, 0x00, 0xfd, 0x05, 0x07, 0x05, 0x0d, 0x0c,
  0x0c, 0x07, 0x07, 0x11, 0x0d, 0x0f, 0x07, 0xff, 0xfb, 0xff, 0xf5, 0xfa,
  0x05, 0x03, 0x00, 0xfa, 0x00, 0x01, 0x02, 0xf8, 0x05, 0x03, 0x04, 0x0b,
  0x00, 0x08, 0x08, 0x0e, 0x0b, 0x0d, 0x0f, 0x0c, 0x0c, 0x14, 0x12, 0x0a,
  0xfd, 0x03, 0x05, 0x05, 0x03, 0x03, 0xf9, 0xfb, 0xff, 0xfc, 0xfe, 0xf9,
  0xff, 0xfb, 0x03, 0x00, 0x0b, 0x0c, 0x05, 0x08, 0x03, 0x01, 0x0f, 0x1c,
  0x1b, 0x13, 0x19, 0x05, 0x0e, 0x03, 0x03, 0xfc, 0xfb, 0x01, 0x00, 0x02,
  0xff, 0x03, 0x02, 0x00, 0x00, 0xf4, 0x00, 0x05, 0x10, 0x06, 0x07, 0xff,
  0x04, 0xff, 0x09, 0x10, 0x12, 0x0e, 0x13, 0x12, 0x0a, 0x04, 0x01, 0x04,
  0x05, 0xfd, 0x02, 0x01, 0xfd, 0xfa, 0xf9, 0xf7, 0xf7, 0xf5, 0xff, 0x00,
  0x04, 0x0f, 0x02, 0x05, 0xfb, 0xf9, 0xf6, 0xf2, 0xf0, 0xef, 0xfa, 0x05,
  0x0a, 0x03, 0x00, 0xfa, 0x03, 0xfb, 0xfa, 0x01, 0xfc, 0x00, 0xf1, 0xf6,
  0xf9, 0xfa, 0xff, 0x09, 0x0f, 0x0a, 0xfc, 0x04, 0xf5, 0xf6, 0xf1, 0xe6,
  0xda, 0xd6, 0xe2, 0x02, 0x07, 0x01, 0x05, 0x06, 0x06, 0xfb, 0xfc, 0xfd,
  0xfb, 0xfe, 0xf4, 0xee, 0xee, 0xff, 0xf8, 0x02, 0x09, 0x08, 0xfe, 0x05,
  0x08, 0x04, 0xef, 0xe8, 0xc5, 0xcc, 0xe8, 0xfc, 0x0a, 0x0f, 0x0a, 0xfe,
  0x07, 0x06, 0x04, 0xf9, 0xff, 0xfb, 0xf2, 0xf4, 0xf8, 0xf4, 0xf7, 0x00,
  0x02, 0x03, 0x02, 0x12, 0x17, 0x08, 0x07, 0xef, 0xcd, 0xca, 0xe6, 0x04,
  0x15, 0x09, 0x0e, 0x08, 0x02, 0x03, 0xfd, 0xfd, 0xff, 0xff, 0xfa, 0xf9,
  0xfd, 0xf4, 0xf6, 0xfc, 0xff, 0xfd, 0x05, 0x11, 0x1b, 0x18, 0x0a, 0xe7,
  0xcd, 0xc9, 0xeb, 0xff, 0x0d, 0x10, 0x0d, 0x08, 0x08, 0x00, 0x02, 0x04,
  0xf8, 0xf9, 0x01, 0xfb, 0xf9, 0xf7, 0xf2, 0x01, 0xfd, 0x09, 0x0c, 0x0a,
  0x1c, 0x1d, 0x21, 0xf3, 0xcd, 0xce, 0xe2, 0xf4, 0x05, 0x0c, 0x05, 0x11,
  0x01, 0x0d, 0x08, 0x00, 0x03, 0xfc, 0xff, 0xfe, 0x00, 0xfa, 0xf5, 0xf8,
  0xf7, 0xff, 0x01, 0x05, 0x1b, 0x2e, 0x1d, 0xe9, 0xc6, 0xd2, 0xe7, 0x00,
  0x06, 0x09, 0x0b, 0x11, 0x0d, 0x09, 0x0a, 0x07, 0x02, 0x09, 0x07, 0xfe,
  0x00, 0xf7, 0x00, 0xf6, 0xf3, 0xf1, 0xf6, 0x01, 0x21, 0x23, 0x16, 0xdf,
  0xd3, 0xcf, 0xe0, 0xf5, 0x0a, 0x10, 0x07, 0x06, 0x09, 0x0d, 0x0a, 0x01,
  0x09, 0xfe, 0x0b, 0x08, 0x07, 0xfc, 0xfa, 0xf0, 0xf2, 0xfb, 0xfc, 0x0b,
  0x28, 0x1e, 0x0c, 0xd6, 0xc5, 0xc8, 0xe4, 0xf8, 0x06, 0x07, 0x10, 0x08,
  0x0f, 0x0e, 0x0a, 0x0b, 0x04, 0x08, 0x05, 0x0e, 0x05, 0x03, 0x04, 0x01,
  0xfd, 0x06, 0x05, 0x19, 0x21, 0x19, 0xf0, 0xcd, 0xc2, 0xd7, 0xee, 0xff,
  0x0e, 0x11, 0x13, 0x0f, 0x15, 0x0b, 0x10, 0x0d, 0x07, 0x0a, 0x04, 0x13,
  0x13, 0x08, 0x05, 0x08, 0x07, 0x0a, 0x0b, 0x17, 0x19, 0xf7, 0xde, 0xca,
  0xc8, 0xd7, 0xf4, 0x07, 0x16, 0x10, 0x14, 0x0f, 0x18, 0x10, 0x12, 0x03,
  0xfc, 0x01, 0x05, 0x0c, 0x0c, 0x18, 0x0b, 0x12, 0x11, 0x09, 0x17, 0x08,
  0x01, 0xf0, 0xd4, 0xc9, 0xd2, 0xe1, 0xfb, 0x05, 0x11, 0x10, 0x10, 0x0f,
  0x10, 0x11, 0x05, 0x07, 0xfd, 0xff, 0x0a, 0x08, 0x0c, 0x17, 0x17, 0x0e,
  0x13, 0x10, 0x0c, 0xff, 0xf3, 0xe8, 0xd7, 0xc8, 0xd1, 0xe1, 0xed, 0xfe,
  0x08, 0x10, 0x0b, 0x14, 0x11, 0x08, 0xff, 0x03, 0xfd, 0x0b, 0x01, 0x09,
  0x06, 0x0d, 0x13, 0x04, 0x0e, 0x05, 0x07, 0xf0, 0xe5, 0xe0, 0xd1, 0xda,
  0xde, 0xe8, 0xee, 0xff, 0x02, 0x12, 0x0b, 0x0c, 0x0f, 0x0a, 0x09, 0xfc,
  0xfe, 0x06, 0x04, 0x07, 0x00, 0x04, 0x08, 0x0a, 0x06, 0x07, 0xf9, 0xf3,
  0xf0, 0xe4, 0xe7, 0xe7, 0xe9, 0xf4, 0xf5, 0x01, 0x09, 0x09, 0x0b, 0x0b,
  0x09, 0x04, 0xfe, 0xf9, 0x04, 0x01, 0x02, 0xff, 0x04, 0x02, 0xfd, 0xf4,
  0x00, 0xf4, 0xfd, 0xfb, 0xf9, 0xf0, 0xf3, 0xf6, 0xfa, 0xf2, 0xf3, 0x03,
  0x05, 0x07, 0x05, 0x04, 0x00, 0x02, 0x01, 0x00, 0xf9, 0xfc, 0x05, 0xfe,
  0x02, 0xfb, 0xf4, 0xf9, 0xf3, 0xff, 0xf6, 0x00, 0xfe, 0xf7, 0xf5, 0xfc,
  0xf5, 0x02, 0xf9, 0xfb, 0x01, 0x09, 0x09, 0xff, 0xf9, 0xfa, 0xff, 0xfc,
  0x01, 0x00, 0x04, 0xf9, 0xfd, 0xff, 0xf8, 0xf2, 0xfe, 0xf4, 0xfe, 0x01,
  0xf8, 0x00, 0xfe, 0x02, 0xf8, 0xf8, 0xff, 0x05, 0xfb, 0xff, 0xfe, 0xf9,
  0xff, 0xfc, 0x01, 0x03, 0x00, 0x02, 0xff, 0x03, 0xfc, 0xfa, 0xfc, 0xf8,
  0xf7, 0xfb, 0xfc, 0xf4, 0xf2, 0xf8, 0xf8, 0xf3, 0xf8, 0xf6, 0xf7, 0xfd,
  0x00, 0x02, 0xfa, 0xf9, 0xf9, 0xfd, 0xf9, 0xf8, 0xf8, 0x03, 0xfa, 0xfc,
  0xf4, 0xfa, 0xff, 0xfb, 0xf2, 0xf1, 0xe0, 0xdd, 0xdd, 0xe4, 0xdf, 0xd9,
  0xe6, 0xe8, 0xe4, 0xf6, 0x00, 0x00, 0xfe, 0x06, 0x0e, 0xfd, 0x03, 0xfa,
  0x00, 0x01, 0x04, 0xfd, 0xfc, 0xfc, 0xfb, 0xfc, 0xf4, 0xdb, 0xd3, 0xd1,
  0xd1, 0xd7, 0xce, 0xce, 0xe5, 0xe8, 0xe9, 0xf3, 0xf8, 0x01, 0x08, 0x07,
  0x11, 0x10, 0x04, 0xfe, 0xfc, 0xf9, 0xfd, 0xf9, 0xfa, 0xea, 0xf0, 0xe7,
  0xec, 0xce, 0xd4, 0xc1, 0xbe, 0xca, 0xcf, 0xe0, 0xf9, 0xf7, 0xf1, 0xfd,
  0x0b, 0x08, 0x02, 0x08, 0x0c, 0x03, 0xf6, 0xf6, 0xf6, 0x04, 0x04, 0x02,
  0xfd, 0xec, 0xed, 0xe0, 0xe6, 0xd6, 0xd2, 0xd2, 0xda, 0xe7, 0xfd, 0xfb,
  0x05, 0xf9, 0xf8, 0xfd, 0x01, 0xf9, 0xf7, 0xf9, 0x00, 0x00, 0xfe, 0xff,
  0xf3, 0xf6, 0x02, 0xf4, 0xf6, 0xeb, 0xf4, 0xe4, 0xea, 0xe2, 0xeb, 0xfa,
  0x06, 0x09, 0x16, 0x0a, 0x0b, 0xfd, 0xfb, 0xfd, 0xfe, 0xfa, 0x00, 0xfc,
  0xfd, 0x07, 0x04, 0x0b, 0xfb, 0x00, 0x00, 0xfd, 0x00, 0xf1, 0xec, 0xe3,
  0xf4, 0xf4, 0xfd, 0x0c, 0x19, 0x16, 0x18, 0x17, 0x06, 0x05, 0x00, 0x0b,
  0x00, 0x09, 0x07, 0x04, 0x0d, 0x08, 0x04, 0x04, 0xf1, 0xfd, 0xfb, 0x08,
  0xf8, 0xe1, 0xe7, 0xf8, 0x09, 0x05, 0x03, 0x0c, 0x15, 0x14, 0x0e, 0x0d,
  0x02, 0x08, 0x11, 0x0e, 0x15, 0x1c, 0x1c, 0x1d, 0x14, 0x14, 0x15, 0x06,
  0xf6, 0xf4, 0xfa, 0xf4, 0xdc, 0xdb, 0xe1, 0xfa, 0x05, 0x00, 0x00, 0x08,
  0x04, 0x08, 0x07, 0x0b, 0x02, 0x09, 0x10, 0x11, 0x12, 0x1d, 0x20, 0x22,
  0x27, 0x20, 0x1a, 0x20, 0xeb, 0xf6, 0xf6, 0xf0, 0xd2, 0xcd, 0xdb, 0xfa,
  0x08, 0x06, 0xfd, 0xfd, 0x02, 0x13, 0x04, 0x0a, 0x03, 0x02, 0x12, 0x0b,
  0x0b, 0x13, 0x23, 0x26, 0x26, 0x23, 0x1e, 0x21, 0xfb, 0x01, 0x03, 0xf7,
  0xdb, 0xd4, 0xed, 0x0c, 0x13, 0x07, 0x05, 0x00, 0x0f, 0x0d, 0x0a, 0x04,
  0x04, 0xfa, 0xfd, 0xf3, 0x07, 0x03, 0x0f, 0x0e, 0x15, 0x14, 0x15, 0x27,
  0x01, 0xf5, 0xf9, 0xea, 0xdb, 0xdb, 0xef, 0x06, 0x0f, 0x05, 0xfd, 0x0b,
  0x0a, 0x14, 0x0c, 0x08, 0x02, 0xf4, 0xed, 0xed, 0xf7, 0xfe, 0x06, 0x09,
  0x05, 0x13, 0x17, 0x11, 0xfd, 0xef, 0xe6, 0xf2, 0xdd, 0xdb, 0xf8, 0x0c,
  0x08, 0xfe, 0xfb, 0x00, 0x10, 0x11, 0x05, 0x03, 0xfa, 0xef, 0xde, 0xe0,
  0xe5, 0xf7, 0x05, 0x0e, 0x0a, 0x11, 0x1d, 0x0f, 0x05, 0xf7, 0xf3, 0xe9,
  0xcd, 0xd8, 0xee, 0xfe, 0x00, 0xfd, 0xfb, 0xf7, 0x11, 0x06, 0x04, 0xf6,
  0x02, 0xf0, 0xe9, 0xe4, 0xe6, 0xf6, 0x0e, 0x0a, 0x19, 0x12, 0x17, 0x0c,
  0x0c, 0x05, 0xf3, 0xeb, 0xdd, 0xe4, 0xf7, 0xf7, 0xfc, 0xf2, 0xfc, 0xfc,
  0x05, 0x03, 0x05, 0x00, 0xf0, 0xed, 0xe9, 0xef, 0xf6, 0xf7, 0x01, 0x0a,
  0x10, 0x0b, 0x0e, 0x06, 0xfb, 0xfd, 0xf1, 0xf6, 0xf3, 0xf0, 0xfd, 0x04,
  0xea, 0xfb, 0xf6, 0x06, 0x06, 0xfd, 0xfe, 0xf7, 0xf2, 0xf6, 0xf1, 0xfd,
  0x00, 0x0d, 0x07, 0x07, 0x0d, 0x01, 0x07, 0x05, 0xfd, 0xfc, 0xfc, 0xfe,
  0xf2, 0xf3, 0xf9, 0xff, 0xf6, 0xf5, 0xfc, 0xfe, 0x04, 0xf9, 0xff, 0xf3,
  0xf4, 0xfa, 0x09, 0x00, 0x03, 0x02, 0xf9, 0xfe, 0x04, 0xfa, 0x02, 0x05,
  0xfd, 0x04, 0x05, 0xfc, 0xfc, 0xf6, 0xfa, 0xff, 0xfc, 0xfa, 0xfa, 0x01,
  0xf7, 0xf8, 0xfe, 0xf8, 0xf1, 0x04, 0x09, 0x00, 0xfd, 0xf3, 0x07, 0x05,
  0x00, 0xfd, 0xfd, 0xfc, 0xf8, 0xf7, 0xfd, 0xf8, 0xf0, 0xeb, 0xf8, 0x03,
  0x03, 0xf5, 0xfd, 0xf2, 0xf2, 0xf4, 0x03, 0xf6, 0x01, 0x0b, 0x02, 0xf7,
  0xeb, 0xf7, 0x04, 0x01, 0x02, 0xf7, 0xfc, 0xfd, 0xf2, 0x0c, 0x02, 0xff,
  0xf3, 0xe8, 0xf7, 0xf2, 0xf8, 0xf8, 0xef, 0xf3, 0xf9, 0xff, 0xfd, 0xfc,
  0xf8, 0xfa, 0x00, 0xeb, 0xf2, 0xf6, 0xf8, 0x0d, 0x03, 0xf0, 0xec, 0xfa,
  0xf1, 0x15, 0x13, 0x0a, 0xfe, 0xfa, 0xf1, 0xee, 0xeb, 0xf1, 0xf7, 0xf1,
  0xfe, 0x03, 0x03, 0x06, 0x03, 0xf9, 0xf6, 0xef, 0xef, 0xf7, 0x03, 0x00,
  0x02, 0xf1, 0xea, 0xef, 0xf5, 0x09, 0x14, 0x18, 0xff, 0xfe, 0xfd, 0xf3,
  0xeb, 0xec, 0xf2, 0xf8, 0xf6, 0xfc, 0x01, 0xff, 0x09, 0x02, 0x01, 0xf9,
  0xfd, 0xf7, 0xfe, 0xf3, 0xf7, 0xe9, 0xeb, 0xe8, 0x01, 0x05, 0x18, 0x0e,
  0x08, 0x01, 0x00, 0xfe, 0xfa, 0xf5, 0xf4, 0xed, 0xf0, 0xef, 0xfd, 0x07,
  0xfe, 0x01, 0xfe, 0xf3, 0xf1, 0xf3, 0xee, 0xed, 0xe0, 0xe3, 0xda, 0xea,
  0xfc, 0x0a, 0x09, 0x0f, 0x08, 0x05, 0x07, 0x0d, 0x12, 0x09, 0xff, 0xfa,
  0xf1, 0xea, 0xf9, 0xfa, 0x03, 0xff, 0xf4, 0xe6, 0xe7, 0xd8, 0xd4, 0xde,
  0xd5, 0xd9, 0xd9, 0xee, 0xf4, 0x0a, 0x0e, 0xfe, 0xfa, 0x03, 0x04, 0x06,
  0x0e, 0x08, 0x0c, 0x0e, 0x07, 0xf5, 0x01, 0x0c, 0x0a, 0xfb, 0xf7, 0xeb,
  0xe0, 0xd0, 0xcf, 0xd3, 0xdd, 0xe5, 0xed, 0x00, 0xfe, 0x06, 0xfc, 0x04,
  0x04, 0xfb, 0xfb, 0x0a, 0x06, 0x05, 0x0e, 0x0c, 0x03, 0x01, 0x02, 0x0c,
  0x04, 0x02, 0xf2, 0xf2, 0xdc, 0xcf, 0xd1, 0xde, 0xeb, 0xff, 0x03, 0x04,
  0xf8, 0xfb, 0x07, 0x0b, 0x03, 0x00, 0xff, 0x01, 0x09, 0x09, 0x05, 0x05,
  0x0c, 0x07, 0x03, 0x00, 0xf7, 0xf2, 0xf9, 0xeb, 0xd5, 0xdf, 0xdb, 0xef,
  0xfa, 0xfd, 0xf4, 0xf3, 0xff, 0xeb, 0xf8, 0x08, 0xf7, 0xf9, 0x01, 0xf0,
  0xf8, 0x04, 0xf7, 0x04, 0x06, 0x01, 0x0c, 0x01, 0xf8, 0xfa, 0xf8, 0xf3,
  0xe5, 0xe4, 0xe6, 0xe9, 0xe8, 0xf6, 0xf0, 0x02, 0xfb, 0xf2, 0xf5, 0xfd,
  0xfb, 0xfd, 0xfb, 0xf8, 0x00, 0xf7, 0xf9, 0x0f, 0x0c, 0x0c, 0x08, 0x11,
  0x01, 0x01, 0xf3, 0xf3, 0xec, 0xea, 0xf6, 0xf4, 0xe7, 0xf9, 0xf9, 0xfe,
  0xfd, 0x01, 0x00, 0x02, 0xf7, 0xf7, 0xf9, 0x08, 0x07, 0xf9, 0xe7, 0xf4,
  0xfa, 0xf8, 0xf7, 0xf6, 0x00, 0xf9, 0xfd, 0xfc, 0xfe, 0x09, 0xff, 0xf7,
  0x01, 0xfe, 0x01, 0x03, 0x08, 0x01, 0xf8, 0x04, 0xf9, 0xf4, 0xfd, 0xf8,
  0x03, 0xf1, 0xe6, 0xf9, 0xf5, 0x06, 0xfc, 0xf5, 0xf3, 0xf6, 0xf4, 0xf2,
  0xf6, 0x00, 0x05, 0x01, 0x01, 0x04, 0x08, 0x09, 0x05, 0x09, 0xfd, 0xfb,
  0xf1, 0x06, 0x08, 0x04, 0xfb, 0xf9, 0xfb, 0xe9, 0xf1, 0xff, 0xf1, 0xf3,
  0xf5, 0xfb, 0xec, 0xf8, 0xf3, 0xfa, 0x0b, 0xfd, 0x02, 0x02, 0x07, 0x10,
  0x00, 0x03, 0xfd, 0x01, 0x0b, 0x0c, 0x0a, 0x08, 0x08, 0x03, 0x01, 0xf2,
  0xfb, 0xfb, 0x06, 0x08, 0x01, 0xfd, 0xf9, 0xfa, 0x03, 0x00, 0x0d, 0x12,
  0xfe, 0x05, 0x0c, 0xf8, 0x01, 0x0b, 0x04, 0x05, 0x03, 0x03, 0xfe, 0xfc,
  0x09, 0xfd, 0xfa, 0xfa, 0xf9, 0xf8, 0xf9, 0xfc, 0xfe, 0xfa, 0xfd, 0x07,
  0x09, 0x0b, 0x09, 0x04, 0xfb, 0xfd, 0xfd, 0xfe, 0x05, 0x07, 0xff, 0x02,
  0x06, 0xfb, 0xf3, 0xfa, 0xff, 0x00, 0xf7, 0x00, 0xfd, 0xff, 0xfd, 0xf0,
  0xf7, 0xf8, 0xf6, 0x00, 0x00, 0x06, 0x04, 0xfb, 0xfe, 0xf6, 0xf8, 0xfd,
  0x0b, 0xfe, 0x07, 0xfd, 0xfd, 0xf1, 0xf8, 0xf9, 0x02, 0xf8, 0xfc, 0xf7,
  0xf6, 0xf9, 0x02, 0xff, 0xfd, 0x00, 0xfe, 0xfe, 0x03, 0x05, 0x02, 0xf2,
  0x01, 0xf6, 0x07, 0x07, 0x0b, 0x04, 0x02, 0xf5, 0xfe, 0xfa, 0x09, 0x00,
  0x06, 0x05, 0xfb, 0x03, 0xf4, 0xfb, 0x09, 0xfe, 0xfb, 0x06, 0xfa, 0x04,
  0xf9, 0xf6, 0xfe, 0xf9, 0x00, 0x02, 0x03, 0x06, 0xfd, 0xfd, 0xfb, 0xfc,
  0x04, 0xfe, 0x01, 0x08, 0x03, 0x01, 0x08, 0x03, 0x00, 0xff, 0xfb, 0xfe,
  0xfc, 0xff, 0x00, 0xfd, 0xfa, 0x03, 0xfc, 0xff, 0x03, 0x01, 0x02, 0x11,
  0x09, 0x0b, 0x03, 0xfc, 0x0d, 0x09, 0x02, 0x05, 0x00, 0x0c, 0x02, 0xfb,
  0x04, 0x07, 0xfb, 0x02, 0xfa, 0x02, 0xfc, 0xfc, 0x05, 0xfc, 0x01, 0x01,
  0x07, 0xfd, 0x0c, 0x12, 0x0c, 0x0d, 0x06, 0xf6, 0x00, 0xff, 0xf7, 0x05,
  0xfa, 0x04, 0xf9, 0x04, 0x03, 0x02, 0x01, 0xfb, 0xfd, 0x02, 0xff, 0xfe,
  0x01, 0xfe, 0xfd, 0xff, 0x01, 0xfa, 0x07, 0x0f, 0x09, 0x03, 0xfc, 0xfe,
  0xfd, 0x00, 0xfe, 0xf9, 0xfe, 0xfc, 0xfe, 0xfb, 0xff, 0x0a, 0x02, 0xf6,
  0xff, 0xf9, 0xfb, 0xff, 0xfd, 0xf7, 0xfb, 0xff, 0xee, 0xfc, 0x04, 0x0d,
  0x05, 0x08, 0xf5, 0xfb, 0x04, 0xfc, 0x05, 0xfb, 0xff, 0xfe, 0x09, 0x0a,
  0xfe, 0x00, 0x04, 0x01, 0xff, 0xfd, 0x02, 0xfb, 0x03, 0xfb, 0x01, 0xff,
  0xfc, 0xf5, 0x01, 0x0d, 0x0a, 0xfb, 0xfd, 0xfa, 0x03, 0x0b, 0xfd, 0x01,
  0x00, 0x09, 0x06, 0x05, 0x00, 0x0c, 0x03, 0xfd, 0x02, 0x00, 0xfd, 0xfe,
  0x09, 0x03, 0x02, 0x07, 0x00, 0x0a, 0x0b, 0x0d, 0x03, 0xff, 0x09, 0x01,
  0xfb, 0x05, 0x04, 0xf9, 0xfa, 0x03, 0xff, 0xff, 0x00, 0x09, 0x0c, 0xfb,
  0xfe, 0xfa, 0x03, 0x04, 0x00, 0x02, 0x00, 0x08, 0x00, 0x04, 0xfa, 0xfa,
  0xfd, 0x02, 0xfe, 0xfe, 0x06, 0x05, 0x02, 0xfd, 0xfb, 0x00, 0xfe, 0xfc,
  0xfb, 0x02, 0x0a, 0xff, 0xfc, 0x00, 0xff, 0x0c, 0x02, 0x00, 0x0e, 0x01,
  0xfe, 0xf9, 0xf1, 0x00, 0xf0, 0x01, 0x0a, 0x04, 0x03, 0x04, 0x01, 0x0b,
  0x06, 0xfc, 0xf2, 0xed, 0xfc, 0x03, 0x0d, 0xf9, 0xf9, 0xf7, 0xfc, 0x0e,
  0x0f, 0x0d, 0x0c, 0xff, 0xf7, 0xf5, 0xf9, 0xfe, 0xeb, 0xee, 0x01, 0x0f,
  0x0a, 0x00, 0x03, 0xfd, 0x01, 0xff, 0xf9, 0xed, 0xfb, 0x0e, 0x0e, 0x05,
  0xee, 0xfa, 0x01, 0xfe, 0x0a, 0x05, 0x0a, 0x02, 0xfd, 0xec, 0xef, 0xf8,
  0xe7, 0xef, 0xf3, 0x09, 0x0c, 0xf9, 0xfd, 0xfe, 0x03, 0xfc, 0xe8, 0xf6,
  0xfe, 0x1a, 0x13, 0x0d, 0xee, 0xf3, 0xf2, 0x05, 0x04, 0x0d, 0x0e, 0x0d,
  0x00, 0xf3, 0xea, 0xe9, 0xea, 0xf8, 0xfb, 0x04, 0x02, 0xfd, 0xfc, 0xf7,
  0xf2, 0xe9, 0xdf, 0xf4, 0x0f, 0x27, 0x27, 0x0a, 0xed, 0xe8, 0xf5, 0xfd,
  0x02, 0x13, 0x15, 0x0f, 0x02, 0xf4, 0xe5, 0xd8, 0xed, 0xfa, 0xed, 0xed,
  0xf7, 0xff, 0xf9, 0xf7, 0xf0, 0xdf, 0xde, 0xfa, 0x22, 0x2b, 0x29, 0x0a,
  0xeb, 0xe7, 0xef, 0xef, 0xfb, 0x0d, 0x0e, 0x1a, 0x08, 0xf4, 0xe4, 0xe6,
  0xff, 0xf2, 0xe8, 0xe2, 0xf5, 0xfd, 0xf0, 0xe8, 0xe9, 0xd8, 0xe5, 0x03,
  0x1d, 0x2e, 0x2c, 0x15, 0xf0, 0xdb, 0xdc, 0xd5, 0xe1, 0x09, 0x13, 0x19,
  0x17, 0xfa, 0xf6, 0xf7, 0xe8, 0xe8, 0xdf, 0xe9, 0xf4, 0xf5, 0xef, 0xe9,
  0xdf, 0xdb, 0xe1, 0x09, 0x1a, 0x23, 0x2d, 0x12, 0xec, 0xc4, 0xbe, 0xce,
  0xea, 0x01, 0x22, 0x21, 0x1c, 0x04, 0xf6, 0xfd, 0xed, 0xeb, 0xec, 0xe3,
  0xeb, 0xeb, 0xe8, 0xe4, 0xe1, 0xe5, 0xfd, 0x0b, 0x1b, 0x23, 0x23, 0x18,
  0xec, 0xcc, 0xcc, 0xca, 0xe1, 0xf8, 0x12, 0x16, 0x1a, 0xfe, 0x02, 0x01,
  0xf3, 0xe7, 0xeb, 0xe9, 0xe7, 0xe8, 0xf3, 0xe7, 0xe7, 0xfb, 0x04, 0x16,
  0x18, 0x1c, 0x20, 0x12, 0xf0, 0xcf, 0xc4, 0xd5, 0xf0, 0xfe, 0x0a, 0x11,
  0x0c, 0xf8, 0x01, 0x00, 0xf8, 0xf5, 0xee, 0xef, 0xe2, 0xee, 0xf9, 0xee,
  0xfb, 0xf5, 0x01, 0x0c, 0x19, 0x1d, 0x19, 0x14, 0xe5, 0xbd, 0xb7, 0xc9,
  0xdc, 0xf1, 0xf9, 0x03, 0xfd, 0xfd, 0x08, 0x04, 0xf7, 0xf9, 0xf8, 0xee,
  0xea, 0xe8, 0xf6, 0xf6, 0x05, 0x07, 0x0f, 0x0d, 0x20, 0x23, 0x20, 0x00,
  0xdb, 0xbf, 0xaf, 0xc0, 0xd2, 0xd1, 0xde, 0x02, 0x03, 0x0f, 0xff, 0xf5,
  0x02, 0xfa, 0xfa, 0xfa, 0xf2, 0xfb, 0xf5, 0xfb, 0x04, 0x10, 0x14, 0x19,
  0x26, 0x1f, 0x11, 0x00, 0xe5, 0xc4, 0xbc, 0xc1, 0xc8, 0xd2, 0xdb, 0x00,
  0x05, 0x10, 0x03, 0x07, 0x03, 0xf9, 0x04, 0xf7, 0x01, 0xf8, 0xf6, 0xfb,
  0xfe, 0xfa, 0xfb, 0xfb, 0xf9, 0xfe, 0xf8, 0xf6, 0xfc, 0xf8, 0xfd, 0x01,
  0xfd, 0x01, 0xf9, 0xf9, 0x03, 0xfd, 0xfe, 0xfa, 0xfe, 0x03, 0x04, 0x02,
  0xf7, 0xfa, 0xfa, 0x04, 0x03, 0x03, 0xfb, 0xf8, 0xf8, 0xff, 0xf8, 0xf8,
  0x01, 0xf9, 0xfd, 0xfd, 0xfa, 0x01, 0x06, 0x01, 0xfe, 0xf7, 0xf8, 0xf7,
  0x00, 0xff, 0x02, 0xfa, 0xf8, 0x01, 0xfb, 0xfd, 0x03, 0x02, 0x05, 0xfe,
  0xf8, 0xf6, 0xfb, 0xf7, 0x04, 0x01, 0x02, 0x02, 0x06, 0x01, 0x01, 0xfc,
  0xfc, 0xf9, 0x01, 0xf8, 0xfc, 0x03, 0xff, 0xf6, 0xf9, 0x01, 0xfd, 0x00,
  0x01, 0x09, 0x0b, 0xfd, 0x06, 0xf6, 0xfa, 0xfe, 0x06, 0x02, 0xfc, 0x06,
  0x01, 0x0a, 0x00, 0x05, 0xfc, 0xf9, 0xff, 0xf8, 0xfb, 0x02, 0x03, 0xfa,
  0x03, 0x06, 0xfc, 0x07, 0x01, 0x04, 0x0d, 0x08, 0x07, 0x02, 0x05, 0x09,
  0x06, 0x04, 0xff, 0x00, 0x00, 0xfd, 0xfd, 0x05, 0xfc, 0x03, 0xf8, 0xfb,
  0xfe, 0x00, 0xf6, 0xfa, 0x00, 0x03, 0xfc, 0x06, 0x05, 0x0d, 0x03, 0x05,
  0x01, 0x0a, 0x0a, 0x07, 0x0a, 0x02, 0x00, 0xfc, 0x04, 0x01, 0x00, 0xff,
  0x00, 0x01, 0x03, 0xf9, 0xf6, 0xfc, 0xfa, 0x05, 0xf9, 0xfd, 0x01, 0x0a,
  0x05, 0x0c, 0x13, 0x0f, 0x0c, 0x0a, 0x0f, 0x0e, 0x05, 0x00, 0x02, 0xfd,
  0xfc, 0xf8, 0xfb, 0xf4, 0xfe, 0xfd, 0x02, 0xf7, 0xfb, 0xf6, 0xfe, 0x06,
  0x07, 0x02, 0x0e, 0x02, 0x12, 0x10, 0x15, 0x16, 0x08, 0x05, 0x0e, 0x0b,
  0x08, 0xfe, 0xfb, 0xed, 0xed, 0xf3, 0xec, 0xf4, 0xf7, 0xf9, 0xf6, 0xf8,
  0x04, 0x05, 0xfe, 0x02, 0xfe, 0x05, 0x10, 0x0f, 0x11, 0x15, 0x0f, 0x1a,
  0x08, 0x0d, 0x10, 0x08, 0x08, 0xfa, 0xf4, 0xec, 0xe4, 0xec, 0xea, 0xec,
  0xf4, 0xef, 0xf9, 0xf5, 0xf6, 0xf8, 0xfe, 0x09, 0x10, 0x0a, 0x15, 0x11,
  0x13, 0x11, 0x12, 0x15, 0x0f, 0x05, 0x06, 0x09, 0x02, 0xf0, 0xe8, 0xec,
  0xee, 0xf6, 0xf2, 0xfb, 0xf0, 0xf1, 0xf1, 0xfa, 0xfb, 0xf9, 0x08, 0x0c,
  0x07, 0x13, 0x17, 0x13, 0x1a, 0x21, 0x19, 0x12, 0x0b, 0x06, 0x07, 0x0b,
  0xf7, 0xf0, 0xf3, 0xf0, 0xfc, 0x00, 0x06, 0xff, 0xff, 0xfd, 0x01, 0xf7,
  0xfb, 0xfc, 0x03, 0x0a, 0x0f, 0x11, 0x14, 0x1c, 0x1d, 0x26, 0x20, 0x14,
  0x07, 0x03, 0x01, 0x05, 0xf3, 0xff, 0xfe, 0xfe, 0x09, 0x13, 0x12, 0x0a,
  0x0a, 0x05, 0x06, 0x05, 0xfa, 0x03, 0x0a, 0x0b, 0x13, 0x0f, 0x13, 0x12,
  0x1d, 0x19, 0x1c, 0x10, 0x02, 0xfc, 0x06, 0x07, 0xfb, 0x0a, 0x06, 0x0f,
  0x12, 0x12, 0x19, 0x15, 0x1a, 0x0d, 0x05, 0xff, 0xfd, 0x00, 0x07, 0xff,
  0x0b, 0x05, 0x0e, 0x10, 0x10, 0x0c, 0x0b, 0x03, 0xf9, 0xff, 0x01, 0x00,
  0x10, 0x1d, 0x13, 0x16, 0x20, 0x1a, 0x21, 0x1c, 0x1a, 0x0e, 0x03, 0x03,
  0xf7, 0xff, 0xff, 0x07, 0xfd, 0x01, 0xf7, 0xfb, 0xfd, 0x08, 0xf9, 0xf6,
  0xe7, 0xf0, 0xfe, 0x12, 0x1f, 0x14, 0x18, 0x22, 0x20, 0x20, 0x1e, 0x1a,
  0x1c, 0x10, 0x0c, 0x08, 0x03, 0xfb, 0xf8, 0xfd, 0xf8, 0xf5, 0xfa, 0xf2,
  0x01, 0xfc, 0xf7, 0xf0, 0xe7, 0xf9, 0x08, 0x25, 0x24, 0x1e, 0x17, 0x18,
  0x1f, 0x1b, 0x1b, 0x0e, 0x11, 0x0f, 0x02, 0x01, 0xff, 0xfe, 0xf2, 0xfd,
  0xf0, 0xed, 0xeb, 0xf6, 0xf5, 0xf2, 0xed, 0xed, 0xf5, 0x08, 0x1a, 0x2b,
  0x21, 0x1f, 0x1e, 0x20, 0x0e, 0x05, 0x07, 0x12, 0x05, 0x05, 0x03, 0xf9,
  0x00, 0xf3, 0xf4, 0xed, 0xf0, 0xea, 0xe9, 0xf2, 0xe8, 0xe3, 0xec, 0xe9,
  0xfa, 0x18, 0x27, 0x2c, 0x24, 0x12, 0x17, 0x0e, 0x0a, 0x01, 0xfe, 0x03,
  0x00, 0xf9, 0xf9, 0xf5, 0xfd, 0xfd, 0xf1, 0xf0, 0xf6, 0xf5, 0xf5, 0xed,
  0xef, 0xe2, 0xe4, 0xe4, 0xf1, 0x0e, 0x25, 0x23, 0x0f, 0x06, 0xfc, 0xfe,
  0xf1, 0xf3, 0xf9, 0xf8, 0xfc, 0xfe, 0xfb, 0xfe, 0xfd, 0xf6, 0xfd, 0xf9,
  0xf4, 0xf4, 0xfd, 0xfe, 0xf1, 0xf5, 0xe5, 0xe5, 0xee, 0xff, 0x10, 0x0b,
  0x0a, 0xfe, 0xec, 0xf1, 0xef, 0xfc, 0xfe, 0xff, 0xfd, 0xf3, 0xff, 0xfe,
  0x02, 0xf7, 0xf9, 0xfe, 0xf4, 0xf7, 0xfc, 0x00, 0xf7, 0xf3, 0xec, 0xe6,
  0xea, 0xf5, 0xf6, 0x06, 0xfc, 0xf5, 0xf6, 0xf8, 0xed, 0xfb, 0xf3, 0xf2,
  0xfa, 0xf2, 0xf6, 0xfc, 0xf7, 0xff, 0xfe, 0x01, 0xfa, 0x05, 0xff, 0xf6,
  0xf7, 0xf3, 0xe8, 0xec, 0xe9, 0xe7, 0xee, 0xf8, 0xf6, 0xf7, 0xeb, 0xf0,
  0xeb, 0xf7, 0xf0, 0xf3, 0xf2, 0xfc, 0xf7, 0xfc, 0x02, 0xf9, 0xfa, 0x01,
  0xf5, 0x03, 0xff, 0xff, 0xf3, 0xee, 0xf9, 0xf0, 0xe7, 0xda, 0xe6, 0xeb,
  0xea, 0xf0, 0xee, 0xee, 0xf4, 0xf4, 0xef, 0xf8, 0xfb, 0xf4, 0xf8, 0x00,
  0xff, 0xf9, 0xf7, 0x00, 0x05, 0xfb, 0x01, 0x00, 0xf8, 0x01, 0xf8, 0xed,
  0xea, 0xe8, 0xe5, 0xed, 0xea, 0xf2, 0xf3, 0xf2, 0xfa, 0xf8, 0xfa, 0xf6,
  0xfa, 0x00, 0xfb, 0xfb, 0xfd, 0xff, 0x03, 0xfe, 0x02, 0xfe, 0x06, 0xff,
  0x07, 0xfd, 0x05, 0xfa, 0xf0, 0xf6, 0xf9, 0xfe, 0xfa, 0xfb, 0x02, 0x03,
  0xfb, 0xf2, 0xfc, 0xf7, 0xf9, 0xf4, 0xff, 0xf6, 0xfd, 0xff, 0x02, 0xfc,
  0x05, 0x07, 0x07, 0x07, 0x0f, 0x0c, 0x08, 0x0c, 0x07, 0xfb, 0xfc, 0xfc,
  0x00, 0x03, 0x04, 0x05, 0x02, 0xf6, 0x00, 0xfe, 0x02, 0xf8, 0x00, 0xfd,
  0xfd, 0xf8, 0xfb, 0xfe, 0x04, 0x03, 0x06, 0x06, 0x10, 0x0e, 0x0c, 0x13,
  0x11, 0x0d, 0x08, 0x0d, 0x07, 0x0a, 0x0c, 0x0c, 0x07, 0xf9, 0x01, 0x03,
  0x00, 0xfe, 0xfa, 0x00, 0xf9, 0x02, 0xfe, 0x02, 0xfe, 0x04, 0x01, 0x05,
  0x06, 0x0d, 0x0c, 0x08, 0x06, 0x06, 0x0e, 0x0d, 0x05, 0x06, 0xff, 0x01,
  0xfc, 0x06, 0xfc, 0xfa, 0xfd, 0xf9, 0xfc, 0x02, 0x08, 0x07, 0xfc, 0xfa,
  0xf9, 0xf8, 0x05, 0x02, 0xfa, 0xf8, 0xf7, 0x01, 0x03, 0x02, 0x04, 0x05,
  0x06, 0x08, 0xfd, 0xf5, 0xf6, 0xfe, 0x07, 0x04, 0xfd, 0x0b, 0x05, 0x06,
  0x07, 0x06, 0x02, 0xfc, 0xfa, 0xfe, 0xfb, 0xfc, 0x02, 0xfd, 0x0b, 0xfe,
  0x08, 0x02, 0xff, 0x0a, 0x0d, 0x02, 0x02, 0xfc, 0x00, 0xfa, 0xf6, 0x05,
  0x06, 0x0c, 0x02, 0x08, 0xfe, 0x00, 0x07, 0x02, 0xf8, 0x01, 0xf7, 0xfd,
  0xff, 0x0c, 0x09, 0x0e, 0x12, 0x0b, 0x0b, 0x06, 0x09, 0x0b, 0xff, 0xfe,
  0x07, 0x0e, 0xfd, 0x00, 0x06, 0x06, 0x04, 0x01, 0x05, 0x00, 0x08, 0x02,
  0xfc, 0x00, 0xfd, 0x05, 0x03, 0x0f, 0x0a, 0x05, 0x07, 0x09, 0x12, 0x0b,
  0x0c, 0x02, 0xfd, 0xfe, 0x09, 0x05, 0x05, 0x05, 0x05, 0x00, 0x07, 0x0c,
  0x07, 0x03, 0x0b, 0x07, 0x02, 0x00, 0x00, 0x03, 0x07, 0xf8, 0xfa, 0x05,
  0x03, 0x05, 0x08, 0x0c, 0x11, 0x07, 0x0c, 0x0d, 0x0f, 0x13, 0x04, 0x08,
  0x07, 0x14, 0x0c, 0x0b, 0x0b, 0x04, 0x11, 0x0d, 0x02, 0xfa, 0xf9, 0xfe,
  0xfe, 0xf8, 0xfc, 0x06, 0xff, 0x00, 0x12, 0x0b, 0x0c, 0x0f, 0x0b, 0x0a,
  0x16, 0x1d, 0x0f, 0x0a, 0x11, 0x1a, 0x10, 0xff, 0x04, 0x0b, 0x09, 0x14,
  0x0a, 0x03, 0x01, 0x03, 0x0a, 0x01, 0x03, 0x02, 0xff, 0xff, 0x0d, 0x02,
  0x07, 0x08, 0x10, 0x19, 0x16, 0x0c, 0x10, 0x0f, 0x10, 0x11, 0x0b, 0x02,
  0xfd, 0x08, 0x12, 0x07, 0x0e, 0x0b, 0x07, 0x01, 0xfa, 0x04, 0xfe, 0xfd,
  0x04, 0xff, 0x01, 0x0f, 0x01, 0x09, 0x01, 0x03, 0x03, 0x09, 0x0e, 0x14,
  0x13, 0x0d, 0x07, 0x07, 0x04, 0x04, 0x0e, 0x0d, 0x05, 0x09, 0x02, 0xfa,
  0xfb, 0x08, 0x00, 0x01, 0x05, 0x0a, 0x01, 0x02, 0x00, 0x09, 0x02, 0x07,
  0x09, 0x07, 0xf8, 0xfd, 0xfc, 0xfc, 0xfa, 0xf9, 0x07, 0x0c, 0x14, 0x04,
  0x05, 0x06, 0xfd, 0xfc, 0x04, 0x0b, 0x09, 0x0a, 0x07, 0x0c, 0x03, 0x01,
  0xfe, 0x06, 0x02, 0xfe, 0x06, 0xf9, 0xf6, 0xe6, 0xe6, 0xe8, 0xf2, 0xfe,
  0x07, 0x13, 0x16, 0x06, 0x09, 0x06, 0x00, 0x06, 0x02, 0x07, 0x0a, 0x09,
  0x0d, 0x13, 0x08, 0x1a, 0x0c, 0x05, 0x0a, 0xfb, 0xfa, 0xf7, 0xfb, 0xe9,
  0xdc, 0xda, 0xe7, 0xf2, 0x02, 0x07, 0x0c, 0x09, 0x0b, 0x01, 0x01, 0x00,
  0x05, 0xfa, 0x01, 0x03, 0x10, 0x0c, 0x0d, 0x17, 0x04, 0x11, 0x03, 0xfc,
  0xf9, 0xff, 0xfa, 0xe7, 0xe7, 0xe1, 0xe9, 0xec, 0xf9, 0x09, 0x11, 0x05,
  0x04, 0x14, 0x0e, 0x09, 0x0c, 0x00, 0x05, 0x04, 0x09, 0x09, 0x07, 0x09,
  0x0d, 0x04, 0x00, 0xfd, 0x0b, 0xfd, 0xfb, 0xf1, 0xeb, 0xea, 0xf1, 0xf3,
  0xf9, 0x00, 0x0b, 0x0a, 0x0d, 0x13, 0x13, 0x16, 0x0b, 0x07, 0x08, 0xff,
  0xf8, 0xf9, 0xec, 0xf6, 0xfd, 0x04, 0x00, 0x00, 0x04, 0x12, 0x10, 0x0f,
  0x06, 0xf3, 0xfb, 0xf4, 0xf8, 0x03, 0x0c, 0x05, 0x15, 0x12, 0x0e, 0x11,
  0x12, 0x12, 0x0c, 0x02, 0xf6, 0xdb, 0xd7, 0xdd, 0xf4, 0x02, 0x02, 0x00,
  0x08, 0x06, 0x15, 0x03, 0x0c, 0xfb, 0xf7, 0xfa, 0xfc, 0xff, 0x00, 0x0a,
  0x17, 0x16, 0x1b, 0x17, 0x12, 0x05, 0x05, 0xfe, 0xe6, 0xda, 0xd1, 0xdf,
  0xed, 0x01, 0x00, 0x04, 0x09, 0x0a, 0x0c, 0x04, 0x07, 0x00, 0xfe, 0xf6,
  0xfd, 0xfe, 0xfa, 0x11, 0x17, 0x23, 0x1c, 0x18, 0x07, 0x08, 0x06, 0xfc,
  0xe7, 0xe3, 0xe7, 0xea, 0xed, 0xf5, 0xfb, 0x01, 0xfe, 0x03, 0x09, 0x10,
  0x07, 0xf5, 0xf8, 0xfc, 0xff, 0x0b, 0x01, 0x02, 0x19, 0x1a, 0x16, 0x0a,
  0x01, 0x05, 0xfd, 0x00, 0xf7, 0xf8, 0xfd, 0xf5, 0xef, 0xf7, 0xfe, 0xf7,
  0xf7, 0x02, 0x07, 0x0b, 0x00, 0xf0, 0xed, 0xfe, 0xfd, 0xfa, 0xf7, 0xfe,
  0xff, 0x09, 0x05, 0x02, 0x00, 0x00, 0xfe, 0x07, 0x06, 0x09, 0x04, 0x00,
  0xf7, 0xee, 0xff, 0xfc, 0xf8, 0x02, 0xfa, 0xf1, 0xea, 0xea, 0xf2, 0xf6,
  0xfb, 0x02, 0xfb, 0xfe, 0x03, 0xff, 0xf8, 0x02, 0xfc, 0xf7, 0x04, 0x01,
  0x01, 0x06, 0x02, 0x07, 0xfd, 0xf6, 0xfa, 0xf9, 0xfb, 0xfd, 0xef, 0xe2,
  0xdd, 0xdd, 0xf4, 0xfa, 0x02, 0xff, 0xf7, 0xfd, 0xff, 0x02, 0xfe, 0x01,
  0xf7, 0xfc, 0xf6, 0xfd, 0xfe, 0x02, 0x01, 0x07, 0xf6, 0xf9, 0xfb, 0xfe,
  0xec, 0xf2, 0xe5, 0xdc, 0xe1, 0xe6, 0xf2, 0x00, 0x01, 0x02, 0x07, 0xff,
  0x00, 0x06, 0x05, 0x09, 0x02, 0xfd, 0x02, 0xf7, 0xfb, 0xff, 0x01, 0x05,
  0xfc, 0xf5, 0xf5, 0xf0, 0xe5, 0xde, 0xd9, 0xde, 0xe8, 0xec, 0xf3, 0xf6,
  0x0b, 0x04, 0x02, 0xfa, 0xff, 0x05, 0x00, 0x0e, 0x06, 0x0a, 0x04, 0x0b,
  0xfd, 0xfc, 0x06, 0xfa, 0xed, 0xea, 0xe6, 0xd9, 0xe0, 0xd9, 0xd8, 0xdc,
  0xe9, 0xea, 0xf2, 0xf8, 0x04, 0x07, 0x06, 0x05, 0x06, 0x03, 0x0c, 0x0b,
  0x0c, 0xfc, 0x07, 0x06, 0xfc, 0xfd, 0xfc, 0xec, 0xe4, 0xe4, 0xd6, 0xd6,
  0xd6, 0xdc, 0xdc, 0xdf, 0xf4, 0xfc, 0xf3, 0xf7, 0xfe, 0xfb, 0xff, 0xff,
  0xf9, 0xfa, 0xf6, 0xfd, 0x01, 0x08, 0x00, 0x09, 0xfc, 0xf8, 0xe9, 0xe2,
  0xe3, 0xde, 0xd0, 0xd1, 0xd8, 0xe6, 0xee, 0xed, 0xf3, 0xfd, 0xf5, 0x01,
  0x00, 0x06, 0xfa, 0x01, 0xf6, 0xfb, 0xec, 0xf3, 0xfb, 0xfd, 0xf8, 0xf5,
  0xe6, 0xdb, 0xd9, 0xe7, 0xeb, 0xd9, 0xde, 0xe6, 0xf3, 0xfd, 0xff, 0xf6,
  0xff, 0x00, 0x00, 0xff, 0x01, 0xff, 0x05, 0x00, 0xf8, 0xfb, 0xe6, 0xe8,
  0xe1, 0xf0, 0xe6, 0xdf, 0xdc, 0xd5, 0xd5, 0xed, 0xe4, 0xeb, 0xf2, 0xf6,
  0xfa, 0x0b, 0x0d, 0xfb, 0x00, 0x03, 0xfc, 0x01, 0xfd, 0x08, 0xff, 0x06,
  0xf9, 0xf9, 0xea, 0xe6, 0xe3, 0xe3, 0xe4, 0xea, 0xf1, 0xf1, 0xf1, 0xef,
  0xf5, 0x02, 0xf9, 0xfd, 0x04, 0x01, 0x0f, 0xfb, 0xf7, 0xfa, 0xfc, 0x08,
  0xfd, 0x07, 0xfc, 0x07, 0x03, 0x05, 0x0c, 0x08, 0x08, 0x07, 0xf8, 0xf9,
  0xf5, 0xf1, 0xf2, 0xfc, 0x01, 0xfc, 0xfe, 0x07, 0xf0, 0xfb, 0xf2, 0xff,
  0xf6, 0x05, 0x00, 0xfc, 0xfa, 0x01, 0x01, 0x04, 0xff, 0xff, 0x06, 0x02,
  0xfa, 0xfe, 0xfe, 0xf3, 0xf2, 0xf8, 0xf0, 0xfc, 0x02, 0x04, 0x04, 0xfb,
  0xf6, 0xee, 0x00, 0x03, 0x02, 0x06, 0x08, 0xf9, 0x01, 0x02, 0xf6, 0xf7,
  0xff, 0x01, 0x01, 0xfb, 0xf1, 0xed, 0xf5, 0xe7, 0xf5, 0xff, 0xfd, 0x0c,
  0x05, 0xf8, 0xed, 0xde, 0xf1, 0xfc, 0xfd, 0x06, 0x04, 0xff, 0x04, 0xf9,
  0x03, 0xf3, 0xfe, 0x02, 0xf8, 0xf7, 0xf9, 0xfb, 0xee, 0xf7, 0xf1, 0xf4,
  0xfb, 0xf6, 0x01, 0x0d, 0x10, 0xfb, 0xe5, 0xe4, 0xed, 0x06, 0x03, 0xfe,
  0x07, 0x04, 0x0c, 0x00, 0x04, 0xfa, 0x04, 0x01, 0xfd, 0xfa, 0x12, 0x0f,
  0x04, 0xfa, 0xfa, 0x00, 0x03, 0x08, 0x0f, 0x08, 0x00, 0xf8, 0xea, 0xfa,
  0xfd, 0x0c, 0x0a, 0x0c, 0x08, 0x13, 0x09, 0x02, 0xfe, 0x00, 0xf9, 0x08,
  0x0a, 0x0e, 0x0b, 0x13, 0x0b, 0xf7, 0xfa, 0xf3, 0x00, 0x04, 0x0d, 0x06,
  0xf1, 0xe3, 0xeb, 0xf9, 0x02, 0x01, 0x06, 0x11, 0x12, 0x0b, 0x04, 0x06,
  0xf8, 0x02, 0xfd, 0xf8, 0x00, 0xfe, 0x01, 0x02, 0xfb, 0xff, 0xf2, 0xf9,
  0x00, 0x08, 0x03, 0xf1, 0xeb, 0xe0, 0xf3, 0x02, 0x0c, 0x02, 0xff, 0x07,
  0xfc, 0xf6, 0x09, 0x03, 0x04, 0xf1, 0xf2, 0xf5, 0x03, 0x08, 0x02, 0xf4,
  0xfb, 0xf9, 0xf6, 0xf5, 0xfe, 0x14, 0x07, 0xf9, 0xe3, 0xf2, 0xfc, 0x03,
  0x07, 0x00, 0x04, 0xfb, 0x04, 0x04, 0x08, 0x0a, 0xf6, 0xef, 0xf0, 0xfb,
  0x01, 0x08, 0x05, 0x03, 0xf6, 0xfd, 0xea, 0xf6, 0xfc, 0x06, 0x0b, 0xe9,
  0xe9, 0xf7, 0x09, 0x10, 0xfd, 0x00, 0x00, 0xfe, 0x03, 0xfd, 0x06, 0x09,
  0xfe, 0xfd, 0xfa, 0x05, 0x05, 0x03, 0x10, 0x05, 0xfd, 0xf5, 0xee, 0xf2,
  0x06, 0x0c, 0xf9, 0xe9, 0xed, 0x04, 0x05, 0x0d, 0xf2, 0xf1, 0xfc, 0x01,
  0xff, 0x00, 0xfa, 0x04, 0xfb, 0xfe, 0x02, 0x05, 0x0b, 0x0e, 0x0d, 0x07,
  0x0b, 0x05, 0xed, 0xf1, 0x0c, 0x03, 0xed, 0xeb, 0xfe, 0x07, 0x07, 0x00,
  0xf6, 0xfb, 0xf8, 0xff, 0xf8, 0xf2, 0xf4, 0xfb, 0xfb, 0xff, 0x03, 0x0c,
  0x0c, 0x0f, 0x0f, 0x14, 0x0d, 0xfe, 0xf5, 0x06, 0x0c, 0xfa, 0xf1, 0xf7,
  0x05, 0x05, 0x05, 0xf9, 0x05, 0x02, 0xfd, 0xf0, 0xfa, 0xfc, 0xf4, 0xfd,
  0xfd, 0xf6, 0x09, 0x17, 0x0e, 0x19, 0x16, 0x19, 0x0c, 0x04, 0xfc, 0x09,
  0x03, 0xfe, 0xf7, 0x02, 0x0a, 0x0f, 0x02, 0xfa, 0x03, 0x07, 0x0b, 0x02,
  0x05, 0x07, 0x03, 0xfd, 0x07, 0xff, 0x0c, 0x16, 0x12, 0x0b, 0x06, 0x05,
  0x02, 0xf5, 0xf8, 0xf7, 0xfd, 0x00, 0xff, 0xfb, 0x04, 0x0b, 0xfe, 0xf3,
  0xf7, 0x01, 0xfe, 0x06, 0xfe, 0x07, 0x00, 0xfa, 0x00, 0xf2, 0x00, 0x11,
  0x0d, 0x03, 0x06, 0xf4, 0xe8, 0xeb, 0xf2, 0x01, 0x01, 0x07, 0x04, 0xfc,
  0x06, 0x01, 0xff, 0xf4, 0xf3, 0x0c, 0x08, 0x11, 0x0b, 0x0c, 0x04, 0xf3,
  0xfd, 0xe7, 0xfc, 0x0b, 0x07, 0x03, 0xed, 0xe7, 0xdf, 0xe5, 0xef, 0x05,
  0x14, 0x14, 0xfc, 0xfa, 0x00, 0x0f, 0x07, 0x02, 0xfd, 0x0d, 0x17, 0x11,
  0x15, 0x0f, 0x04, 0xf1, 0xe8, 0xd9, 0xea, 0xef, 0xfa, 0xe6, 0xe7, 0xc6,
  0xd2, 0xf0, 0x04, 0x16, 0x22, 0x05, 0xfe, 0xf7, 0x01, 0x0d, 0x09, 0x02,
  0xf7, 0xff, 0x09, 0x14, 0x0f, 0x05, 0x02, 0x06, 0xf0, 0xe2, 0xdf, 0xe4,
  0xdc, 0xd8, 0xd1, 0xd8, 0xf1, 0x07, 0x17, 0x27, 0x1e, 0x06, 0xf3, 0xf2,
  0x06, 0x0f, 0x08, 0xfd, 0xf6, 0x01, 0x05, 0x03, 0xfd, 0xf3, 0xf1, 0xf6,
  0xea, 0xdc, 0xe0, 0xd5, 0xd9, 0xdd, 0xe3, 0xf1, 0x0c, 0x1e, 0x2c, 0x33,
  0x1c, 0xf4, 0xeb, 0xf3, 0x00, 0xfe, 0xfc, 0x01, 0x01, 0xfc, 0xf3, 0xf7,
  0xfe, 0xf9, 0xed, 0xff, 0xf0, 0xe1, 0xda, 0xe5, 0xe5, 0xec, 0xf5, 0x04,
  0x11, 0x21, 0x28, 0x2a, 0x1c, 0xf1, 0xe1, 0xe1, 0xec, 0xf4, 0xf7, 0xff,
  0xf8, 0xe9, 0xf1, 0xeb, 0xf8, 0xf7, 0xed, 0xee, 0xf7, 0xec, 0xeb, 0xfb,
  0xfb, 0xf7, 0xfe, 0x04, 0x08, 0x24, 0x1c, 0x26, 0x14, 0xee, 0xeb, 0xeb,
  0xe0, 0xe2, 0xf1, 0xed, 0xec, 0xe1, 0xec, 0xf9, 0xf6, 0xf8, 0x02, 0xf3,
  0xfe, 0xee, 0xf2, 0xf9, 0x00, 0x04, 0xff, 0xff, 0x14, 0x0a, 0x14, 0x25,
  0x15, 0x04, 0xf6, 0xec, 0xd9, 0xdd, 0xe8, 0xea, 0xe8, 0xe6, 0xed, 0xf0,
  0xf3, 0xff, 0xfe, 0xf0, 0xf7, 0xf5, 0x01, 0x0a, 0x0b, 0x0b, 0xff, 0x06,
  0x17, 0x08, 0x1b, 0x1a, 0x19, 0x0e, 0x00, 0xfb, 0xf5, 0xe7, 0xec, 0xf3,
  0xe7, 0xf8, 0xf4, 0xfc, 0xfe, 0xf0, 0xf5, 0xf9, 0xff, 0xfb, 0x0a, 0x0f,
  0x0e, 0x0d, 0x00, 0x07, 0x07, 0x07, 0x1b, 0x14, 0x17, 0x03, 0x0b, 0x03,
  0x08, 0xfa, 0xfd, 0xf5, 0xfa, 0xf7, 0xf4, 0xf4, 0xf5, 0xf2, 0xf0, 0xfe,
  0x06, 0xfe, 0x04, 0x04, 0x10, 0x0e, 0x0b, 0x03, 0x07, 0x06, 0x10, 0x15,
  0x01, 0x06, 0x06, 0x05, 0x0d, 0x05, 0xfd, 0xfc, 0xfc, 0xf9, 0xef, 0xf5,
  0xef, 0xf7, 0xf6, 0xff, 0x08, 0xfa, 0xf8, 0xff, 0x04, 0x0e, 0x04, 0x05,
  0x0a, 0x04, 0x0b, 0x13, 0x0d, 0x0b, 0x02, 0x07, 0x07, 0x08, 0xfc, 0x0b,
  0x06, 0xf3, 0xf8, 0xfe, 0xf1, 0xf8, 0xf4, 0xfe, 0x03, 0x06, 0x05, 0x03,
  0x07, 0x0a, 0x0a, 0x03, 0x07, 0x0a, 0x09, 0x15, 0x19, 0x15, 0x0f, 0xf7,
  0x07, 0x04, 0x02, 0x0b, 0x02, 0x02, 0xfb, 0xf9, 0xfb, 0x02, 0x05, 0xf7,
  0xfd, 0x06, 0x03, 0x0e, 0x06, 0x0a, 0x00, 0xfc, 0xf1, 0xf8, 0xfc, 0x02,
  0x14, 0x08, 0xff, 0xf0, 0xf3, 0xf8, 0x00, 0xff, 0xfe, 0x03, 0xfc, 0x05,
  0x04, 0xff, 0x02, 0x00, 0xfc, 0x01, 0xf9, 0x01, 0x04, 0xfb, 0xfe, 0xfa,
  0xf0, 0xf6, 0x04, 0x0f, 0x0a, 0x0a, 0xfc, 0xfd, 0xfa, 0x01, 0x00, 0x01,
  0xfb, 0xf9, 0xfa, 0xf3, 0xfa, 0xfa, 0x03, 0x01, 0x04, 0xf9, 0x02, 0xf3,
  0xf4, 0xfd, 0xf2, 0xf7, 0xf0, 0xf5, 0x0f, 0x13, 0x13, 0x13, 0x06, 0xf9,
  0x05, 0x01, 0xfc, 0xf3, 0xf0, 0x01, 0x00, 0xf5, 0xfe, 0xfc, 0xf8, 0x04,
  0xf6, 0xf9, 0xf6, 0xf8, 0xf8, 0xee, 0xf6, 0xf0, 0xec, 0xfe, 0x11, 0x18,
  0x1e, 0x1d, 0x18, 0x01, 0xef, 0xf6, 0xfd, 0x04, 0xff, 0x0d, 0x00, 0x03,
  0x02, 0x02, 0x03, 0xfa, 0xfd, 0xfb, 0xf4, 0xf5, 0xe6, 0xe3, 0xe4, 0xf1,
  0xf3, 0xfc, 0x10, 0x17, 0x28, 0x1f, 0x0d, 0x05, 0xe8, 0xed, 0x04, 0x04,
  0x02, 0x02, 0x09, 0xff, 0x06, 0x03, 0xfa, 0xfa, 0xf5, 0x00, 0xef, 0xf1,
  0xe8, 0xe8, 0xed, 0xf4, 0xfd, 0xfd, 0x16, 0x1a, 0x17, 0x1d, 0x0b, 0xf5,
  0xea, 0xe0, 0xf6, 0xfb, 0xf9, 0xfc, 0x02, 0x02, 0xfe, 0x09, 0x09, 0xf8,
  0xf8, 0xfa, 0xf4, 0xed, 0xea, 0xf0, 0xf3, 0xf8, 0xf7, 0x08, 0x17, 0x0b,
  0x14, 0x07, 0xff, 0xf2, 0xe1, 0xdc, 0xee, 0xf5, 0xec, 0xf7, 0xff, 0xf5,
  0x07, 0x0a, 0x08, 0x03, 0xf4, 0xf8, 0xef, 0xf1, 0xf6, 0xf5, 0xe8, 0xf4,
  0xfe, 0x01, 0x04, 0x04, 0x01, 0x14, 0xfb, 0xee, 0xdf, 0xe1, 0xed, 0xfb,
  0xef, 0xf0, 0xfa, 0x03, 0x06, 0xfa, 0xfe, 0xf6, 0xf0, 0xe8, 0xec, 0xf0,
  0x02, 0xfb, 0xfa, 0xf6, 0x09, 0x03, 0x06, 0x00, 0x0d, 0x0a, 0xf3, 0xe6,
  0xdb, 0xde, 0xf4, 0xf5, 0xfa, 0xfa, 0xfc, 0x03, 0x00, 0x04, 0xfc, 0xf6,
  0xf7, 0xf4, 0xfa, 0xfa, 0xfb, 0xf8, 0xfb, 0xf4, 0x09, 0x03, 0x03, 0xfe,
  0x0f, 0x06, 0xfa, 0xe6, 0xec, 0xde, 0xe9, 0xfc, 0xf5, 0xef, 0xf0, 0xf5,
  0x05, 0xfd, 0xf7, 0xf4, 0xfd, 0x02, 0x09, 0x08, 0xfe, 0xfd, 0xf4, 0xf9,
  0x03, 0xff, 0xff, 0xff, 0x09, 0x0e, 0x09, 0xed, 0xf1, 0xea, 0xf2, 0xf7,
  0xf6, 0xf6, 0xec, 0xf4, 0xf3, 0x01, 0xfb, 0x04, 0xfb, 0xff, 0x09, 0x01,
  0xf9, 0xf6, 0x00, 0xfc, 0xff, 0xf1, 0xf7, 0xf7, 0x05, 0x06, 0x05, 0x01,
  0xf4, 0xf8, 0xfe, 0xfb, 0xf0, 0xe4, 0xf1, 0xf2, 0xf7, 0xff, 0xfb, 0xfd,
  0x04, 0x05, 0x04, 0xff, 0xef, 0xf7, 0xff, 0xf2, 0xec, 0xf5, 0xfb, 0xfd,
  0x07, 0x09, 0x0a, 0xfd, 0xee, 0xf6, 0xf2, 0xf4, 0xed, 0xee, 0xf4, 0xf0,
  0xff, 0xfe, 0x00, 0x0b, 0xff, 0x0e, 0x05, 0xfa, 0xef, 0xf9, 0xf3, 0xf1,
  0xe5, 0xee, 0xeb, 0xf4, 0xfc, 0x0a, 0xfd, 0xf4, 0xeb, 0xf2, 0xec, 0xf6,
  0xf4, 0xf9, 0xf4, 0xfb, 0xfb, 0x0a, 0xfb, 0xfa, 0xff, 0x00, 0xf7, 0xf7,
  0xee, 0xfd, 0xf2, 0xe9, 0xea, 0xf1, 0xed, 0xfc, 0x0d, 0x0b, 0x01, 0xf1,
  0xe7, 0xee, 0xf5, 0x03, 0xf6, 0xf7, 0xfd, 0xf6, 0xf9, 0xf5, 0xfb, 0xf7,
  0xfd, 0xf4, 0xfa, 0xfe, 0xfe, 0xfa, 0xea, 0xe6, 0xf4, 0xfc, 0xfa, 0xff,
  0x14, 0x17, 0x07, 0xeb, 0xec, 0xde, 0xeb, 0xfc, 0xe8, 0xec, 0xe7, 0xf0,
  0xea, 0xf0, 0xfa, 0xfe, 0xff, 0x00, 0xfc, 0xf4, 0xff, 0x01, 0xff, 0xf3,
  0xf6, 0xf4, 0xf4, 0x03, 0x0c, 0x17, 0x09, 0xf6, 0xef, 0xdd, 0xed, 0xf0,
  0xe2, 0xda, 0xe1, 0xf3, 0xf4, 0xf1, 0xef, 0xf7, 0xf8, 0xf6, 0x00, 0xf5,
  0x0b, 0x0b, 0x06, 0xee, 0xfa, 0xef, 0xf4, 0xfc, 0x09, 0x12, 0x0e, 0x03,
  0xe7, 0xec, 0xee, 0xf5, 0xee, 0xe0, 0xe2, 0xea, 0xee, 0xe5, 0xf4, 0x02,
  0xfc, 0x02, 0x03, 0xfc, 0xfe, 0xfa, 0xfb, 0xfb, 0xec, 0xed, 0xea, 0xf0,
  0x01, 0x0c, 0x03, 0x08, 0xfa, 0xf6, 0xea, 0xf8, 0xf1, 0xe2, 0xe1, 0xee,
  0xe7, 0xec, 0xee, 0xf9, 0xfd, 0x0c, 0x05, 0x00, 0xf5, 0xf8, 0x06, 0xf6,
  0xf1, 0xf5, 0xf0, 0xf2, 0x00, 0x02, 0x0d, 0x0c, 0x00, 0xfe, 0xf3, 0xf9,
  0xf0, 0xed, 0xe4, 0xe7, 0xe7, 0xed, 0xef, 0x00, 0x02, 0x04, 0x0a, 0xfd,
  0x02, 0xf9, 0xfc, 0xfc, 0xfa, 0xed, 0xed, 0xe9, 0x01, 0x15, 0x0d, 0x08,
  0x0c, 0xff, 0x06, 0xfd, 0x0b, 0x06, 0xfe, 0xea, 0xe3, 0xeb, 0xec, 0x07,
  0xf7, 0x00, 0xfe, 0x03, 0x03, 0xf3, 0xf9, 0xf3, 0xf3, 0xef, 0xf5, 0xf3,
  0x05, 0x0e, 0x0f, 0x0d, 0x11, 0x0c, 0x0b, 0x0a, 0x13, 0x0c, 0xfb, 0xf1,
  0xf5, 0xf2, 0xf9, 0x00, 0x05, 0xf9, 0x08, 0x0e, 0x03, 0xff, 0xf8, 0x03,
  0xfe, 0xfa, 0xf8, 0x02, 0xff, 0xfa, 0x05, 0x0e, 0x15, 0x0b, 0x01, 0x08,
  0x0e, 0xfb, 0xf5, 0xf0, 0xea, 0xee, 0xf7, 0xfc, 0x01, 0x08, 0x01, 0x0b,
  0x13, 0x03, 0xfd, 0xff, 0x01, 0xfa, 0xf7, 0x00, 0xfe, 0xfe, 0xfb, 0x02,
  0x0c, 0x03, 0xf9, 0xfe, 0xfd, 0xf8, 0xeb, 0xfa, 0xf3, 0xfc, 0xfb, 0x03,
  0xff, 0xfd, 0xfc, 0x09, 0x03, 0xf2, 0xf8, 0xf0, 0xee, 0xe7, 0xf9, 0xfd,
  0x05, 0xf7, 0xfd, 0x0a, 0x07, 0xf9, 0x00, 0x05, 0x06, 0x00, 0xf7, 0xf2,
  0xed, 0xf3, 0x04, 0x05, 0xff, 0x05, 0x00, 0x02, 0xfd, 0xef, 0xea, 0xe7,
  0xf3, 0xf7, 0xfd, 0xff, 0x03, 0x00, 0x01, 0x01, 0xfe, 0xf9, 0xf5, 0xfe,
  0x00, 0xf8, 0xf9, 0xfa, 0xef, 0x01, 0x02, 0xf9, 0x03, 0x06, 0x0e, 0x00,
  0xff, 0xfc, 0xf3, 0xf9, 0x00, 0x04, 0x0a, 0x07, 0x05, 0xff, 0x04, 0x0e,
  0x08, 0x00, 0x03, 0xfb, 0xfa, 0xf9, 0xff, 0xf3, 0xf8, 0xfc, 0xfc, 0x01,
  0xff, 0x06, 0x0c, 0x03, 0x08, 0x02, 0x08, 0x01, 0x18, 0x0a, 0x14, 0x1c,
  0x12, 0x10, 0x0c, 0x0b, 0x14, 0x09, 0xfc, 0xf6, 0xf2, 0xf8, 0xf4, 0xf9,
  0x01, 0xfa, 0x02, 0x03, 0xf7, 0x03, 0x06, 0xfd, 0x04, 0x05, 0xf6, 0x0f,
  0x13, 0x04, 0x0b, 0x10, 0x1f, 0x15, 0x10, 0x0f, 0x15, 0x04, 0xfd, 0xec,
  0xf0, 0xf4, 0xf6, 0xf4, 0xfb, 0xff, 0x03, 0x04, 0x04, 0x05, 0x03, 0x0b,
  0xfd, 0x08, 0x0b, 0xfe, 0xfe, 0x01, 0xfd, 0xfb, 0xfb, 0x06, 0x07, 0xfe,
  0x07, 0x04, 0x0c, 0x04, 0x0e, 0x08, 0x02, 0x03, 0x03, 0x07, 0x09, 0x06,
  0x05, 0x07, 0x02, 0x09, 0x06, 0x0a, 0x02, 0xfc, 0xfc, 0xf9, 0xf9, 0xf8,
  0xf7, 0xf6, 0x02, 0x00, 0x07, 0x08, 0x10, 0x0a, 0x0c, 0x08, 0x0c, 0x0c,
  0x0d, 0xfe, 0xfe, 0x0b, 0x06, 0x0a, 0xfe, 0x08, 0x06, 0x05, 0x03, 0x06,
  0xf9, 0xfe, 0xf1, 0xfb, 0xeb, 0xfa, 0xf0, 0xfb, 0xff, 0x09, 0x0b, 0x16,
  0x0c, 0x0a, 0x0b, 0x0a, 0x04, 0x0a, 0x0a, 0x09, 0x02, 0xff, 0x06, 0x09,
  0x03, 0xff, 0x06, 0xff, 0xfa, 0xf8, 0xed, 0xef, 0xee, 0xef, 0xf3, 0xfa,
  0xfb, 0x0e, 0x0f, 0x0b, 0x0d, 0x12, 0x11, 0x0f, 0x0c, 0x08, 0x00, 0xff,
  0x05, 0xfd, 0x08, 0x02, 0x05, 0xf8, 0x04, 0x01, 0xfa, 0xf0, 0xed, 0xe2,
  0xe6, 0xe1, 0xea, 0xeb, 0xee, 0xf6, 0xff, 0x05, 0x10, 0x0f, 0x0d, 0x15,
  0x0b, 0x0c, 0x09, 0x03, 0x09, 0x01, 0x03, 0x00, 0xfc, 0x02, 0xf7, 0xfb,
  0xf5, 0xf0, 0xe6, 0xe8, 0xdd, 0xde, 0xdd, 0xd8, 0xe0, 0xea, 0xee, 0xf7,
  0x0d, 0x10, 0x18, 0x19, 0x14, 0x11, 0x0c, 0x07, 0x07, 0xfd, 0x03, 0xfe,
  0xf9, 0xf8, 0xfc, 0xfa, 0xed, 0xea, 0xe5, 0xe8, 0xe5, 0xde, 0xdd, 0xd1,
  0xd5, 0xda, 0xe6, 0xf1, 0xf9, 0x05, 0x0c, 0x15, 0x15, 0x14, 0x0e, 0x0a,
  0x08, 0x05, 0x06, 0xf7, 0xfe, 0xf3, 0xf6, 0xf7, 0xf2, 0xee, 0xed, 0xe7,
  0xed, 0xe7, 0xe3, 0xd6, 0xd4, 0xe3, 0xe2, 0xeb, 0xef, 0x05, 0x05, 0x07,
  0x0c, 0x0a, 0x08, 0x05, 0x01, 0xfc, 0x01, 0xfc, 0xfd, 0xfe, 0xf8, 0xfe,
  0xf3, 0xf3, 0xf4, 0xfb, 0xf1, 0x00, 0xf5, 0xe9, 0xe4, 0xe2, 0xeb, 0xe6,
  0xf5, 0xf6, 0x00, 0x0d, 0x15, 0x14, 0x06, 0x0f, 0x03, 0xfb, 0xfb, 0xf9,
  0xff, 0xfb, 0xfc, 0xfd, 0x06, 0x02, 0x02, 0x04, 0x03, 0x04, 0x0e, 0xf5,
  0xee, 0xf0, 0xee, 0xe5, 0xf1, 0xf5, 0x00, 0x0a, 0x10, 0x13, 0x0b, 0x0d,
  0x02, 0x00, 0x05, 0x01, 0xfb, 0x06, 0x0c, 0x05, 0x0a, 0x09, 0x0d, 0x06,
  0x06, 0x06, 0x09, 0xfd, 0xf2, 0xe0, 0xdf, 0xe7, 0xe8, 0xf7, 0x05, 0x0f,
  0x13, 0x0c, 0x07, 0x10, 0x03, 0x0a, 0x08, 0x03, 0xfe, 0x0a, 0x0f, 0x0a,
  0x05, 0x0b, 0x09, 0x00, 0x08, 0x03, 0x00, 0xf4, 0xec, 0xe3, 0xf0, 0xf3,
  0xf4, 0xff, 0x07, 0x16, 0x15, 0x18, 0x14, 0x10, 0x01, 0x05, 0x08, 0x08,
  0x01, 0x0c, 0x13, 0x09, 0x09, 0x07, 0x00, 0x01, 0x06, 0x07, 0x0a, 0x00,
  0xf3, 0xe9, 0xf4, 0xf6, 0xf7, 0x07, 0x16, 0x1b, 0x13, 0x17, 0x0d, 0x09,
  0xfe, 0x09, 0x07, 0x01, 0x0a, 0x08, 0x0b, 0x04, 0x0d, 0x05, 0x0a, 0x0c,
  0x12, 0x1c, 0x19, 0x1b, 0x09, 0xff, 0xfe, 0x00, 0xfb, 0x0a, 0x15, 0x15,
  0x15, 0x0b, 0x09, 0x03, 0x05, 0x06, 0x00, 0x0d, 0x07, 0x0a, 0xfe, 0x00,
  0xfe, 0x05, 0x04, 0x12, 0x1a, 0x23, 0x2a, 0x1f, 0x17, 0x0c, 0x02, 0xff,
  0x0e, 0x14, 0x0b, 0x11, 0x0a, 0x0c, 0x0b, 0x03, 0x02, 0x06, 0xfe, 0xfe,
  0x0a, 0x0c, 0x06, 0x00, 0x02, 0x04, 0x07, 0x12, 0x1b, 0x21, 0x29, 0x20,
  0x18, 0x00, 0x07, 0x0b, 0x14, 0x16, 0x17, 0x10, 0x10, 0x0e, 0x04, 0x0b,
  0x03, 0x03, 0x06, 0xfb, 0xfd, 0xfe, 0x04, 0xf9, 0xfb, 0x04, 0x15, 0x10,
  0x19, 0x20, 0x25, 0x1e, 0x0c, 0x09, 0x0e, 0x11, 0x0f, 0x0d, 0x0b, 0x06,
  0x0a, 0x0c, 0x0b, 0x05, 0x0a, 0x03, 0xfb, 0x00, 0xfd, 0xfd, 0xfc, 0xf4,
  0xfb, 0x01, 0x0d, 0x13, 0x10, 0x14, 0x15, 0x12, 0x05, 0x02, 0xfd, 0x02,
  0x0c, 0x04, 0x0c, 0x01, 0x00, 0x09, 0x03, 0x08, 0x06, 0x03, 0x03, 0x01,
  0xf8, 0xff, 0x02, 0xfd, 0x04, 0x0b, 0x09, 0x07, 0x05, 0x0d, 0x0b, 0x09,
  0xfd, 0xfa, 0x06, 0x07, 0x05, 0x09, 0x0d, 0x08, 0xfc, 0x02, 0x09, 0x04,
  0x06, 0x01, 0x02, 0xf8, 0xfd, 0x05, 0xfe, 0x07, 0x05, 0x08, 0x10, 0x04,
  0xfc, 0xfc, 0xf5, 0xfe, 0xf4, 0xf4, 0xfd, 0x05, 0x01, 0x06, 0x00, 0xff,
  0xfe, 0x07, 0xff, 0xfe, 0x06, 0x05, 0x02, 0xf7, 0xfd, 0xfa, 0x00, 0x0a,
  0x0b, 0x0b, 0x05, 0x0b, 0xf9, 0xf3, 0xf4, 0xee, 0xf6, 0xfe, 0xfd, 0x03,
  0x04, 0x08, 0xfe, 0x03, 0xfe, 0xfd, 0xf9, 0x00, 0xfd, 0x05, 0xf9, 0xf4,
  0xf8, 0xf5, 0xff, 0x01, 0xfb, 0xfc, 0xf2, 0xf7, 0xf3, 0xe7, 0xec, 0xf3,
  0xea, 0xfb, 0xff, 0x02, 0x08, 0x05, 0xfc, 0xf6, 0xfa, 0xff, 0x05, 0x03,
  0x00, 0x06, 0x01, 0xf2, 0xf6, 0xf5, 0xef, 0xf5, 0xea, 0xea, 0xeb, 0xe6,
  0xdd, 0xe6, 0xe8, 0xef, 0xf6, 0xf2, 0xf6, 0x01, 0xfe, 0xfa, 0xfd, 0xf9,
  0xfd, 0xf8, 0x01, 0xfb, 0xfc, 0xfd, 0xfa, 0x02, 0xf7, 0xfb, 0xf8, 0xed,
  0xeb, 0xe5, 0xe9, 0xe3, 0xe3, 0xea, 0xe5, 0xef, 0xf3, 0xf8, 0xf7, 0xf7,
  0xff, 0x01, 0xf8, 0xfa, 0xf9, 0xfe, 0xfb, 0x05, 0x03, 0xfc, 0xfe, 0xfd,
  0xf6, 0xf8, 0xf6, 0xf9, 0xf3, 0xeb, 0xee, 0xf6, 0xed, 0xf5, 0xf9, 0xff,
  0xf9, 0xff, 0x03, 0xfe, 0xfe, 0xf7, 0xf8, 0xfc, 0x01, 0x00, 0xff, 0x05,
  0xfe, 0x06, 0x00, 0x05, 0xfb, 0xf8, 0xff, 0xfa, 0xf0, 0xf5, 0xfd, 0xfb,
  0xf8, 0xfb, 0x03, 0xfe, 0x02, 0xfa, 0xf6, 0xfc, 0xfb, 0xfb, 0xfb, 0x04,
  0xfe, 0x05, 0x00, 0x03, 0x07, 0xfd, 0x00, 0x03, 0xfd, 0xff, 0xfd, 0x01,
  0xf7, 0xfb, 0xf7, 0xfe, 0xff, 0xf8, 0x00, 0xfb, 0x06, 0x05, 0x01, 0x02,
  0xfe, 0x08, 0x07, 0x01, 0x00, 0x07, 0x02, 0xff, 0x07, 0x0a, 0x05, 0x00,
  0x04, 0xfa, 0x03, 0xfe, 0xfc, 0x00, 0xff, 0xfe, 0xff, 0x03, 0x06, 0xf9,
  0xfd, 0xf9, 0x01, 0xfc, 0xfe, 0x04, 0x08, 0x05, 0x0a, 0x08, 0x08, 0x07,
  0xf9, 0xff, 0x0b, 0x02, 0x06, 0x00, 0xfc, 0xfb, 0xec, 0xe8, 0xe2, 0xf6,
  0xfa, 0xf6, 0xf7, 0xf8, 0xff, 0xfa, 0x08, 0x0a, 0x02, 0x08, 0xf8, 0xfe,
  0xf3, 0x0b, 0x08, 0x06, 0xfc, 0x01, 0x0e, 0x05, 0x06, 0x02, 0xfa, 0xfc,
  0xea, 0xd6, 0xdb, 0xeb, 0xf5, 0xfa, 0xfc, 0x04, 0x04, 0x07, 0x06, 0xf9,
  0xf9, 0xff, 0xf8, 0x05, 0x07, 0x06, 0x0d, 0x12, 0xfc, 0x0a, 0x0b, 0x0c,
  0x08, 0x09, 0x04, 0xf8, 0xd8, 0xd1, 0xd5, 0xeb, 0xf4, 0x02, 0x01, 0xff,
  0x00, 0x03, 0x09, 0xfc, 0xfd, 0xfe, 0x11, 0x18, 0x0f, 0xfd, 0x0f, 0x0c,
  0xf8, 0x04, 0x05, 0x10, 0x09, 0x0d, 0x01, 0xef, 0xdf, 0xd9, 0xd8, 0xee,
  0xea, 0xff, 0x05, 0x00, 0x03, 0x0a, 0x0a, 0xfd, 0xfc, 0x06, 0x0f, 0x1b,
  0x0e, 0x0d, 0x05, 0x11, 0xfc, 0x03, 0x0a, 0x0f, 0x19, 0x11, 0xf9, 0xeb,
  0xd1, 0xd1, 0xdb, 0xf1, 0xf6, 0x00, 0x12, 0x06, 0x02, 0xff, 0x01, 0x0a,
  0x08, 0x06, 0x13, 0x10, 0x07, 0x15, 0x11, 0x15, 0x01, 0x09, 0x0a, 0x0d,
  0x16, 0x13, 0xfa, 0xdd, 0xd9, 0xe4, 0xed, 0xfa, 0x06, 0x14, 0x1b, 0x17,
  0x15, 0x10, 0x05, 0x0a, 0x13, 0x0a, 0x0c, 0x0e, 0x12, 0x0a, 0x12, 0x19,
  0x08, 0x05, 0x07, 0x1a, 0x15, 0x09, 0xf2, 0xde, 0xd0, 0xda, 0xe2, 0xf1,
  0xfc, 0x13, 0x1b, 0x11, 0x15, 0x0d, 0x14, 0x10, 0x0e, 0x0a, 0x05, 0x08,
  0x03, 0x0b, 0x15, 0x1a, 0x08, 0x09, 0x0c, 0x0d, 0x11, 0xfb, 0xe0, 0xdb,
  0xcb, 0xdc, 0xd8, 0xe8, 0xf5, 0x06, 0x0f, 0x09, 0x07, 0x0a, 0x00, 0x0e,
  0x05, 0x0b, 0x0e, 0x10, 0x0d, 0x0b, 0x1c, 0x25, 0x0c, 0x0f, 0x11, 0x04,
  0x05, 0xec, 0xde, 0xd5, 0xd9, 0xd6, 0xd0, 0xe0, 0xe9, 0xfd, 0x09, 0x07,
  0x06, 0x01, 0x04, 0x01, 0x0b, 0x0a, 0x0d, 0x0f, 0x0b, 0x10, 0x1e, 0x20,
  0x0e, 0x0d, 0x18, 0x08, 0xfd, 0xe5, 0xd9, 0xdb, 0xda, 0xe4, 0xd9, 0xcc,
  0xe6, 0xfc, 0x1b, 0x12, 0x0d, 0x01, 0x05, 0x04, 0x08, 0x09, 0x04, 0x0b,
  0x0d, 0x0d, 0x0c, 0x18, 0x08, 0x12, 0x16, 0x05, 0xf7, 0xef, 0xe6, 0xda,
  0xdd, 0xdf, 0xc4, 0xcb, 0xd4, 0x07, 0x20, 0x1a, 0x19, 0x0a, 0x03, 0x08,
  0x07, 0x04, 0x00, 0x03, 0x0b, 0x10, 0x1b, 0x19, 0x0a, 0x13, 0x0d, 0x0d,
  0x0b, 0xf6, 0xef, 0xe3, 0xd3, 0xc8, 0xb2, 0xbf, 0xd4, 0xff, 0x26, 0x1e,
  0x16, 0x13, 0x0a, 0x05, 0x05, 0xfb, 0x01, 0x0c, 0x06, 0x12, 0x11, 0x13,
  0x08, 0xfe, 0xfd, 0x0c, 0x14, 0x06, 0x00, 0xee, 0xe8, 0xc5, 0xb0, 0xbb,
  0xd3, 0xfc, 0x16, 0x1a, 0x18, 0x15, 0x0e, 0x06, 0xfa, 0xfe, 0xfc, 0xfe,
  0xf9, 0x00, 0x0c, 0x11, 0x0a, 0xf8, 0x02, 0x06, 0x16, 0x15, 0x1c, 0x0d,
  0x0c, 0xd8, 0xc4, 0xc4, 0xd8, 0xf8, 0x0b, 0x15, 0x1a, 0x0d, 0x0b, 0x02,
  0x00, 0x03, 0xf8, 0xf2, 0xe7, 0xfb, 0x0b, 0x14, 0x09, 0xfd, 0xf7, 0x11,
  0x0d, 0x1a, 0x26, 0x23, 0x07, 0xf3, 0xcd, 0xc5, 0xd6, 0xeb, 0x03, 0x18,
  0x18, 0x0a, 0x0b, 0x03, 0xef, 0xfd, 0xff, 0xe7, 0xe3, 0xea, 0xfa, 0x0a,
  0xfa, 0xf2, 0xfe, 0x0c, 0x0b, 0x10, 0x1a, 0x17, 0x10, 0xf5, 0xea, 0xd5,
  0xe1, 0xf5, 0x00, 0x0f, 0x0d, 0x09, 0xfe, 0xf9, 0xf6, 0xf3, 0xfe, 0xf4,
  0xe7, 0xe1, 0xe8, 0xfd, 0xf6, 0xfd, 0xf4, 0xfe, 0x0b, 0x0e, 0x0c, 0x16,
  0x19, 0x01, 0xea, 0xe3, 0xe8, 0xf4, 0x05, 0x05, 0x03, 0x08, 0x07, 0xf8,
  0x00, 0x02, 0x02, 0xfa, 0xeb, 0xe2, 0xeb, 0xf0, 0xf5, 0xec, 0xfd, 0xfc,
  0x04, 0xfc, 0x06, 0x09, 0x0b, 0x05, 0xf8, 0xee, 0xe6, 0xee, 0xf7, 0xf7,
  0xf0, 0xfa, 0xf9, 0xf9, 0xfe, 0x06, 0x02, 0xed, 0xd1, 0xdb, 0xe6, 0xe0,
  0xed, 0xe8, 0xf4, 0xf1, 0xf9, 0xe9, 0xfa, 0x07, 0x0c, 0x09, 0x05, 0xf4,
  0xf3, 0xef, 0xf6, 0xef, 0xf1, 0xfb, 0xf7, 0x00, 0x00, 0x00, 0x03, 0xef,
  0xd2, 0xd9, 0xd9, 0xe5, 0xeb, 0xf2, 0xe6, 0xf2, 0xf2, 0xfe, 0xfb, 0xfc,
  0xfb, 0x04, 0x0a, 0x03, 0x03, 0xff, 0xfd, 0xfa, 0xf1, 0xfb, 0xfe, 0x00,
  0x01, 0x05, 0x04, 0xeb, 0xdb, 0xd4, 0xd6, 0xe8, 0xf2, 0xe7, 0xed, 0xe5,
  0xe8, 0xf9, 0x00, 0xf7, 0x03, 0x02, 0x01, 0x08, 0x00, 0x04, 0x07, 0xfa,
  0xff, 0x06, 0x04, 0x09, 0x09, 0xfe, 0xfe, 0xec, 0xdd, 0xe0, 0xe7, 0xed,
  0xf3, 0xea, 0xec, 0xea, 0xf4, 0xf0, 0xf5, 0x00, 0xf9, 0x06, 0x05, 0xfd,
  0xff, 0x03, 0x09, 0x07, 0xfc, 0x05, 0xfe, 0x08, 0x02, 0xff, 0xf9, 0xe4,
  0xdd, 0xe8, 0xe9, 0xf0, 0xf8, 0xf0, 0xf4, 0xef, 0xef, 0xf4, 0xfb, 0xfc,
  0x02, 0x07, 0x0b, 0x07, 0x04, 0x0d, 0x06, 0x0c, 0x03, 0xfc, 0xfb, 0x03,
  0x00, 0xfc, 0x02, 0xf2, 0xe6, 0xe8, 0xf1, 0xed, 0xf8, 0xf4, 0xec, 0xf2,
  0xf3, 0xee, 0xec, 0xf8, 0xfb, 0x03, 0xff, 0x06, 0x07, 0x04, 0x0d, 0x00,
  0x06, 0xfb, 0xfe, 0x04, 0x06, 0xff, 0xfb, 0xe8, 0xe7, 0xe8, 0xf6, 0xfc,
  0x03, 0xf5, 0xf2, 0xf2, 0xee, 0xe5, 0xe9, 0xf3, 0x05, 0xff, 0x09, 0x02,
  0x02, 0x08, 0x0f, 0x08, 0xf9, 0xfb, 0x10, 0x00, 0xfe, 0xf9, 0xeb, 0xde,
  0xd8, 0xe3, 0xf4, 0x01, 0xfe, 0xfe, 0xff, 0xed, 0xf3, 0xf3, 0x08, 0x0d,
  0x10, 0x0d, 0xfc, 0xf8, 0xfe, 0x04, 0x0f, 0x06, 0x02, 0x04, 0x02, 0xf5,
  0xf0, 0xf1, 0xeb, 0xe5, 0xe9, 0xf5, 0x01, 0xf1, 0x04, 0x03, 0xfc, 0xf3,
  0xfb, 0xfd, 0x08, 0x09, 0x0d, 0x02, 0xf9, 0x01, 0xfa, 0x02, 0x05, 0xfc,
  0x00, 0xff, 0xf6, 0xf1, 0xec, 0xee, 0xeb, 0xe9, 0xeb, 0xf2, 0xf7, 0xf3,
  0xfc, 0xf9, 0x04, 0xfd, 0xf1, 0xfb, 0xf8, 0xf1, 0xfb, 0x01, 0x05, 0xf7,
  0xec, 0xf7, 0xfc, 0xf1, 0xef, 0xf9, 0xf1, 0xf3, 0xe6, 0xef, 0xe7, 0xe5,
