TRT-8001-EntropyCalibration2
image: 3cc4855b
511: 3c900729
337: 3c900729
338: 3c900729
514: 3c8ee7b9
341: 3c0b4a49
517: 3c099d22
344: 3c409dca
520: 3bfbde72
523: 3c8046d0
349: 3c91f563
350: 3c63e6d9
526: 3c5f6547
353: 3c4725cc
529: 3c7951ed
356: 3c8b6ed6
532: 3b8408e3
359: 3c11f2b4
360: 3c11f2b4
535: 3c1e705e
363: 3c1c2ca7
538: 3c4246e8
366: 3c82415d
541: 3bf93e9a
369: 3c041e5e
370: 3c041e5e
544: 3c4b1613
373: 3c2c61f3
547: 3c348f7e
376: 3c335c4c
550: 3c18520b
553: 3c14e4e7
381: 3c3acbdb
382: 3c65ce15
556: 3bd8d4a9
385: 3bed9349
559: 3c2bd4df
388: 3c29bf4a
562: 3bf74aea
391: 3c0bb858
392: 3c0bb858
565: 3c1e5c64
395: 3c171477
568: 3c1ebb3e
398: 3c01ac49
571: 3c016ee4
401: 3c3bebb8
402: 3c3bebb8
574: 3c129114
405: 3c1d9830
577: 3c1a01b7
408: 3c1816d0
580: 3bd6b476
411: 3c17bd4a
412: 3c17bd4a
583: 3c5470d6
415: 3c56b46d
586: 3c297788
418: 3c192319
589: 3c0b33bb
592: 3bf1b5c4
423: 3c484794
424: 3c47fc03
595: 3c180e26
427: 3c217f4d
598: 3c257a36
430: 3c13591a
601: 3c0fa2a2
433: 3c1e7dea
434: 3c2a2b2f
604: 3c0ebc85
437: 3c194755
607: 3c11ffaa
440: 3bf3dd76
610: 3bd25c18
443: 3c195c95
444: 3c18781a
613: 3c214a90
447: 3c25a7e6
616: 3c528120
450: 3c041192
619: 3bcc5095
453: 3c134c41
454: 3c134c41
622: 3c2a97c9
457: 3c1bc33f
625: 3c5a66f1
460: 3c1b3e4e
628: 3bc4b736
463: 3c155b36
464: 3c155b36
631: 3c4e73ea
467: 3c4da677
634: 3c59c5ae
470: 3c650cfa
637: 3c2ef65d
473: 3c1ba2ad
474: 3c16ed9b
640: 3c1937d5
477: 3c0df361
643: 3c104557
480: 3c11dffe
646: 3c809a80
649: 3c2b79a4
485: 3c92cbf6
486: 3c96a497
652: 3c4bc7c7
489: 3c4a982e
655: 3c251923
492: 3c256b20
658: 3c76ba5d
495: 3c7c40de
496: 3ca4b659
661: 3c67454e
499: 3c69f1c2
664: 3c9a6b11
502: 3c979f09
667: 3d643c12
505: 3d849aae
506: 3d849aae
670: 3d55ad07
509: 3cc8f3c1
probabilities: 3e198f73
