unsigned char digits_model_cnn_small_int8_tflite[] = {
  0x1c, 0x00, 0x00, 0x00, 0x54, 0x46, 0x4c, 0x33, 0x14, 0x00, 0x20, 0x00,
  0x1c, 0x00, 0x18, 0x00, 0x14, 0x00, 0x10, 0x00, 0x0c, 0x00, 0x00, 0x00,
  0x08, 0x00, 0x04, 0x00, 0x14, 0x00, 0x00, 0x00, 0x1c, 0x00, 0x00, 0x00,
  0x88, 0x00, 0x00, 0x00, 0xe0, 0x00, 0x00, 0x00, 0x48, 0xe1, 0x00, 0x00,
  0x58, 0xe1, 0x00, 0x00, 0x30, 0xf2, 0x00, 0x00, 0x03, 0x00, 0x00, 0x00,
  0x01, 0x00, 0x00, 0x00, 0x04, 0x00, 0x00, 0x00, 0xae, 0x1d, 0xff, 0xff,
  0x0c, 0x00, 0x00, 0x00, 0x1c, 0x00, 0x00, 0x00, 0x38, 0x00, 0x00, 0x00,
  0x0f, 0x00, 0x00, 0x00, 0x73, 0x65, 0x72, 0x76, 0x69, 0x6e, 0x67, 0x5f,
  0x64, 0x65, 0x66, 0x61, 0x75, 0x6c, 0x74, 0x00, 0x01, 0x00, 0x00, 0x00,
  0x04, 0x00, 0x00, 0x00, 0x94, 0xff, 0xff, 0xff, 0x11, 0x00, 0x00, 0x00,
  0x04, 0x00, 0x00, 0x00, 0x07, 0x00, 0x00, 0x00, 0x64, 0x65, 0x6e, 0x73,
  0x65, 0x5f, 0x31, 0x00, 0x01, 0x00, 0x00, 0x00, 0x04, 0x00, 0x00, 0x00,
  0x8e, 0x1e, 0xff, 0xff, 0x04, 0x00, 0x00, 0x00, 0x0c, 0x00, 0x00, 0x00,
  0x63, 0x6f, 0x6e, 0x76, 0x32, 0x64, 0x5f, 0x69, 0x6e, 0x70, 0x75, 0x74,
  0x00, 0x00, 0x00, 0x00, 0x02, 0x00, 0x00, 0x00, 0x34, 0x00, 0x00, 0x00,
  0x04, 0x00, 0x00, 0x00, 0xdc, 0xff, 0xff, 0xff, 0x14, 0x00, 0x00, 0x00,
  0x04, 0x00, 0x00, 0x00, 0x13, 0x00, 0x00, 0x00, 0x43, 0x4f, 0x4e, 0x56,
  0x45, 0x52, 0x53, 0x49, 0x4f, 0x4e, 0x5f, 0x4d, 0x45, 0x54, 0x41, 0x44,
  0x41, 0x54, 0x41, 0x00, 0x08, 0x00, 0x0c, 0x00, 0x08, 0x00, 0x04, 0x00,
  0x08, 0x00, 0x00, 0x00, 0x13, 0x00, 0x00, 0x00, 0x04, 0x00, 0x00, 0x00,
  0x13, 0x00, 0x00, 0x00, 0x6d, 0x69, 0x6e, 0x5f, 0x72, 0x75, 0x6e, 0x74,
  0x69, 0x6d, 0x65, 0x5f, 0x76, 0x65, 0x72, 0x73, 0x69, 0x6f, 0x6e, 0x00,
  0x15, 0x00, 0x00, 0x00, 0x64, 0xe0, 0x00, 0x00, 0x5c, 0xe0, 0x00, 0x00,
  0x44, 0xe0, 0x00, 0x00, 0x0c, 0xe0, 0x00, 0x00, 0x7c, 0xdd, 0x00, 0x00,
  0x6c, 0xdc, 0x00, 0x00, 0x5c, 0x14, 0x00, 0x00, 0xcc, 0x13, 0x00, 0x00,
  0xbc, 0x01, 0x00, 0x00, 0x6c, 0x01, 0x00, 0x00, 0xcc, 0x00, 0x00, 0x00,
  0xc4, 0x00, 0x00, 0x00, 0xbc, 0x00, 0x00, 0x00, 0xb4, 0x00, 0x00, 0x00,
  0xac, 0x00, 0x00, 0x00, 0xa4, 0x00, 0x00, 0x00, 0x9c, 0x00, 0x00, 0x00,
  0x94, 0x00, 0x00, 0x00, 0x8c, 0x00, 0x00, 0x00, 0x6c, 0x00, 0x00, 0x00,
  0x04, 0x00, 0x00, 0x00, 0x5e, 0x1f, 0xff, 0xff, 0x04, 0x00, 0x00, 0x00,
  0x58, 0x00, 0x00, 0x00, 0x0c, 0x00, 0x00, 0x00, 0x08, 0x00, 0x0e, 0x00,
  0x08, 0x00, 0x04, 0x00, 0x08, 0x00, 0x00, 0x00, 0x10, 0x00, 0x00, 0x00,
  0x28, 0x00, 0x00, 0x00, 0x00, 0x00, 0x06, 0x00, 0x08, 0x00, 0x04, 0x00,
  0x06, 0x00, 0x00, 0x00, 0x04, 0x00, 0x00, 0x00, 0x01, 0x00, 0x00, 0x00,
  0xeb, 0x03, 0x00, 0x00, 0x00, 0x00, 0x0a, 0x00, 0x10, 0x00, 0x0c, 0x00,
  0x08, 0x00, 0x04, 0x00, 0x0a, 0x00, 0x00, 0x00, 0x02, 0x00, 0x00, 0x00,
  0x02, 0x00, 0x00, 0x00, 0x04, 0x00, 0x00, 0x00, 0x06, 0x00, 0x00, 0x00,
  0x32, 0x2e, 0x31, 0x30, 0x2e, 0x31, 0x00, 0x00, 0xc2, 0x1f, 0xff, 0xff,
  0x04, 0x00, 0x00, 0x00, 0x10, 0x00, 0x00, 0x00, 0x31, 0x2e, 0x31, 0x34,
  0x2e, 0x30, 0x00, 0x00, 0x00, 0x00, 0x00, 0x00, 0x00, 0x00, 0x00, 0x00,
  0x60, 0x10, 0xff, 0xff, 0x64, 0x10, 0xff, 0xff, 0x68, 0x10, 0xff, 0xff,
  0x6c, 0x10, 0xff, 0xff, 0x70, 0x10, 0xff, 0xff, 0x74, 0x10, 0xff, 0xff,
  0x78, 0x10, 0xff, 0xff, 0x7c, 0x10, 0xff, 0xff, 0xfe, 0x1f, 0xff, 0xff,
  0x04, 0x00, 0x00, 0x00, 0x90, 0x00, 0x00, 0x00, 0x81, 0xe6, 0x53, 0xaf,
  0xf1, 0x56, 0xbc, 0xfb, 0x58, 0x28, 0x95, 0x87, 0x3a, 0x12, 0xb0, 0x4c,
  0x48, 0x7f, 0x3b, 0x2e, 0xa4, 0xf4, 0x59, 0x50, 0x81, 0x05, 0x1a, 0xb6,
  0xa0, 0xdc, 0x27, 0xdf, 0x81, 0x55, 0x2d, 0xd7, 0x15, 0x36, 0x44, 0x36,
  0x0e, 0x14, 0xc7, 0xcd, 0x81, 0xf3, 0x42, 0x30, 0x81, 0xfb, 0xc1, 0x11,
  0x30, 0xda, 0x2e, 0x2f, 0x4e, 0xbf, 0x1e, 0x39, 0x81, 0xae, 0x1a, 0x81,
  0xce, 0x4f, 0xfd, 0xff, 0x5b, 0x36, 0xee, 0xfd, 0x9f, 0x86, 0xc0, 0xc4,
  0xd6, 0x6a, 0x56, 0x5d, 0x7f, 0x86, 0x3c, 0x1d, 0x26, 0x3a, 0x1d, 0x43,
  0x20, 0x81, 0xe7, 0x81, 0xc0, 0x11, 0xdf, 0x16, 0x43, 0x69, 0x23, 0x81,
  0x94, 0x06, 0x97, 0xd4, 0xae, 0xc1, 0xc8, 0x89, 0x65, 0x6e, 0x30, 0x15,
  0xe4, 0xbe, 0x81, 0x95, 0xe0, 0x33, 0x3b, 0xc0, 0x6d, 0xfd, 0x9c, 0x7b,
  0xc3, 0x81, 0x40, 0xdd, 0x81, 0x48, 0x1e, 0xff, 0xec, 0x32, 0x29, 0x59,
  0x0a, 0x65, 0x28, 0x1b, 0xbb, 0x2a, 0x7f, 0x36, 0x9a, 0x20, 0xff, 0xff,
  0x04, 0x00, 0x00, 0x00, 0x40, 0x00, 0x00, 0x00, 0x0d, 0x02, 0x00, 0x00,
  0x81, 0xf0, 0xff, 0xff, 0xa6, 0xea, 0xff, 0xff, 0x0d, 0x18, 0x00, 0x00,
  0x6c, 0xf5, 0xff, 0xff, 0x16, 0xf7, 0xff, 0xff, 0x18, 0xf5, 0xff, 0xff,
  0xb6, 0xf5, 0xff, 0xff, 0x5f, 0xf9, 0xff, 0xff, 0xd9, 0xc3, 0xff, 0xff,
  0x15, 0xff, 0xff, 0xff, 0x11, 0xfa, 0xff, 0xff, 0x5b, 0x13, 0x00, 0x00,
  0x49, 0xfc, 0xff, 0xff, 0x70, 0xee, 0xff, 0xff, 0xea, 0xd4, 0xff, 0xff,
  0xe6, 0x20, 0xff, 0xff, 0x04, 0x00, 0x00, 0x00, 0x00, 0x12, 0x00, 0x00,
  0xf5, 0xd4, 0xbf, 0x08, 0xe3, 0xde, 0xec, 0xec, 0xf4, 0xd9, 0xfe, 0x0c,
  0xf3, 0xb6, 0xb1, 0xb2, 0xef, 0x03, 0xfa, 0x0c, 0xe0, 0xfd, 0xf2, 0xf9,
  0xf5, 0xe8, 0xfc, 0x0c, 0x08, 0xe3, 0xf0, 0xe5, 0x18, 0x14, 0xfe, 0x21,
  0xb1, 0xfa, 0x05, 0x0e, 0x12, 0xf9, 0x00, 0xfa, 0xb4, 0xfd, 0xf7, 0x09,
  0xf4, 0xf6, 0xe8, 0x1d, 0xd1, 0xfb, 0xf9, 0xff, 0xf1, 0xf6, 0x16, 0xf7,
  0xfc, 0xf9, 0xf2, 0xd8, 0x04, 0xf5, 0xf7, 0x02, 0xdf, 0xfa, 0x0e, 0x06,
  0xf3, 0xfc, 0xf6, 0x02, 0x01, 0xc5, 0x02, 0xf3, 0x11, 0x08, 0x10, 0xe6,
  0xc0, 0x15, 0x0a, 0x1c, 0x19, 0xf9, 0xf3, 0x04, 0x95, 0xe5, 0x03, 0x0b,
  0x05, 0xf0, 0xe9, 0xfc, 0xf6, 0xf9, 0x15, 0xec, 0xec, 0xfc, 0xfc, 0xf9,
  0x1e, 0x0f, 0xf2, 0xeb, 0x1e, 0xec, 0x0b, 0xfc, 0xcf, 0xf7, 0xff, 0x0f,
  0x05, 0xf8, 0xf2, 0xf2, 0xef, 0xe6, 0xeb, 0x06, 0x32, 0xf2, 0x08, 0xec,
  0xce, 0x03, 0xe9, 0x19, 0x0e, 0x06, 0xe8, 0x0d, 0x81, 0xe6, 0xf8, 0x09,
  0xe7, 0x0c, 0xfa, 0x18, 0xfe, 0xe8, 0x00, 0x04, 0xf2, 0xf3, 0x18, 0xff,
  0xbd, 0x1c, 0x26, 0x19, 0x25, 0xf5, 0xec, 0x20, 0xda, 0x19, 0x10, 0xe6,
  0xe3, 0xdf, 0x11, 0x11, 0xf2, 0xfb, 0xf8, 0x07, 0x29, 0xfb, 0x07, 0xc1,
  0xea, 0x19, 0x2a, 0xf6, 0xf7, 0xf5, 0xa5, 0xed, 0xcb, 0xcb, 0xec, 0x1c,
  0x25, 0x19, 0x16, 0x16, 0x0c, 0xfa, 0x04, 0xfb, 0x14, 0xf7, 0x0d, 0x09,
  0xce, 0x2d, 0x23, 0x24, 0x19, 0xf6, 0xf8, 0x00, 0xed, 0xfd, 0x24, 0xda,
  0xd6, 0x11, 0xfd, 0x0e, 0x04, 0x0b, 0xf3, 0x17, 0x2e, 0xe8, 0x12, 0x08,
  0xd0, 0xfc, 0x17, 0x0e, 0xfb, 0xf7, 0xd5, 0xf1, 0x9d, 0xed, 0xf9, 0xfa,
  0x16, 0x01, 0xe8, 0xdf, 0x16, 0x21, 0xe0, 0x02, 0xf9, 0x21, 0xe0, 0xf4,
  0x0a, 0x51, 0x03, 0x33, 0x30, 0xf1, 0xd7, 0xf7, 0xd9, 0xf4, 0x0d, 0xf7,
  0xdb, 0x04, 0xf2, 0xf0, 0xf4, 0x0d, 0xe5, 0xe7, 0x37, 0xe8, 0x1e, 0xf2,
  0xb6, 0x18, 0x24, 0x0d, 0xfe, 0xe5, 0xcc, 0x0f, 0x81, 0xea, 0xfe, 0x03,
  0xc6, 0x1a, 0x16, 0x1a, 0x1c, 0x13, 0x1e, 0x02, 0x0a, 0x0e, 0x1d, 0xfe,
  0x2f, 0xf6, 0x2e, 0x1c, 0xcf, 0x11, 0x08, 0x0d, 0x11, 0x17, 0x17, 0x12,
  0x10, 0x03, 0x1d, 0xff, 0x08, 0xf3, 0x05, 0x13, 0xe9, 0x0d, 0x0b, 0xfb,
  0x1c, 0x12, 0x00, 0x09, 0x0c, 0x11, 0xf1, 0xf7, 0x15, 0x08, 0xec, 0x0e,
  0xc2, 0xf5, 0x1b, 0xff, 0x16, 0x0e, 0x24, 0xe0, 0xda, 0xe3, 0xfc, 0x01,
  0x09, 0xdd, 0xf8, 0x09, 0xc1, 0x03, 0x05, 0xf2, 0x0b, 0xfc, 0x14, 0xea,
  0xe4, 0xf7, 0xee, 0x06, 0x0f, 0xe6, 0x0a, 0x0b, 0xbe, 0xe5, 0x09, 0xe4,
  0x14, 0xec, 0xf8, 0xe6, 0xe1, 0xfa, 0x04, 0x0b, 0x1d, 0x07, 0xed, 0x03,
  0xc6, 0x02, 0xf3, 0x1a, 0xd2, 0xed, 0xfd, 0xe3, 0xed, 0xd6, 0x0f, 0xf8,
  0xda, 0xe0, 0x00, 0xfa, 0xc0, 0x15, 0xe2, 0x14, 0xfa, 0xfb, 0x18, 0xe3,
  0xf9, 0xc6, 0x12, 0xff, 0x08, 0xd9, 0x0e, 0xf9, 0x81, 0xd2, 0xe1, 0x0b,
  0x03, 0xdd, 0xf9, 0xb2, 0xae, 0xc6, 0xf8, 0xfc, 0x0d, 0xe0, 0xd1, 0xce,
  0x1b, 0xc5, 0x07, 0xe3, 0xec, 0xff, 0x2f, 0xf5, 0xdf, 0xdd, 0xb7, 0xfa,
  0xd6, 0x97, 0x0d, 0xed, 0x1d, 0x11, 0x0a, 0xd7, 0xf3, 0x15, 0xfd, 0x0f,
  0x14, 0x13, 0xdc, 0x04, 0xcd, 0xce, 0x0f, 0x21, 0x14, 0x00, 0x22, 0xc4,
  0x25, 0x1c, 0x0c, 0x2f, 0x11, 0x29, 0xf0, 0xf0, 0x0b, 0xf4, 0xf1, 0x10,
  0x02, 0xf3, 0xf4, 0x14, 0xe6, 0xfa, 0x26, 0xe4, 0xca, 0xd1, 0x1c, 0x10,
  0xd3, 0x81, 0xe7, 0xde, 0xe7, 0xf9, 0x03, 0x11, 0x20, 0x0a, 0x2c, 0xe0,
  0xdb, 0xdb, 0x15, 0x04, 0x14, 0x83, 0xe3, 0xf7, 0xc1, 0xdf, 0xf9, 0xfd,
  0x26, 0xf6, 0x0e, 0xe8, 0xd6, 0xf7, 0x03, 0xf7, 0x2f, 0xa1, 0xce, 0xec,
  0xf1, 0x28, 0x03, 0xef, 0x05, 0xf8, 0xf0, 0xfe, 0x10, 0xf1, 0x2e, 0xf8,
  0xd6, 0xdb, 0xfc, 0x07, 0xe3, 0x2a, 0xef, 0xf6, 0xeb, 0x03, 0xf5, 0xfd,
  0x2b, 0xff, 0x2e, 0x0f, 0xe2, 0xd6, 0x1a, 0x12, 0xee, 0x1c, 0xff, 0x10,
  0xcf, 0xf4, 0xe8, 0xf3, 0x31, 0xf3, 0x31, 0x08, 0xec, 0xca, 0x17, 0x0e,
  0x02, 0xf9, 0x1d, 0xcc, 0x0b, 0x1a, 0x25, 0x0e, 0xdb, 0x19, 0xca, 0xe8,
  0x0f, 0xd7, 0x07, 0x23, 0xf0, 0x08, 0x03, 0xd6, 0xd9, 0x06, 0x1d, 0xf2,
  0x07, 0x18, 0xf1, 0xf7, 0x81, 0x0e, 0x1d, 0x1e, 0xeb, 0xf5, 0xf3, 0xe1,
  0x1f, 0xe6, 0xa2, 0xfe, 0xfb, 0x22, 0x31, 0x07, 0xfb, 0x32, 0x08, 0xe7,
  0x10, 0xeb, 0x10, 0xfe, 0x22, 0x02, 0x1d, 0xd4, 0xcc, 0xed, 0xc8, 0x0b,
  0x23, 0xe6, 0xdf, 0x07, 0x0e, 0xfb, 0x27, 0xc1, 0xff, 0x14, 0x40, 0x12,
  0xf4, 0xc6, 0xc5, 0x00, 0xd3, 0x96, 0x0e, 0x23, 0xc2, 0x22, 0x1b, 0x37,
  0xd2, 0x09, 0x08, 0xf8, 0x10, 0xea, 0x4e, 0xf9, 0xaf, 0xce, 0x50, 0x1f,
  0xeb, 0xbd, 0xd3, 0x91, 0x19, 0xfe, 0xca, 0xb4, 0xbf, 0xe7, 0xc9, 0xfc,
  0x11, 0x36, 0xbe, 0xc7, 0x17, 0xc0, 0xfe, 0xda, 0xfc, 0xf2, 0x2e, 0x02,
  0xcd, 0xbf, 0xac, 0xfd, 0xea, 0xbb, 0xd3, 0xce, 0x1a, 0x33, 0x4b, 0x4b,
  0xf7, 0x04, 0x63, 0xe9, 0xf7, 0xe6, 0xdf, 0x13, 0xd1, 0x95, 0x54, 0x16,
  0x1e, 0x17, 0xfd, 0x27, 0x1b, 0xf0, 0xfe, 0x05, 0x05, 0x0d, 0x4b, 0xfd,
  0x03, 0xea, 0xe2, 0xfe, 0x16, 0xe0, 0x01, 0xd8, 0xee, 0x02, 0x2b, 0x0e,
  0xf9, 0x02, 0xc6, 0x0e, 0x12, 0xd0, 0xe1, 0x04, 0x23, 0xfb, 0x0c, 0xd2,
  0xdc, 0x1c, 0x20, 0x15, 0xf2, 0xe1, 0x9f, 0x0b, 0x9a, 0x1c, 0xf9, 0x17,
  0xd6, 0x05, 0xf3, 0x22, 0x05, 0x0c, 0x0b, 0x10, 0x0a, 0x23, 0x3d, 0x0c,
  0x40, 0xfc, 0x05, 0xe9, 0x1a, 0xd8, 0x11, 0x03, 0xd5, 0xff, 0x29, 0x01,
  0x01, 0xf8, 0xbe, 0x0c, 0xf9, 0xd3, 0xe3, 0xf6, 0x30, 0xe5, 0x13, 0xe3,
  0xfc, 0x06, 0x27, 0x05, 0xfd, 0x0d, 0x89, 0xfb, 0xa8, 0x44, 0xf9, 0x19,
  0x0d, 0x9c, 0xe8, 0x00, 0x03, 0xd2, 0x16, 0xf1, 0xc8, 0xce, 0xcc, 0xf6,
  0x3a, 0xc2, 0xbb, 0xcc, 0x1b, 0xa6, 0x05, 0x06, 0xe1, 0xf7, 0x36, 0x13,
  0xe2, 0xfb, 0x81, 0x09, 0xd6, 0xfe, 0xcb, 0x04, 0x4a, 0xfc, 0x0d, 0x13,
  0xf2, 0x1a, 0x39, 0x0d, 0xda, 0xf9, 0xa4, 0x05, 0x9a, 0x4b, 0x16, 0x0a,
  0xd7, 0x37, 0x1e, 0x17, 0xcf, 0xf5, 0xf1, 0xfc, 0xfa, 0xed, 0x37, 0xf1,
  0xc3, 0x2c, 0x51, 0x11, 0x27, 0xfb, 0xd2, 0xd2, 0x04, 0x01, 0xe2, 0x02,
  0x0d, 0x19, 0x3b, 0xfe, 0xe3, 0x32, 0x0c, 0xf4, 0x31, 0x03, 0xe8, 0xde,
  0xfb, 0xf0, 0x0a, 0x02, 0x06, 0x1c, 0x49, 0x18, 0x20, 0x4b, 0xe9, 0xda,
  0x02, 0xf0, 0x2b, 0x0c, 0xdf, 0x07, 0x08, 0xfa, 0x0e, 0xe8, 0xbe, 0x01,
  0xb8, 0x1d, 0x1f, 0x1b, 0xec, 0x21, 0xf2, 0xf2, 0xc9, 0x0d, 0xfb, 0x07,
  0xec, 0xfe, 0x18, 0xf3, 0x81, 0x1b, 0x2c, 0xf6, 0x04, 0xf5, 0x08, 0x86,
  0xd2, 0xf4, 0x21, 0x19, 0x14, 0x27, 0x20, 0x00, 0xf4, 0x29, 0xfc, 0xf2,
  0xf1, 0xe1, 0xfb, 0x32, 0x07, 0x01, 0x16, 0x14, 0x0b, 0x1e, 0xf6, 0x11,
  0xed, 0x00, 0x14, 0x24, 0xc2, 0x33, 0x25, 0x10, 0xe8, 0xfa, 0x2a, 0xed,
  0xe0, 0xe5, 0xc3, 0xf5, 0xc7, 0xa9, 0x4c, 0x1b, 0x8c, 0x3b, 0x01, 0xc6,
  0xe1, 0xe9, 0x07, 0x34, 0xfe, 0xe3, 0x51, 0x1a, 0xe7, 0xbd, 0x50, 0x09,
  0xd2, 0x34, 0x0c, 0xa2, 0xe6, 0xf8, 0xce, 0x05, 0x04, 0x0d, 0x05, 0xe9,
  0xc9, 0xdd, 0x28, 0x1a, 0xad, 0x0e, 0xef, 0xc9, 0x0c, 0x14, 0xce, 0x11,
  0x05, 0xd9, 0x57, 0x12, 0xbf, 0xac, 0x16, 0x1b, 0xb7, 0x04, 0x09, 0xf4,
  0xfc, 0x10, 0xef, 0x24, 0x38, 0xd6, 0x45, 0xfb, 0xd2, 0xc5, 0x01, 0x09,
  0x11, 0xf2, 0x0b, 0x8c, 0x3f, 0x29, 0xf9, 0xee, 0x08, 0x10, 0x0e, 0xfa,
  0x17, 0xe5, 0x09, 0xf0, 0xad, 0xf3, 0x36, 0xba, 0x1e, 0x2a, 0x30, 0x0b,
  0xfb, 0xff, 0xfa, 0xe8, 0x2a, 0xb9, 0x13, 0xe2, 0xe0, 0xe2, 0x10, 0x28,
  0xfd, 0x1c, 0x72, 0xf9, 0xbf, 0xc7, 0xf3, 0x04, 0x20, 0xb9, 0x11, 0xf2,
  0xfe, 0x1a, 0xf1, 0xb2, 0xd2, 0xea, 0x12, 0xe0, 0xe2, 0xf5, 0x27, 0xff,
  0xc1, 0x3c, 0x06, 0x06, 0xe2, 0xf6, 0xf2, 0x81, 0xc6, 0xe5, 0xd7, 0x08,
  0x21, 0x15, 0x3d, 0xed, 0xdf, 0x1d, 0xdd, 0xd2, 0x47, 0xeb, 0xf8, 0xbd,
  0xc0, 0xe7, 0xe6, 0x35, 0x1a, 0x18, 0xe3, 0x0c, 0xec, 0x37, 0xd7, 0x06,
  0x65, 0xab, 0x19, 0xda, 0xfd, 0x1e, 0x7a, 0x09, 0xc4, 0xce, 0x86, 0xf1,
  0x06, 0xdc, 0xed, 0x09, 0xe1, 0xed, 0x3d, 0xdd, 0x2a, 0x2c, 0x29, 0xe3,
  0xe8, 0x04, 0xb3, 0x05, 0x11, 0xb1, 0x23, 0x01, 0xea, 0x22, 0x34, 0xaf,
  0x3a, 0x10, 0x33, 0x31, 0x28, 0xdc, 0x27, 0xee, 0x0f, 0xb4, 0x0b, 0x0e,
  0x41, 0xce, 0xcc, 0xe7, 0xfe, 0xde, 0x29, 0xde, 0xad, 0xe5, 0xaf, 0xf8,
  0xd3, 0xf0, 0xe1, 0xca, 0x14, 0xce, 0xfe, 0xf9, 0xf7, 0x02, 0x18, 0xed,
  0xed, 0xbe, 0xa7, 0x10, 0xe5, 0xd3, 0xe1, 0xdb, 0x06, 0xe8, 0x14, 0xee,
  0x34, 0x22, 0x19, 0xf6, 0xfd, 0x06, 0x01, 0x08, 0x31, 0xd7, 0xca, 0x09,
  0x12, 0xa5, 0xa7, 0xbf, 0x02, 0xcb, 0xbc, 0xe1, 0xbf, 0x03, 0xea, 0x0d,
  0xe2, 0xfa, 0xb4, 0xa5, 0xf2, 0xe9, 0xcd, 0xbd, 0x14, 0xe7, 0xc3, 0xdd,
  0xed, 0xef, 0x09, 0xfc, 0x48, 0xf6, 0xbd, 0xcf, 0xe5, 0xeb, 0xab, 0xca,
  0x26, 0xee, 0xcd, 0xcc, 0x00, 0x05, 0x54, 0xec, 0x7f, 0xf1, 0xae, 0xe9,
  0x02, 0x0d, 0x0d, 0xc6, 0xf2, 0x0e, 0xe5, 0x09, 0x04, 0x23, 0xd5, 0x02,
  0xb4, 0x2c, 0x0a, 0x0c, 0x09, 0x02, 0xf9, 0xb9, 0x01, 0x10, 0xea, 0x09,
  0x09, 0x11, 0x08, 0x04, 0xe3, 0x2e, 0x02, 0xff, 0x06, 0xe9, 0xec, 0x81,
  0x37, 0x0a, 0xe6, 0x09, 0x07, 0x1d, 0x07, 0xf7, 0x49, 0x23, 0xf2, 0xeb,
  0x03, 0xfc, 0x16, 0xcb, 0xf0, 0x05, 0x1c, 0xff, 0xec, 0xe8, 0xe0, 0xf7,
  0xee, 0xca, 0x1d, 0x0e, 0xee, 0x04, 0x12, 0xff, 0xca, 0x01, 0x2a, 0xf6,
  0xe5, 0xfc, 0xe8, 0xef, 0xb9, 0xcf, 0x34, 0x18, 0xbd, 0x23, 0x03, 0xe6,
  0xfd, 0x03, 0xef, 0x09, 0xfc, 0x0c, 0x27, 0x0d, 0xe6, 0x0d, 0x1b, 0xf3,
  0xeb, 0xfd, 0xfa, 0xbe, 0x36, 0xfd, 0xf3, 0xf3, 0x0a, 0x17, 0x25, 0xf4,
  0x1f, 0xcb, 0xec, 0x03, 0xf7, 0xe1, 0x18, 0x10, 0x1b, 0xf9, 0x19, 0xfd,
  0xe3, 0x00, 0xea, 0x0c, 0x05, 0xbb, 0x0c, 0xf5, 0xb3, 0x27, 0x22, 0x2d,
  0x19, 0xff, 0x3f, 0xfe, 0xeb, 0xe1, 0x46, 0xf8, 0xea, 0xd3, 0x1a, 0x0f,
  0xd6, 0x03, 0xaf, 0x0c, 0xa5, 0xb8, 0x95, 0xc9, 0xd8, 0xa4, 0x0b, 0xe6,
  0xd4, 0x15, 0xc6, 0xb1, 0x1d, 0xba, 0xcf, 0xd8, 0xe0, 0xf0, 0xe6, 0xe6,
  0xf6, 0xff, 0x07, 0xfc, 0xd3, 0xfa, 0xbc, 0xbe, 0x4d, 0xff, 0x38, 0x81,
  0x24, 0x15, 0x42, 0x2f, 0x25, 0xfe, 0x2b, 0x03, 0x2f, 0x19, 0x12, 0xf2,
  0xd6, 0x2e, 0x28, 0x29, 0xe2, 0xe2, 0xc2, 0xf6, 0x1e, 0x1d, 0x53, 0xf5,
  0xd4, 0x07, 0x20, 0x06, 0xcf, 0xeb, 0xce, 0x16, 0x0a, 0xf6, 0xab, 0xc6,
  0xec, 0xd3, 0x04, 0xf2, 0xe0, 0x1b, 0xdd, 0xe9, 0x11, 0xbb, 0xd0, 0xdf,
  0x3a, 0xf2, 0xf9, 0xdd, 0xd4, 0xf7, 0xe3, 0x06, 0x3d, 0xdd, 0xac, 0xd2,
  0x14, 0xe6, 0xfe, 0xe2, 0x47, 0x02, 0x57, 0xe0, 0xf9, 0xe8, 0x0a, 0x1d,
  0x73, 0xc8, 0xfd, 0xd9, 0xeb, 0xfd, 0x03, 0x23, 0xdd, 0xe1, 0x12, 0xda,
  0xe9, 0xf4, 0x19, 0x08, 0x2b, 0x1b, 0xe6, 0xda, 0xbb, 0xe6, 0xa4, 0x10,
  0xe0, 0x97, 0xb1, 0xad, 0xec, 0x9f, 0x3a, 0xec, 0x0c, 0xf4, 0xcb, 0xa4,
  0x81, 0x28, 0xe5, 0x4e, 0xda, 0xe0, 0xbd, 0xf7, 0x09, 0xdb, 0x4d, 0xf6,
  0xe7, 0xd6, 0x25, 0xf7, 0xbe, 0x11, 0xbf, 0x48, 0xd5, 0xc8, 0x0b, 0xe7,
  0xef, 0xd6, 0x42, 0xfb, 0xdc, 0xd0, 0xff, 0xe7, 0x0c, 0xc2, 0x14, 0x2c,
  0xfc, 0xf8, 0x4b, 0xe4, 0xc9, 0xdc, 0xe8, 0x10, 0xe1, 0xc9, 0xba, 0xda,
  0xff, 0x14, 0x0d, 0x03, 0xdd, 0x02, 0x17, 0xfa, 0x03, 0xfb, 0x08, 0x0e,
  0xda, 0xff, 0x18, 0x1f, 0xf2, 0x1c, 0x15, 0x2f, 0xc5, 0xef, 0xfe, 0xe7,
  0xf8, 0xf8, 0x0a, 0xf7, 0x8b, 0x14, 0x19, 0x02, 0xf3, 0xe0, 0xdb, 0x42,
  0xa9, 0xdf, 0x0d, 0xe2, 0xe6, 0xe5, 0xfe, 0x0d, 0xa6, 0x2e, 0xec, 0xed,
  0x44, 0xf1, 0x11, 0xfc, 0xe1, 0x19, 0x1e, 0x11, 0xfe, 0x22, 0x92, 0x06,
  0x9a, 0x4a, 0x02, 0x19, 0x4a, 0x19, 0x18, 0x0b, 0xdc, 0x14, 0x20, 0xfc,
  0x06, 0x0b, 0xd1, 0x03, 0x81, 0x40, 0x03, 0x0a, 0x02, 0x12, 0xe9, 0x2b,
  0xb5, 0xff, 0xe1, 0xdb, 0xe8, 0xf8, 0x01, 0xf1, 0x89, 0x47, 0x09, 0xff,
  0xfe, 0x0b, 0xfe, 0xe4, 0x24, 0x03, 0xf3, 0x07, 0x16, 0x14, 0x51, 0xee,
  0x1d, 0xc5, 0xfb, 0x05, 0x09, 0x0d, 0x06, 0xda, 0x18, 0x18, 0x1b, 0xf8,
  0xff, 0xe2, 0xcb, 0xee, 0xfb, 0xd5, 0xff, 0x09, 0xfe, 0x07, 0x08, 0xf5,
  0xf2, 0x0e, 0x2b, 0xfa, 0xef, 0x04, 0xde, 0x0c, 0xcb, 0x22, 0x0c, 0x0c,
  0xd7, 0xe2, 0xfb, 0xeb, 0x1c, 0xe3, 0x07, 0xe2, 0x0c, 0xdf, 0x11, 0xea,
  0x52, 0x83, 0xcd, 0xdf, 0x19, 0xda, 0x03, 0xaf, 0xda, 0xee, 0xf9, 0xfd,
  0xf1, 0x03, 0xc1, 0xff, 0xe9, 0xe7, 0xd5, 0x12, 0x23, 0xf4, 0x10, 0xe1,
  0x00, 0x00, 0xf9, 0x0c, 0xfa, 0x08, 0xc5, 0xf0, 0xca, 0x5f, 0x0a, 0x27,
  0x0b, 0x11, 0xfb, 0xef, 0xdc, 0xe9, 0xe7, 0x18, 0x1b, 0xdf, 0x11, 0xed,
  0x40, 0x81, 0xea, 0x02, 0x19, 0x02, 0x06, 0xef, 0xee, 0x02, 0xe0, 0xfa,
  0x01, 0x18, 0xf4, 0xf1, 0xb8, 0x13, 0xf7, 0x1d, 0x39, 0x09, 0xee, 0xda,
  0x08, 0xf1, 0xc8, 0xee, 0x0b, 0x01, 0xf6, 0x06, 0xcd, 0x4d, 0xfe, 0x05,
  0xb3, 0xfd, 0xd3, 0x2a, 0xfa, 0xf7, 0x93, 0xde, 0xf7, 0x0d, 0x17, 0x16,
  0x14, 0x08, 0xe9, 0xf4, 0xf7, 0xdb, 0xb4, 0xfe, 0xa0, 0x90, 0x9d, 0xb0,
  0x05, 0x9b, 0xff, 0x15, 0xfb, 0x1a, 0xdd, 0xb7, 0x06, 0x12, 0xcf, 0xe5,
  0x81, 0xb5, 0x8b, 0xec, 0x0b, 0x06, 0x01, 0xfc, 0xcb, 0xd4, 0xe2, 0xdb,
  0xff, 0xc8, 0xee, 0x0f, 0x02, 0xe3, 0x9e, 0xe8, 0xe1, 0x1e, 0xe1, 0x05,
  0x24, 0x08, 0xd7, 0xf0, 0x10, 0xec, 0xf0, 0xec, 0x97, 0xd1, 0xd0, 0xeb,
  0x16, 0xfb, 0xfa, 0xee, 0xff, 0xde, 0xf6, 0xf6, 0x17, 0xfc, 0x14, 0xf6,
  0x0b, 0x17, 0xbb, 0x14, 0x32, 0x11, 0xfd, 0x0b, 0xd0, 0x32, 0xd6, 0x08,
  0x14, 0xee, 0xc4, 0xda, 0xd8, 0xde, 0xdb, 0xef, 0x03, 0xfe, 0xf7, 0x0b,
  0xf5, 0x20, 0xfd, 0xf4, 0x37, 0xf9, 0x04, 0xf2, 0xd3, 0x1d, 0xf0, 0x34,
  0x33, 0x0d, 0x13, 0xf6, 0xc1, 0x40, 0xe7, 0x21, 0x34, 0xf2, 0xe1, 0xe5,
  0x22, 0x25, 0x93, 0x24, 0x1c, 0x44, 0xdd, 0x13, 0xfe, 0x7f, 0xeb, 0x1e,
  0xe7, 0xf5, 0xfc, 0xfc, 0x0f, 0xf9, 0xfc, 0xf0, 0xf4, 0x10, 0x01, 0x01,
  0x1f, 0xf3, 0xe3, 0xf6, 0xf5, 0xf0, 0xe8, 0xdf, 0x19, 0x10, 0x1a, 0xe0,
  0xf6, 0xde, 0x03, 0x05, 0x2a, 0xe1, 0xfa, 0xf1, 0xf7, 0x0f, 0xf9, 0x10,
  0xc8, 0xfd, 0xfc, 0x01, 0x1b, 0xf0, 0xf8, 0xf3, 0x0c, 0xd3, 0x1f, 0x01,
  0xed, 0x0c, 0xe9, 0x9b, 0xe7, 0xf3, 0xab, 0x18, 0x12, 0x18, 0x15, 0x0f,
  0xf7, 0xe7, 0xea, 0xef, 0xde, 0x0e, 0x03, 0x81, 0x19, 0xee, 0xa1, 0x24,
  0x1b, 0x17, 0x20, 0x17, 0x12, 0xc7, 0xe5, 0xfe, 0xe3, 0xf2, 0x03, 0xba,
  0x0f, 0x1a, 0xe7, 0x34, 0x27, 0x17, 0x12, 0x0f, 0x0c, 0xb0, 0xeb, 0x01,
  0x02, 0x14, 0xfe, 0xaf, 0x0b, 0x11, 0xc4, 0x2a, 0x1a, 0x1a, 0x01, 0xff,
  0x07, 0x0f, 0x08, 0x31, 0xc1, 0xfe, 0x0d, 0xb3, 0x22, 0x02, 0xd7, 0x0b,
  0xfc, 0x02, 0x08, 0x13, 0x3d, 0xfd, 0xea, 0x0d, 0xc9, 0x21, 0x24, 0x23,
  0x27, 0x16, 0x1b, 0x04, 0x15, 0x0e, 0x12, 0x0e, 0x3a, 0xd3, 0xf8, 0x1e,
  0xa5, 0x34, 0x3c, 0x2d, 0x25, 0x2b, 0xe1, 0x2a, 0x1e, 0x28, 0xe6, 0x05,
  0xd8, 0x42, 0x34, 0x3e, 0xa2, 0x2f, 0xf4, 0x45, 0xdf, 0xcf, 0xf4, 0xc5,
  0xf9, 0xcd, 0x0b, 0xe5, 0xe2, 0x1a, 0x24, 0x02, 0xba, 0xe4, 0x90, 0x1f,
  0xba, 0xc1, 0xac, 0x87, 0xb6, 0xd0, 0x2d, 0x04, 0xc7, 0xe2, 0xfc, 0x99,
  0xe2, 0x41, 0x13, 0x12, 0x0c, 0x0c, 0xcf, 0xf7, 0x08, 0x09, 0xe1, 0x1d,
  0x07, 0x5c, 0x3a, 0x36, 0x20, 0xe3, 0xea, 0xdc, 0xf1, 0xe8, 0xd3, 0xf3,
  0x03, 0xfa, 0xbe, 0xfa, 0x11, 0x0c, 0xf8, 0xfc, 0xa8, 0xd2, 0xd4, 0xf1,
  0xf7, 0xa0, 0x9f, 0xa3, 0xba, 0xe0, 0xf4, 0x0d, 0xff, 0x11, 0xed, 0xaf,
  0xb3, 0xe4, 0xff, 0xd4, 0x2f, 0x19, 0x81, 0x02, 0xee, 0xeb, 0xd8, 0x1b,
  0x0f, 0x4e, 0x30, 0x28, 0xa1, 0xc6, 0xce, 0x93, 0x12, 0xce, 0xa6, 0xd5,
  0xe1, 0xc8, 0xee, 0x10, 0x22, 0xde, 0xd5, 0xcc, 0xab, 0xf5, 0xa4, 0x30,
  0xf9, 0xa4, 0xa7, 0xcd, 0xff, 0xe6, 0x23, 0xfb, 0x26, 0xb7, 0xe6, 0xdb,
  0x06, 0x11, 0x31, 0xd9, 0x06, 0x3a, 0x15, 0x32, 0xfc, 0x07, 0xae, 0x00,
  0xd1, 0x9f, 0x06, 0x16, 0xca, 0x22, 0x1e, 0xc4, 0xff, 0x02, 0xe9, 0x09,
  0xf7, 0x18, 0xc1, 0xfa, 0xaf, 0xca, 0x20, 0x2d, 0xed, 0x06, 0x26, 0xb8,
  0x03, 0x03, 0xd1, 0x18, 0x17, 0x24, 0xdd, 0xe6, 0xe6, 0xfa, 0x1a, 0x24,
  0xee, 0xf7, 0x28, 0xc0, 0xe5, 0x25, 0xe7, 0x27, 0xf5, 0x19, 0xb9, 0xe9,
  0xdc, 0xc2, 0x02, 0x0e, 0xb2, 0xec, 0x07, 0xc8, 0xff, 0xf8, 0xe0, 0x09,
  0xee, 0x03, 0x9d, 0xe8, 0xaa, 0xe6, 0x11, 0x23, 0xd6, 0xfd, 0x06, 0xeb,
  0x1a, 0x0b, 0xb7, 0xff, 0xfd, 0x35, 0xa1, 0xe4, 0xf3, 0x20, 0x0b, 0x30,
  0xde, 0xee, 0x35, 0x0b, 0x23, 0x16, 0x00, 0x1a, 0xfe, 0x1d, 0x9d, 0xfd,
  0xec, 0xd7, 0x07, 0x20, 0xd5, 0xff, 0x1f, 0x10, 0x0d, 0x07, 0x20, 0xe9,
  0xc9, 0x06, 0x81, 0x06, 0xe5, 0xf6, 0x1a, 0x0c, 0xb7, 0x1f, 0x02, 0x47,
  0x26, 0x24, 0x18, 0xde, 0xc3, 0x14, 0xf4, 0xe5, 0x0d, 0x0c, 0x3e, 0x03,
  0xff, 0x0c, 0xe7, 0x43, 0xc8, 0x0f, 0x14, 0xf4, 0x15, 0xe3, 0xf2, 0x0f,
  0x88, 0x3d, 0x06, 0xfe, 0xe4, 0x22, 0xfc, 0xfd, 0xef, 0x13, 0xfc, 0x00,
  0x08, 0xf8, 0x0d, 0x17, 0xa6, 0x30, 0x06, 0xe8, 0xf8, 0x21, 0xfa, 0xcb,
  0xf4, 0xe8, 0xd7, 0x27, 0x23, 0xde, 0x1c, 0x04, 0xbf, 0xf7, 0xea, 0x0e,
  0x27, 0x03, 0x18, 0x26, 0x01, 0x09, 0x5e, 0x0f, 0x19, 0xd4, 0xdc, 0xf0,
  0xe4, 0xec, 0x19, 0x0e, 0x15, 0x05, 0x06, 0xf8, 0x19, 0x06, 0x1c, 0x21,
  0x03, 0xed, 0x07, 0xed, 0xf3, 0x11, 0x1b, 0x14, 0xf5, 0xe1, 0x0c, 0xeb,
  0x3b, 0x08, 0xec, 0x10, 0xf7, 0x0c, 0xda, 0x13, 0x0f, 0x1a, 0xc6, 0x10,
  0xfc, 0xe7, 0xf2, 0x7f, 0xfc, 0xe0, 0x68, 0xb7, 0x88, 0x8f, 0x0d, 0x11,
  0x11, 0x9f, 0xc6, 0xbf, 0xcd, 0xd4, 0xf1, 0xfd, 0x36, 0xeb, 0x11, 0xc8,
  0xb6, 0xc8, 0x21, 0xfc, 0x6f, 0xa3, 0x9e, 0xb9, 0xd5, 0xa6, 0xb2, 0xae,
  0x00, 0xb5, 0xc2, 0xc1, 0xf3, 0xe4, 0xfe, 0x0d, 0x49, 0x0d, 0x96, 0xba,
  0x18, 0xd8, 0xf8, 0xe4, 0xf6, 0x05, 0xc3, 0xd0, 0xb7, 0x00, 0xe4, 0xe5,
  0x36, 0xf7, 0x0e, 0xfe, 0x59, 0xb6, 0xec, 0x10, 0xbc, 0xfb, 0x20, 0x00,
  0xc0, 0xd2, 0xc9, 0xee, 0xf7, 0xfc, 0xee, 0xc6, 0x2d, 0xc7, 0xf8, 0x20,
  0xdb, 0x02, 0x2b, 0xea, 0xa4, 0xda, 0x81, 0xf7, 0xce, 0x39, 0xf9, 0xdc,
  0xde, 0x05, 0x08, 0xca, 0xfe, 0x0d, 0xb4, 0x0b, 0x24, 0x2c, 0x18, 0xe7,
  0x18, 0xbe, 0xea, 0xeb, 0xd1, 0x11, 0xfe, 0xe5, 0xaf, 0xd7, 0xf8, 0x09,
  0x05, 0x1e, 0x26, 0x00, 0xbb, 0xc3, 0x0b, 0x0b, 0xd4, 0xfc, 0xdb, 0x0e,
  0xaa, 0xd9, 0x24, 0xf0, 0xea, 0xf8, 0xff, 0xf6, 0xef, 0xfc, 0x2b, 0x0a,
  0xde, 0x55, 0xf1, 0x36, 0x04, 0x17, 0xcf, 0x2d, 0x5d, 0x06, 0x36, 0x14,
  0xaa, 0xd7, 0x0c, 0x22, 0xde, 0x2c, 0x01, 0x1b, 0x06, 0xfa, 0xb3, 0x30,
  0x2e, 0xf1, 0x22, 0x14, 0xca, 0xe6, 0x2b, 0x10, 0xf1, 0x50, 0xfa, 0xe9,
  0x1b, 0x0e, 0xff, 0x3b, 0x59, 0x16, 0x5e, 0x04, 0xda, 0xe9, 0x38, 0x13,
  0xbf, 0x15, 0x2a, 0x1b, 0x2c, 0xfc, 0x0f, 0xe7, 0x0a, 0x19, 0x02, 0xe8,
  0x04, 0xd9, 0x46, 0x1e, 0xb0, 0x32, 0x34, 0x2d, 0x05, 0x05, 0x4c, 0xee,
  0xd5, 0xc9, 0xf9, 0xf6, 0xdc, 0xc2, 0x47, 0xf6, 0xc3, 0x01, 0xef, 0x16,
  0xd1, 0xce, 0x17, 0xdd, 0xff, 0xbe, 0x0e, 0x08, 0xeb, 0x13, 0x2e, 0x07,
  0xb6, 0xf4, 0x0e, 0xc6, 0x16, 0xeb, 0x0d, 0xf1, 0x03, 0xf4, 0x13, 0x17,
  0x05, 0xee, 0x06, 0xf6, 0xd7, 0xff, 0x2f, 0x39, 0x2c, 0x17, 0x25, 0x00,
  0xd9, 0xd1, 0xfb, 0xfa, 0x0c, 0xbc, 0x06, 0xe8, 0xa7, 0x1d, 0x2e, 0x32,
  0xde, 0xfb, 0x51, 0x05, 0xe9, 0xd6, 0x16, 0x12, 0x08, 0xbb, 0x3e, 0x0e,
  0x01, 0xdc, 0xf0, 0x81, 0x0e, 0xeb, 0xeb, 0x12, 0x16, 0x19, 0x2b, 0xfa,
  0xe4, 0x24, 0xee, 0xf4, 0xdf, 0xda, 0xca, 0x81, 0x03, 0xf1, 0xf7, 0xfb,
  0x2a, 0x0e, 0x0d, 0xf4, 0x0d, 0x20, 0xf2, 0x06, 0x26, 0xff, 0x17, 0x97,
  0x10, 0x13, 0x25, 0x0f, 0xf2, 0x02, 0xbc, 0xf2, 0xf6, 0x0b, 0xf6, 0xff,
  0x1f, 0xe7, 0x03, 0xea, 0xfc, 0x1a, 0x23, 0x22, 0xed, 0x11, 0xef, 0x00,
  0x04, 0xd8, 0xd8, 0xfd, 0xf9, 0xf8, 0x0d, 0xed, 0xf5, 0x02, 0x19, 0xfe,
  0x02, 0xfd, 0xd4, 0xff, 0x0a, 0xcf, 0xf6, 0xfe, 0xed, 0x19, 0x0a, 0x2c,
  0xde, 0x0c, 0x05, 0xff, 0x00, 0x02, 0xfb, 0xfe, 0xc9, 0xe9, 0x12, 0x0e,
  0x0a, 0xf6, 0xfd, 0xeb, 0xf2, 0xee, 0x16, 0x04, 0x10, 0xec, 0x0e, 0x07,
  0x07, 0xbf, 0xfb, 0xf1, 0x00, 0x0e, 0x11, 0x13, 0xc5, 0x0e, 0x05, 0x0a,
  0x15, 0x09, 0x0a, 0xf1, 0xc1, 0x85, 0xff, 0x10, 0x0e, 0x16, 0x04, 0x1a,
  0xcb, 0xf9, 0xfc, 0x17, 0xff, 0xfc, 0xfd, 0xf6, 0x81, 0xec, 0x1d, 0x18,
  0x08, 0x0c, 0x06, 0x01, 0xe6, 0x0f, 0x20, 0x01, 0x03, 0xf4, 0x01, 0xf4,
  0xd3, 0xa8, 0x0c, 0xfa, 0x04, 0x14, 0x15, 0xed, 0xf4, 0x0c, 0xff, 0xfb,
  0x19, 0xed, 0xf8, 0x03, 0xcc, 0x9f, 0x0f, 0x06, 0x0d, 0x0b, 0x0f, 0xd9,
  0xeb, 0x09, 0xea, 0x11, 0xfc, 0xfd, 0xe7, 0xf6, 0x9d, 0xe4, 0x05, 0x1a,
  0xdc, 0xeb, 0xed, 0x1b, 0x09, 0xfc, 0x21, 0xe0, 0xda, 0xda, 0xf2, 0x04,
  0x2e, 0x07, 0x09, 0xe4, 0x03, 0xef, 0xfa, 0xea, 0xbf, 0xf9, 0x1d, 0xf6,
  0xff, 0xe2, 0x19, 0x09, 0xf3, 0x10, 0x09, 0xff, 0x19, 0xf8, 0xf9, 0xe7,
  0x0a, 0xf1, 0xeb, 0x0f, 0x0a, 0xfb, 0xfe, 0xfa, 0xf8, 0x0b, 0xe7, 0x02,
  0x03, 0xfd, 0xf6, 0xca, 0xd4, 0xf2, 0xfa, 0xfa, 0xfa, 0xfc, 0x02, 0x0a,
  0xf6, 0xfb, 0x10, 0xe8, 0x0c, 0xf8, 0xfc, 0x81, 0xfd, 0x0e, 0xbf, 0x06,
  0xf7, 0xf7, 0xef, 0xfa, 0x1d, 0x1c, 0xe6, 0x09, 0xe7, 0xfe, 0xef, 0xd8,
  0x14, 0xf6, 0xf7, 0xff, 0x02, 0x01, 0xf5, 0x09, 0x36, 0x13, 0xfc, 0xf4,
  0x0f, 0x07, 0x03, 0xac, 0xf7, 0x13, 0xf1, 0x14, 0x07, 0x02, 0xfd, 0x0a,
  0x0e, 0x1f, 0x0a, 0x0c, 0xfe, 0xfc, 0x05, 0xc5, 0x0d, 0x04, 0xe9, 0xed,
  0xe5, 0x10, 0xf9, 0xf5, 0x23, 0x23, 0xfa, 0x0f, 0xd0, 0x18, 0x0f, 0x06,
  0xfe, 0xf6, 0x0f, 0xee, 0x05, 0xff, 0x26, 0xff, 0xf4, 0xf3, 0x11, 0x02,
  0xf6, 0xf1, 0x0d, 0xc9, 0x08, 0xf4, 0x17, 0xee, 0xf5, 0x0d, 0xfa, 0x02,
  0x12, 0xee, 0xfc, 0x06, 0xf4, 0x0d, 0xfc, 0xc1, 0x14, 0x0a, 0xd8, 0x18,
  0x27, 0xff, 0x13, 0x13, 0xee, 0xdd, 0xf3, 0xf9, 0xf1, 0x12, 0x10, 0xd2,
  0x0a, 0x07, 0x0b, 0x24, 0x18, 0x29, 0x18, 0xf6, 0x15, 0xed, 0xfe, 0x0b,
  0x1f, 0xf1, 0x15, 0x8c, 0xf2, 0xfe, 0xfd, 0x23, 0x08, 0x03, 0xe9, 0x0b,
  0xeb, 0xfd, 0xfc, 0xfc, 0x00, 0x00, 0xfe, 0x81, 0xef, 0x13, 0xe1, 0x0b,
  0xfc, 0x06, 0xee, 0x07, 0xee, 0x1c, 0x09, 0x18, 0xf3, 0xf6, 0x27, 0x9d,
  0xed, 0x08, 0x13, 0x12, 0xfc, 0x11, 0xdc, 0xf9, 0xd2, 0xdf, 0xfa, 0xfa,
  0x1d, 0x08, 0x0a, 0xbf, 0x01, 0x15, 0x31, 0x08, 0xfc, 0xfa, 0xbd, 0xee,
  0xf0, 0x06, 0x1c, 0x00, 0xe9, 0x27, 0x21, 0xea, 0xee, 0x12, 0x2a, 0x05,
  0x00, 0xee, 0x0a, 0xee, 0xde, 0xf5, 0x2d, 0xf9, 0x01, 0x37, 0x0d, 0x9f,
  0x19, 0x21, 0x1f, 0x22, 0x12, 0x17, 0x0a, 0x0b, 0x00, 0xd9, 0x24, 0x1b,
  0xe9, 0x16, 0xfa, 0x60, 0x08, 0xf9, 0x26, 0xf1, 0xfc, 0xcd, 0x11, 0x0d,
  0x12, 0xc2, 0x0d, 0x01, 0xd8, 0xfd, 0x11, 0x23, 0x19, 0x04, 0x26, 0xee,
  0xf3, 0xbe, 0xf8, 0xfe, 0x3e, 0xc2, 0x21, 0xf2, 0xfe, 0x0e, 0x1d, 0xf5,
  0xc2, 0x09, 0x17, 0x10, 0xf9, 0xf1, 0x0e, 0x0a, 0xe8, 0xca, 0x2f, 0x06,
  0xd3, 0x08, 0xf3, 0xec, 0xfb, 0x02, 0xff, 0xed, 0xf5, 0xeb, 0x01, 0xf4,
  0x25, 0x81, 0xfe, 0xe8, 0x07, 0x09, 0x0a, 0xe6, 0xe1, 0x02, 0xf2, 0x14,
  0xfc, 0x00, 0x0f, 0x0e, 0xe0, 0xc9, 0xe2, 0x12, 0x27, 0xf6, 0x10, 0x9d,
  0xfe, 0x0a, 0xc4, 0x38, 0x28, 0x19, 0xf4, 0x0d, 0xd0, 0xf8, 0xe8, 0x13,
  0x19, 0xfe, 0xfd, 0xbc, 0xf1, 0xfc, 0xdf, 0x17, 0x23, 0x15, 0xf7, 0xf7,
  0xda, 0xb4, 0xe9, 0x02, 0x06, 0x00, 0xf8, 0x89, 0x08, 0x11, 0xcd, 0x18,
  0x22, 0x23, 0xe6, 0xfa, 0xe6, 0x28, 0xe8, 0x1a, 0xf4, 0xf8, 0x02, 0x9b,
  0x1c, 0x19, 0xbb, 0x1a, 0x18, 0x15, 0xd5, 0xfa, 0x25, 0x18, 0xe6, 0x0b,
  0x0a, 0xff, 0x0c, 0xf6, 0x05, 0x0e, 0xdf, 0x21, 0x12, 0x1a, 0xe3, 0xfb,
  0xcb, 0x07, 0xe8, 0x14, 0x16, 0x00, 0x10, 0x07, 0x0b, 0x1f, 0xf1, 0xf9,
  0x00, 0x15, 0xbd, 0xf9, 0x0d, 0x0d, 0xf3, 0x26, 0x21, 0xe9, 0x0e, 0x22,
  0x1e, 0x06, 0xde, 0xfb, 0xe6, 0x0c, 0xc1, 0xf0, 0x01, 0x39, 0xf5, 0x0e,
  0x0e, 0xf6, 0x19, 0x01, 0x02, 0x14, 0xfe, 0x0d, 0xe9, 0x07, 0x9b, 0xf3,
  0x1a, 0x15, 0xe7, 0x0a, 0x33, 0xe9, 0x0c, 0xfe, 0x0a, 0x08, 0xff, 0xf9,
  0xe8, 0xff, 0xb2, 0x0c, 0xf1, 0x0b, 0xf7, 0x15, 0xfe, 0xd9, 0xfc, 0x1f,
  0x04, 0x0b, 0xed, 0xca, 0x81, 0x12, 0xa8, 0xee, 0x00, 0x41, 0x02, 0xeb,
  0x13, 0xc0, 0xfa, 0xb8, 0x17, 0xf2, 0x19, 0xea, 0xad, 0xf2, 0x8e, 0xf0,
  0x2c, 0xfa, 0xcb, 0x01, 0xeb, 0xd6, 0x08, 0xbd, 0x19, 0xeb, 0x30, 0xf5,
  0xa6, 0xc3, 0xe0, 0xf4, 0x2c, 0xe2, 0x0a, 0xdc, 0xe8, 0xb8, 0xe7, 0xf8,
  0xf0, 0xe8, 0xd6, 0xaf, 0xad, 0xc7, 0xf8, 0x13, 0x31, 0x14, 0xf4, 0xc8,
  0xf7, 0x04, 0x08, 0x97, 0x04, 0x19, 0xcd, 0x01, 0xf6, 0x1f, 0xe1, 0x04,
  0xc6, 0x49, 0x11, 0x2b, 0x08, 0xf2, 0xf1, 0x97, 0x16, 0xfb, 0xcb, 0x15,
  0x26, 0x2a, 0xe9, 0x16, 0x28, 0x0f, 0xf0, 0xf9, 0x8f, 0xe8, 0xfe, 0xa1,
  0x26, 0x01, 0x01, 0xee, 0xf0, 0x07, 0xde, 0x0c, 0x30, 0x1c, 0x02, 0x0a,
  0x3a, 0x09, 0x13, 0xd1, 0xd5, 0x15, 0x01, 0x12, 0xe1, 0xdf, 0xa5, 0xf0,
  0x85, 0x45, 0x09, 0x24, 0x9f, 0x10, 0xfa, 0xf8, 0x09, 0xe8, 0xd3, 0xdd,
  0xd2, 0x0a, 0xea, 0x11, 0xdd, 0x1f, 0x03, 0x04, 0xc2, 0x0e, 0xdb, 0xe2,
  0x0d, 0xd0, 0xfb, 0xcf, 0xee, 0xcf, 0x12, 0x04, 0xf5, 0xf1, 0xf7, 0xd0,
  0x42, 0x0c, 0x1f, 0x1d, 0xca, 0xfb, 0x2b, 0x14, 0xe4, 0xf3, 0xb7, 0xef,
  0x81, 0x2d, 0x28, 0x1a, 0xb8, 0x33, 0xf6, 0x18, 0xe4, 0xfb, 0x0a, 0xe4,
  0x00, 0xe8, 0x2f, 0x11, 0x99, 0x07, 0x0f, 0x1e, 0xb8, 0x14, 0xf3, 0x0e,
  0x14, 0xe6, 0xfc, 0xf9, 0x18, 0x0c, 0x25, 0x12, 0xfc, 0xeb, 0x04, 0xdf,
  0xcd, 0xf2, 0xde, 0xe4, 0xf6, 0xef, 0x96, 0x05, 0x06, 0x02, 0x11, 0x10,
  0xf6, 0xf7, 0x06, 0xfd, 0xdb, 0xf2, 0xd8, 0xf8, 0xc6, 0xe4, 0xc4, 0xf2,
  0xfe, 0xd1, 0xff, 0x07, 0xcb, 0xdb, 0xf7, 0xde, 0xd9, 0xe8, 0xbb, 0x35,
  0x81, 0xc1, 0xdc, 0xd8, 0xe3, 0xd6, 0xf7, 0xf4, 0xbc, 0x04, 0x02, 0xd2,
  0xd5, 0x19, 0x0d, 0x12, 0x27, 0xfc, 0xf2, 0x03, 0x19, 0x04, 0x24, 0x05,
  0x0e, 0xf8, 0x06, 0x12, 0xda, 0x04, 0xff, 0x14, 0x13, 0xf6, 0x06, 0x0f,
  0x0c, 0xf0, 0x1f, 0xf0, 0x0f, 0xf7, 0x1c, 0x02, 0xdd, 0x23, 0x0f, 0x0d,
  0xed, 0xf1, 0xff, 0x0b, 0xfa, 0xdc, 0x10, 0xf8, 0xe5, 0xe0, 0x1d, 0x0d,
  0xd9, 0xfe, 0x14, 0xdb, 0x0f, 0x09, 0x18, 0xe7, 0xf3, 0x05, 0xda, 0x02,
  0x1e, 0xf0, 0x07, 0xed, 0xf6, 0xf3, 0x03, 0xec, 0x1a, 0x04, 0x1a, 0xf1,
  0xef, 0xf6, 0xf1, 0xfa, 0x0c, 0xf3, 0x17, 0x00, 0x06, 0xea, 0x09, 0x04,
  0x15, 0x08, 0x12, 0xfe, 0xfa, 0xe7, 0xfe, 0x0a, 0x0c, 0xdb, 0xf8, 0x00,
  0x0a, 0xee, 0x01, 0xda, 0xfb, 0xef, 0xf7, 0x06, 0x0c, 0x0b, 0x05, 0x09,
  0x11, 0x1b, 0xfc, 0xf9, 0x01, 0x0a, 0xf1, 0xd0, 0xfb, 0xf7, 0xe7, 0x05,
  0x0d, 0x10, 0x19, 0x04, 0x10, 0xfe, 0xf7, 0x03, 0x18, 0xf6, 0x11, 0xef,
  0x05, 0x14, 0x15, 0x14, 0x15, 0xfe, 0x1f, 0x07, 0x0c, 0xfd, 0xf6, 0x0e,
  0x22, 0xfd, 0xfa, 0x81, 0xeb, 0x15, 0x16, 0x12, 0x0c, 0x00, 0x05, 0xf3,
  0xdf, 0x0d, 0xec, 0xf9, 0xe0, 0xee, 0xf7, 0x9e, 0x04, 0xfb, 0xe3, 0x00,
  0xee, 0x19, 0xfa, 0xfa, 0xf8, 0x1c, 0x03, 0xef, 0xef, 0xf2, 0xff, 0x93,
  0x04, 0xfb, 0x0f, 0x0d, 0xe3, 0x04, 0xed, 0xf1, 0x08, 0xf6, 0xe8, 0xed,
  0x17, 0x14, 0x15, 0xff, 0xf7, 0xf7, 0x20, 0x11, 0x02, 0xfc, 0xf2, 0x05,
  0xca, 0xed, 0x0c, 0xfa, 0xc5, 0x2b, 0x20, 0x02, 0xce, 0x08, 0x25, 0xf3,
  0x07, 0xd6, 0x3b, 0xfa, 0xca, 0xcf, 0x30, 0x02, 0xd5, 0x29, 0xe9, 0xcc,
  0x12, 0x08, 0xee, 0x23, 0x27, 0x13, 0x3d, 0xfe, 0xfc, 0xd3, 0x19, 0xfc,
  0x14, 0x00, 0x17, 0x19, 0xe4, 0x13, 0x12, 0xf9, 0x02, 0xfc, 0xea, 0x07,
  0xd0, 0xf6, 0x01, 0x0f, 0x3a, 0x21, 0x26, 0xf2, 0x15, 0x01, 0xe6, 0x12,
  0x02, 0x09, 0xe2, 0x00, 0xec, 0x2f, 0xef, 0x06, 0x2d, 0xd3, 0xfc, 0xb5,
  0x26, 0x26, 0xdb, 0x18, 0x06, 0x26, 0xd1, 0x0b, 0x2c, 0x5e, 0xf9, 0x19,
  0x1b, 0xf9, 0x16, 0x03, 0xf2, 0xf6, 0x3e, 0xe9, 0xd6, 0xe5, 0xc5, 0x07,
  0xfe, 0xc5, 0xf6, 0xfd, 0x02, 0xbf, 0xf6, 0xd7, 0x2a, 0x12, 0x01, 0x0b,
  0xc9, 0x09, 0xb9, 0x01, 0x19, 0x39, 0xed, 0x09, 0xf4, 0xbd, 0xc1, 0xab,
  0xe1, 0xce, 0xc1, 0xde, 0x12, 0xe6, 0xe4, 0x0b, 0x32, 0x49, 0xcc, 0xdf,
  0xd3, 0xb8, 0xca, 0xea, 0x07, 0xf2, 0x2b, 0xab, 0x81, 0xae, 0xe7, 0x05,
  0x34, 0xb7, 0x88, 0xa0, 0xec, 0xbe, 0xc5, 0xa8, 0xe0, 0xbf, 0xee, 0xdb,
  0x1a, 0xcd, 0xf7, 0xf0, 0x4f, 0xc2, 0xbb, 0xbb, 0x1f, 0xf2, 0x07, 0x94,
  0xcd, 0x03, 0xf3, 0x35, 0x2f, 0x42, 0x1a, 0xfc, 0xcf, 0xaa, 0xde, 0xf0,
  0x0e, 0xf9, 0xfb, 0xdf, 0xe8, 0xde, 0x23, 0xe1, 0x06, 0xc5, 0x21, 0x0c,
  0x16, 0xd0, 0xe1, 0xcd, 0x39, 0xf5, 0xf8, 0x0a, 0xd8, 0x02, 0x08, 0xf7,
  0xfe, 0xf6, 0x04, 0x00, 0xf3, 0x16, 0xf5, 0xe9, 0x21, 0xce, 0xfb, 0xd6,
  0x01, 0xff, 0xb5, 0x09, 0xfb, 0x13, 0xd2, 0xfa, 0x17, 0x1a, 0xd5, 0x02,
  0x13, 0xfe, 0xe9, 0xa6, 0x0d, 0x13, 0xe2, 0x25, 0x22, 0x09, 0x27, 0x0b,
  0x11, 0x21, 0xd2, 0xff, 0x24, 0x08, 0xfc, 0xd8, 0xef, 0xfc, 0xd0, 0x1e,
  0x12, 0x00, 0xe7, 0xf1, 0x23, 0x27, 0xed, 0xf7, 0xb6, 0xd7, 0xd7, 0xde,
  0xf0, 0xf8, 0xa9, 0xdf, 0xd9, 0xec, 0xd3, 0x12, 0x1c, 0x0d, 0xf1, 0xef,
  0x24, 0xf9, 0xf2, 0xa8, 0x0d, 0x0c, 0xcc, 0x19, 0x2b, 0x1c, 0x1c, 0x0f,
  0x2a, 0x3f, 0xf8, 0x0b, 0x07, 0xf4, 0xf6, 0xf0, 0x06, 0xfb, 0xce, 0x0b,
  0x0e, 0x06, 0x01, 0xf1, 0x14, 0x12, 0xf2, 0xfa, 0x81, 0xe5, 0xec, 0x12,
  0x11, 0xe0, 0xb2, 0xbc, 0xd3, 0xd6, 0x05, 0xfb, 0xf9, 0xfd, 0xfd, 0xe5,
  0x01, 0x17, 0x19, 0xe2, 0x10, 0x09, 0x0d, 0x05, 0x18, 0x0f, 0xf0, 0xf9,
  0xb2, 0x04, 0xf7, 0x1c, 0xdd, 0x06, 0x17, 0x07, 0x13, 0x01, 0xfb, 0x04,
  0x05, 0xf5, 0xd7, 0xf6, 0xea, 0x09, 0x11, 0x1f, 0xe3, 0x00, 0xf9, 0x03,
  0x01, 0x0c, 0x1c, 0xf5, 0xf7, 0xfb, 0xea, 0x09, 0x08, 0x0e, 0xf5, 0x10,
  0x18, 0x05, 0x0f, 0xe2, 0x09, 0x17, 0xe1, 0x19, 0xfe, 0x1b, 0xca, 0xf2,
  0xd7, 0x30, 0xfa, 0x11, 0xe4, 0x0e, 0x09, 0x00, 0xf6, 0xf5, 0xc7, 0xf4,
  0xe2, 0xf4, 0xd6, 0xf6, 0xde, 0x08, 0x01, 0xff, 0xdb, 0xf1, 0xf5, 0x17,
  0x10, 0xf2, 0x3f, 0xc1, 0xd7, 0xdd, 0x01, 0x09, 0x11, 0x09, 0xfc, 0xe8,
  0x17, 0x0f, 0x07, 0xc6, 0xfa, 0x0e, 0xd0, 0x26, 0xff, 0x12, 0xac, 0x07,
  0xcf, 0x26, 0x24, 0x31, 0x81, 0xf6, 0x0b, 0xe0, 0x00, 0xf4, 0xaf, 0xf5,
  0xee, 0xfd, 0xdf, 0xf9, 0xf1, 0x1a, 0x05, 0x03, 0xdc, 0xd6, 0xc6, 0x39,
  0xf2, 0xe2, 0xff, 0xbd, 0xb8, 0xdb, 0xed, 0x09, 0x19, 0x13, 0xe8, 0xc4,
  0x2a, 0xd8, 0x15, 0xc8, 0xd9, 0xf5, 0x6b, 0xdc, 0xb7, 0xfb, 0x81, 0x1a,
  0x14, 0xe3, 0x13, 0x0d, 0x05, 0xfd, 0x0f, 0x01, 0xc5, 0xfd, 0xfa, 0x08,
  0xd3, 0xf4, 0x02, 0xe7, 0x8a, 0x6a, 0x38, 0x17, 0x0f, 0xf6, 0x16, 0xc2,
  0x07, 0x2a, 0x02, 0x14, 0x0b, 0x1c, 0x10, 0x04, 0x2a, 0x0d, 0xee, 0xda,
  0x36, 0x9d, 0xfe, 0xd2, 0xe7, 0xfe, 0x39, 0xf9, 0xeb, 0x03, 0xe3, 0x07,
  0xca, 0x1a, 0x9e, 0x00, 0x27, 0x00, 0x0a, 0x34, 0xb1, 0x1d, 0x47, 0x0d,
  0xeb, 0xd3, 0xd3, 0xfc, 0x8c, 0x38, 0x35, 0x15, 0x21, 0x18, 0x1b, 0x18,
  0xe0, 0x18, 0x40, 0xe4, 0xd4, 0xdf, 0x0e, 0x0d, 0xb2, 0x11, 0x31, 0x1f,
  0x14, 0x22, 0xcd, 0xef, 0x12, 0xd7, 0xf3, 0xe6, 0x10, 0x22, 0x55, 0xeb,
  0x18, 0x27, 0xce, 0xdd, 0x1d, 0xe0, 0x31, 0x04, 0xd0, 0xfe, 0x2a, 0x13,
  0xd9, 0xbe, 0xb8, 0xf3, 0xa0, 0xeb, 0x09, 0xe2, 0xdf, 0x36, 0xf7, 0x2c,
  0xc3, 0x0f, 0x4a, 0xd6, 0xf9, 0xed, 0x20, 0x19, 0x9b, 0xfc, 0x41, 0x1e,
  0xf2, 0x32, 0xff, 0xff, 0x04, 0x00, 0x00, 0x00, 0x80, 0x00, 0x00, 0x00,
  0x02, 0x02, 0x00, 0x00, 0x8d, 0x15, 0x00, 0x00, 0xd6, 0xf4, 0xff, 0xff,
  0x10, 0xff, 0xff, 0xff, 0xe4, 0x0d, 0x00, 0x00, 0x36, 0x08, 0x00, 0x00,
  0xd6, 0xef, 0xff, 0xff, 0xfd, 0xfd, 0xff, 0xff, 0xc7, 0x0e, 0x00, 0x00,
  0xc4, 0xfa, 0xff, 0xff, 0x74, 0xf7, 0xff, 0xff, 0xc0, 0xfc, 0xff, 0xff,
  0x83, 0xf5, 0xff, 0xff, 0x0a, 0x05, 0x00, 0x00, 0xa2, 0x0d, 0x00, 0x00,
  0x79, 0xff, 0xff, 0xff, 0x67, 0xe9, 0xff, 0xff, 0x8c, 0xf9, 0xff, 0xff,
  0xe1, 0xff, 0xff, 0xff, 0x7d, 0xf2, 0xff, 0xff, 0xc1, 0xf4, 0xff, 0xff,
  0xa6, 0x04, 0x00, 0x00, 0xd3, 0xf8, 0xff, 0xff, 0x4b, 0xfa, 0xff, 0xff,
  0x82, 0xfe, 0xff, 0xff, 0xd3, 0xf3, 0xff, 0xff, 0x94, 0xfd, 0xff, 0xff,
  0x86, 0xf1, 0xff, 0xff, 0x69, 0xf5, 0xff, 0xff, 0xd4, 0x0a, 0x00, 0x00,
  0xf0, 0xfd, 0xff, 0xff, 0x3d, 0xfe, 0xff, 0xff, 0x7e, 0x33, 0xff, 0xff,
  0x04, 0x00, 0x00, 0x00, 0x00, 0xc8, 0x00, 0x00, 0xf8, 0xfd, 0xfc, 0x03,
  0xf9, 0x05, 0xfc, 0x08, 0xf9, 0xfc, 0x03, 0xf9, 0xf9, 0xf8, 0x06, 0xfd,
  0xf8, 0xfd, 0xfe, 0x06, 0x03, 0xf8, 0x02, 0xf7, 0x08, 0xfa, 0xfe, 0x05,
  0xfb, 0x07, 0x00, 0xf9, 0x02, 0x00, 0xf6, 0xfe, 0x08, 0xfd, 0xfa, 0x02,
  0x03, 0x07, 0xfa, 0xff, 0x04, 0x04, 0x02, 0xfc, 0xfa, 0xfd, 0x07, 0x07,
  0x03, 0xf5, 0xfa, 0x02, 0x01, 0x09, 0x00, 0x02, 0x00, 0xfd, 0xfc, 0xf8,
  0x02, 0xf6, 0xf3, 0x08, 0xf6, 0xfb, 0x01, 0xfc, 0xff, 0x02, 0xf8, 0x05,
  0xf8, 0x08, 0x05, 0xf5, 0x08, 0xfa, 0xf7, 0x01, 0x01, 0xfc, 0x07, 0xf7,
  0x02, 0x02, 0xf1, 0x09, 0xff, 0x00, 0x00, 0xfe, 0xf9, 0xf8, 0x00, 0x06,
  0x03, 0xfd, 0xf6, 0xfb, 0xff, 0x01, 0xf3, 0xf4, 0xfe, 0xfa, 0x03, 0xfa,
  0xf9, 0x03, 0xf4, 0xf8, 0x08, 0xff, 0x05, 0xf8, 0x00, 0xfc, 0x00, 0x08,
  0xf8, 0xfb, 0xf7, 0xf5, 0x06, 0xfa, 0x06, 0x05, 0xf7, 0xf6, 0x00, 0x06,
  0x08, 0xf8, 0xf3, 0x01, 0xfd, 0xf8, 0xf9, 0x03, 0x01, 0xfa, 0x05, 0xfb,
  0x02, 0xff, 0xfb, 0x05, 0xfa, 0x04, 0x06, 0x00, 0xfb, 0x03, 0x04, 0xfe,
  0xfb, 0x05, 0xf7, 0x01, 0x03, 0x04, 0xf7, 0x03, 0xf7, 0x04, 0x00, 0x06,
  0x02, 0x01, 0x06, 0xfa, 0xfb, 0xfc, 0xf6, 0xfa, 0x01, 0x04, 0x06, 0xf6,
  0xf6, 0x04, 0x02, 0x01, 0x08, 0x01, 0x00, 0xfa, 0xf6, 0xf6, 0xf6, 0xfe,
  0x02, 0xf7, 0xfe, 0xf6, 0x02, 0xfe, 0xf4, 0x07, 0xf6, 0x07, 0x00, 0x00,
  0x08, 0xf6, 0x06, 0x02, 0xfe, 0x08, 0xfa, 0xfa, 0x02, 0x02, 0x08, 0xf5,
  0x03, 0xf6, 0xfd, 0x06, 0x05, 0xf5, 0x06, 0xfd, 0xfe, 0xff, 0x00, 0xf7,
  0xf5, 0xfc, 0xfb, 0x01, 0x03, 0x04, 0x02, 0xf8, 0xfc, 0xfa, 0xfb, 0x02,
  0x07, 0x01, 0x01, 0x07, 0x09, 0xfe, 0xfb, 0x04, 0x03, 0x06, 0xf8, 0xf8,
  0x01, 0x00, 0x02, 0xf7, 0xff, 0xf4, 0xf7, 0x05, 0x06, 0xf9, 0x04, 0x00,
  0xf8, 0xf6, 0x08, 0xfc, 0xfe, 0xf7, 0xfc, 0x02, 0xff, 0x08, 0x03, 0xfe,
  0xfc, 0x08, 0xfd, 0xf7, 0xfd, 0xff, 0xf6, 0x02, 0xfb, 0x05, 0xff, 0x04,
  0xf8, 0x06, 0xf9, 0x05, 0xfc, 0x08, 0xf8, 0x06, 0xfb, 0x09, 0x03, 0x07,
  0x04, 0xf8, 0xfe, 0xf8, 0x01, 0xff, 0xfb, 0xf9, 0x06, 0xff, 0x00, 0x04,
  0xf9, 0xf8, 0xf5, 0x08, 0xfc, 0xf7, 0xff, 0x05, 0xfc, 0x05, 0xff, 0xf9,
  0x02, 0x08, 0x03, 0x01, 0xf5, 0xfe, 0x02, 0xf9, 0xf8, 0xfc, 0xf9, 0xfb,
  0xfd, 0x00, 0xfd, 0x06, 0xfd, 0xfb, 0xfe, 0xf8, 0xfe, 0x03, 0xf7, 0x03,
  0xf8, 0xf6, 0x04, 0x02, 0xf4, 0x04, 0xfb, 0xf5, 0x04, 0xfc, 0x02, 0x04,
  0x01, 0xfe, 0xfa, 0xf7, 0xfd, 0xf6, 0xf3, 0x07, 0x08, 0xfb, 0x02, 0x02,
  0xff, 0xf7, 0x04, 0x00, 0x04, 0xfa, 0xf9, 0x07, 0xfc, 0xfe, 0xfa, 0x06,
  0xfa, 0x04, 0xff, 0x00, 0xfe, 0xf8, 0xfb, 0x01, 0xf5, 0xf7, 0x03, 0x02,
  0xf9, 0x00, 0xff, 0x00, 0xf7, 0x02, 0xf9, 0xf9, 0xfd, 0x00, 0x05, 0xff,
  0xf9, 0xf9, 0x05, 0xfd, 0xff, 0xf8, 0xfa, 0xff, 0x01, 0xf5, 0xf6, 0xfc,
  0x02, 0xf5, 0xf8, 0xfa, 0xf8, 0xf7, 0x06, 0xfb, 0x02, 0xfc, 0xf8, 0x06,
  0x07, 0x06, 0x03, 0xf7, 0xf9, 0xf7, 0xfe, 0xfe, 0xfe, 0x01, 0xf4, 0xf5,
  0x04, 0xfd, 0xfd, 0xf9, 0x09, 0x08, 0xfc, 0xf9, 0x06, 0xf9, 0xff, 0xf6,
  0x05, 0x01, 0xff, 0xf6, 0x06, 0xff, 0xfb, 0x04, 0x02, 0xf9, 0x02, 0x05,
  0xff, 0xf7, 0xfc, 0x01, 0x09, 0x06, 0x02, 0xfb, 0x05, 0xfa, 0x00, 0xff,
  0xf7, 0xfb, 0xf9, 0x03, 0xf7, 0x07, 0xfa, 0x00, 0x02, 0x02, 0xfb, 0xfd,
  0x04, 0xfb, 0xfb, 0x04, 0xfb, 0x04, 0x07, 0xf6, 0xfd, 0x03, 0x02, 0x04,
  0xfb, 0x04, 0xf8, 0xf7, 0xf5, 0x06, 0xf9, 0xf7, 0xfd, 0xfc, 0x02, 0xf7,
  0x01, 0x03, 0xf4, 0xfb, 0xf3, 0xfe, 0xf9, 0xf7, 0xfa, 0xfe, 0xf7, 0x05,
  0xf8, 0xf6, 0x02, 0xfc, 0x04, 0xf8, 0x00, 0x01, 0xfe, 0xfa, 0xf7, 0x03,
  0xfa, 0xfc, 0x08, 0x07, 0xfb, 0x07, 0x04, 0xf5, 0x08, 0xfe, 0xf6, 0xff,
  0x04, 0x06, 0xf9, 0xf8, 0x08, 0xf3, 0xf6, 0xf9, 0x06, 0x01, 0xf5, 0x02,
  0x06, 0xf4, 0xf7, 0xf6, 0xfb, 0x05, 0x07, 0xf5, 0xf7, 0x04, 0xfd, 0x00,
  0x01, 0xfd, 0xfd, 0x03, 0x01, 0xfa, 0xfc, 0xfc, 0x09, 0x03, 0xf7, 0x09,
  0xf6, 0x01, 0x04, 0xf8, 0x02, 0xfd, 0x07, 0xfb, 0x01, 0xff, 0x06, 0x01,
  0x05, 0xf8, 0xf7, 0x02, 0x02, 0xf7, 0xfd, 0x01, 0x04, 0xf7, 0xfe, 0x07,
  0x03, 0xff, 0xfb, 0x03, 0x00, 0xfd, 0x01, 0x01, 0xfc, 0xf7, 0x00, 0x07,
  0x03, 0x03, 0xf8, 0xf7, 0x01, 0x07, 0x06, 0xfc, 0xfb, 0xfc, 0x09, 0xf5,
  0xfd, 0x08, 0x03, 0x03, 0xfb, 0xf7, 0xf9, 0xf7, 0x01, 0xfc, 0x07, 0xfe,
  0xfd, 0x01, 0xf7, 0x04, 0x06, 0xfa, 0xf9, 0x04, 0xfa, 0x04, 0x00, 0xf8,
  0xfd, 0xfb, 0xfa, 0xf7, 0xf6, 0xfb, 0x02, 0x04, 0xfa, 0xfd, 0x08, 0x03,
  0xfb, 0x04, 0xf7, 0xfa, 0xfb, 0xf7, 0x03, 0xf7, 0xf7, 0x06, 0x08, 0xfc,
  0xfb, 0xf3, 0xff, 0x04, 0xf8, 0x06, 0x08, 0x02, 0x08, 0xfd, 0xfd, 0xf7,
  0x08, 0xfe, 0x06, 0xff, 0xfb, 0xfd, 0xfd, 0x03, 0x01, 0x08, 0xf8, 0xf6,
  0xf6, 0xf8, 0x01, 0xfb, 0xfa, 0x01, 0xfa, 0xfc, 0xfa, 0xf7, 0x06, 0x03,
  0xfe, 0xf8, 0x07, 0x05, 0x05, 0xfe, 0x08, 0xfa, 0xfe, 0xf6, 0xff, 0xf8,
  0xfd, 0xf7, 0x02, 0xff, 0xfb, 0x02, 0xfe, 0x00, 0xfe, 0xfc, 0x04, 0xfe,
  0xf6, 0xf8, 0xf8, 0xfb, 0x03, 0x01, 0x03, 0x08, 0x02, 0x05, 0x01, 0xf8,
  0x06, 0xfe, 0x04, 0x08, 0xf9, 0x04, 0xf7, 0xf7, 0xfa, 0x05, 0x01, 0xf6,
  0xf9, 0xfa, 0xfc, 0x06, 0xfd, 0x01, 0x03, 0x01, 0x07, 0x05, 0xfb, 0x01,
  0x08, 0xfb, 0xfa, 0x07, 0xf8, 0xf4, 0xf9, 0x00, 0x04, 0xf8, 0xf8, 0xff,
  0xfc, 0x05, 0xf8, 0x08, 0xe2, 0x03, 0x03, 0xe3, 0x0a, 0xfc, 0xf3, 0xe3,
  0xf0, 0xfa, 0xf5, 0x02, 0xfc, 0xd6, 0xd6, 0x00, 0xf8, 0xdf, 0xdd, 0xf3,
  0x11, 0xe2, 0x13, 0xd0, 0xdb, 0xf6, 0xf4, 0xd5, 0xe7, 0x11, 0x14, 0x13,
  0xec, 0xee, 0xea, 0xe8, 0x00, 0xf8, 0xf6, 0xfa, 0xfe, 0x0d, 0xec, 0xf3,
  0xf3, 0xe4, 0xd8, 0x2d, 0x00, 0xf2, 0xf8, 0xf6, 0xf7, 0xd1, 0xf5, 0xd9,
  0xee, 0x06, 0xf7, 0xe9, 0x02, 0x00, 0x15, 0xf0, 0x08, 0x0b, 0xd7, 0x03,
  0x20, 0x05, 0x09, 0x03, 0xf6, 0xf7, 0x02, 0x0d, 0xfc, 0x01, 0xe4, 0x15,
  0x01, 0xfd, 0xfe, 0xf4, 0xf9, 0xd5, 0xdf, 0xe3, 0xf3, 0xfa, 0x02, 0xf9,
  0xe9, 0xf3, 0x0d, 0xfc, 0x12, 0x01, 0x1a, 0x01, 0x17, 0x16, 0xfc, 0xd7,
  0xd4, 0x05, 0x1c, 0x09, 0xfa, 0x0b, 0xee, 0xf2, 0x00, 0xfd, 0x07, 0xe0,
  0x0b, 0xed, 0xde, 0xea, 0xfe, 0xe1, 0xfe, 0xf1, 0xf9, 0xf0, 0xf2, 0x13,
  0x21, 0xfc, 0xf9, 0x0a, 0x10, 0x0d, 0xf6, 0xd6, 0xf6, 0xfa, 0x16, 0x0a,
  0x04, 0x26, 0xe6, 0xf7, 0xdb, 0xda, 0x0f, 0xd7, 0x08, 0xf2, 0xe7, 0x09,
  0xe8, 0x00, 0xf8, 0x01, 0x14, 0xf7, 0xfc, 0x03, 0xe7, 0xec, 0xd5, 0xed,
  0x03, 0xf2, 0xea, 0xf1, 0xf7, 0x03, 0x05, 0xf2, 0xf5, 0xdd, 0xda, 0xfb,
  0x00, 0xec, 0xe4, 0x05, 0xde, 0xcc, 0xeb, 0xd0, 0xcc, 0x16, 0xe3, 0xd1,
  0xe0, 0xed, 0x01, 0xf8, 0xf7, 0xf3, 0xe6, 0x01, 0x1e, 0xf2, 0x05, 0xec,
  0x05, 0x0d, 0x09, 0x05, 0xef, 0xfe, 0xf6, 0x29, 0xee, 0xe3, 0x09, 0xfe,
  0xf8, 0xef, 0xee, 0xf0, 0xd4, 0x00, 0x01, 0xfe, 0xf5, 0x01, 0xf1, 0x01,
  0x17, 0x12, 0x11, 0x05, 0x29, 0x06, 0x05, 0xf6, 0xfa, 0x1a, 0x12, 0x1b,
  0xfd, 0xfe, 0x01, 0x1e, 0xf8, 0xf9, 0x13, 0x04, 0x0b, 0x00, 0xf4, 0xf1,
  0xd7, 0x1d, 0x04, 0x00, 0xdd, 0x19, 0x01, 0x01, 0x2a, 0x07, 0x1a, 0x0b,
  0x06, 0x0f, 0x13, 0xf8, 0xf2, 0xfa, 0x16, 0x1c, 0x04, 0x03, 0x01, 0x02,
  0xf1, 0x09, 0x04, 0xf9, 0x1b, 0xdd, 0xf4, 0xea, 0xf6, 0x01, 0x01, 0x10,
  0xf1, 0xed, 0xfd, 0x11, 0x19, 0xf4, 0xdd, 0x09, 0x18, 0x2e, 0x08, 0xf4,
  0xef, 0x04, 0xfb, 0x17, 0x2e, 0x05, 0xf4, 0xfb, 0xef, 0xcc, 0x03, 0x0a,
  0x19, 0xf7, 0xf9, 0x01, 0xf3, 0x02, 0xfc, 0xea, 0xf0, 0xf1, 0x08, 0x12,
  0xf0, 0xef, 0xd6, 0xf1, 0xe8, 0xea, 0xc8, 0xe4, 0xf0, 0xd4, 0xef, 0xfe,
  0xf2, 0xef, 0xe4, 0xee, 0xf2, 0xf4, 0xed, 0xe1, 0xf2, 0xde, 0xde, 0xf8,
  0xd5, 0xe8, 0xe8, 0xca, 0xe4, 0xd5, 0xe2, 0xe4, 0xe7, 0xf0, 0xe0, 0x07,
  0x10, 0xe0, 0xf9, 0x08, 0x0c, 0xfe, 0x0a, 0x12, 0xea, 0xf9, 0x12, 0xd9,
  0xf5, 0x08, 0x0e, 0x03, 0xff, 0x01, 0xfa, 0xfd, 0xd9, 0xec, 0x14, 0x02,
  0xf8, 0xe7, 0xf4, 0xef, 0x11, 0xf7, 0xf6, 0xfe, 0x0e, 0x04, 0xfb, 0x0b,
  0x20, 0xfe, 0x1e, 0x0a, 0x0a, 0xfe, 0x17, 0x06, 0xf2, 0xf5, 0x0e, 0x0f,
  0x0d, 0x11, 0xf8, 0x1a, 0xcb, 0xf8, 0x0b, 0x02, 0xec, 0xfb, 0x03, 0xf9,
  0x12, 0x05, 0x0d, 0xeb, 0x09, 0xff, 0x0f, 0x1b, 0xfc, 0x0a, 0x10, 0x00,
  0x10, 0xf7, 0x1a, 0x04, 0x12, 0xe5, 0x07, 0x0f, 0x05, 0x12, 0x02, 0x25,
  0xf6, 0xee, 0x14, 0xfc, 0xec, 0x11, 0x07, 0xf3, 0xfe, 0x01, 0xe7, 0xf3,
  0x02, 0x1f, 0xfc, 0xf4, 0xc3, 0xff, 0x0f, 0xfa, 0x23, 0x00, 0x0b, 0xf9,
  0x0f, 0xf0, 0xf2, 0x06, 0x02, 0x1e, 0xfd, 0x28, 0x16, 0x06, 0xeb, 0xd5,
  0xff, 0x1c, 0x0a, 0xf5, 0xd3, 0xe5, 0xd6, 0xf2, 0xd5, 0xe1, 0xef, 0xd9,
  0xfe, 0xd5, 0x0b, 0x00, 0xee, 0xe4, 0xe2, 0xf1, 0xea, 0xfa, 0xf5, 0xd4,
  0xd2, 0xfc, 0xc4, 0xe9, 0xec, 0xf6, 0xf7, 0xe7, 0x0a, 0xf5, 0xf5, 0xdc,
  0xf9, 0xfc, 0xec, 0x10, 0xfc, 0xfa, 0xd6, 0x13, 0xf8, 0xe7, 0x08, 0xf2,
  0xf2, 0x06, 0xf6, 0xea, 0xf9, 0x05, 0xf0, 0xf7, 0xf4, 0x12, 0xfb, 0x07,
  0xe6, 0xed, 0x09, 0xf7, 0xf6, 0xf7, 0xee, 0xe3, 0x0c, 0xfe, 0xda, 0xf4,
  0x0d, 0x0e, 0xfa, 0xf9, 0xfe, 0x04, 0x07, 0xf8, 0x0b, 0x0d, 0x0c, 0xfd,
  0x06, 0xed, 0xe3, 0x09, 0x17, 0x1a, 0x06, 0x15, 0xf8, 0x11, 0x05, 0xe5,
  0xd6, 0x27, 0x1b, 0x10, 0xf2, 0xfa, 0xf1, 0xeb, 0x27, 0x09, 0x0e, 0xe7,
  0x11, 0x1a, 0x13, 0x0b, 0xfb, 0xec, 0x01, 0x05, 0x09, 0xd7, 0xd0, 0xff,
  0x19, 0x0e, 0x10, 0x0f, 0x05, 0x19, 0xee, 0x0a, 0xc7, 0x07, 0x01, 0x00,
  0x11, 0xfe, 0x09, 0xc4, 0x2c, 0x07, 0x14, 0xe8, 0xec, 0x2c, 0xfb, 0x15,
  0xe5, 0xd3, 0xe8, 0xf4, 0x00, 0xe5, 0xf0, 0x09, 0xf3, 0xf6, 0x11, 0xeb,
  0xff, 0x18, 0xd7, 0xf0, 0xf1, 0x02, 0x12, 0x09, 0xec, 0xfd, 0xe0, 0xfc,
  0xea, 0xfa, 0x0d, 0xeb, 0xe9, 0x00, 0xfa, 0x16, 0x02, 0xfe, 0xe6, 0xfd,
  0xd7, 0xe3, 0x0e, 0xe5, 0xfb, 0xf1, 0xf9, 0xf5, 0xe7, 0x05, 0x04, 0x09,
  0xeb, 0xf2, 0x07, 0x03, 0x09, 0x10, 0xe7, 0x1a, 0xf1, 0x0c, 0xfd, 0xe9,
  0xf2, 0xe6, 0xfe, 0xff, 0x0d, 0xfa, 0xee, 0x07, 0xd1, 0xe4, 0x04, 0xdf,
  0xf0, 0xfa, 0x06, 0xfb, 0x09, 0xfe, 0xfd, 0x18, 0xf6, 0x06, 0x0c, 0xfb,
  0x05, 0x1a, 0xcf, 0x0c, 0x01, 0x0b, 0xf8, 0xe3, 0xf7, 0x08, 0x18, 0x00,
  0x0f, 0xee, 0x04, 0x0b, 0xfb, 0xf2, 0x01, 0xfc, 0x03, 0x09, 0x0b, 0x03,
  0xf1, 0x11, 0xf9, 0x11, 0xef, 0xf6, 0x10, 0x17, 0x0f, 0x24, 0xcd, 0x24,
  0xfe, 0x14, 0x02, 0xdc, 0x0b, 0x11, 0x1a, 0x0f, 0x0f, 0x08, 0xe2, 0x0d,
  0x15, 0xee, 0xf2, 0x0e, 0x33, 0xe9, 0x0e, 0x02, 0xf7, 0xf7, 0xe9, 0x00,
  0xf7, 0xdd, 0xfe, 0x1e, 0x17, 0x29, 0xc4, 0x11, 0xfb, 0x21, 0x08, 0xe2,
  0x0c, 0xfb, 0xfa, 0x14, 0x1e, 0xf9, 0xe0, 0x1c, 0x11, 0xd5, 0xdf, 0x10,
  0x11, 0x08, 0x19, 0x13, 0xed, 0x05, 0xe5, 0xed, 0xdc, 0xfc, 0x1e, 0x0b,
  0xf8, 0xfc, 0xf9, 0x09, 0xfe, 0xfa, 0xf7, 0xf8, 0xfc, 0xfc, 0xff, 0xf6,
  0xff, 0xfe, 0x05, 0x09, 0xf8, 0x02, 0x00, 0x07, 0x03, 0xfd, 0xfd, 0x01,
  0x01, 0xfd, 0xf6, 0x02, 0x00, 0xf7, 0x06, 0x06, 0x00, 0xf5, 0x04, 0xf6,
  0x00, 0xfe, 0xfd, 0xf9, 0x01, 0x02, 0xf3, 0xf8, 0x05, 0x08, 0xfc, 0xf6,
  0x06, 0x05, 0xfe, 0xf9, 0xf9, 0x09, 0x04, 0x05, 0x00, 0x08, 0xf8, 0x00,
  0xfb, 0x01, 0x00, 0xfa, 0x02, 0xfb, 0xf7, 0xf8, 0x09, 0xf7, 0xf8, 0x06,
  0xfb, 0x02, 0x03, 0xf7, 0xfd, 0xf8, 0x02, 0xfc, 0xfe, 0xff, 0x04, 0xff,
  0x00, 0xfe, 0xf4, 0xf2, 0xfd, 0xfb, 0x09, 0xfc, 0x02, 0x09, 0x00, 0x01,
  0x06, 0xfb, 0xfe, 0xf8, 0xf8, 0xfe, 0xfe, 0x05, 0xf8, 0xfd, 0xfe, 0xf4,
  0x00, 0x05, 0xfa, 0x06, 0x08, 0x04, 0xfa, 0xfc, 0x04, 0xf4, 0xf8, 0xfc,
  0xfa, 0x06, 0xfa, 0xf2, 0x03, 0xff, 0xfc, 0xf6, 0xf7, 0x06, 0xf9, 0xfe,
  0x04, 0xfd, 0xfe, 0x08, 0x05, 0xf8, 0xf8, 0xfd, 0xfc, 0xf9, 0x01, 0xfb,
  0x08, 0x02, 0xf9, 0x03, 0x04, 0x05, 0xf7, 0xfa, 0xf9, 0x05, 0xff, 0x00,
  0x00, 0xf7, 0xfd, 0x04, 0x07, 0xfc, 0xf5, 0x03, 0x02, 0x0a, 0x01, 0x01,
  0x07, 0x03, 0xf4, 0x04, 0x05, 0x0a, 0x07, 0x04, 0xfc, 0x07, 0xfa, 0x00,
  0x02, 0x02, 0xfc, 0x06, 0xf9, 0x07, 0x06, 0xfe, 0x09, 0x09, 0x02, 0x04,
  0xf7, 0xfd, 0x04, 0x03, 0x04, 0xfb, 0xf9, 0xfa, 0xfb, 0xfa, 0x02, 0xfb,
  0xf2, 0xff, 0xfa, 0x06, 0xfb, 0xfd, 0xf7, 0xfa, 0xf8, 0xfe, 0x07, 0xfe,
  0xfb, 0x08, 0xf4, 0x02, 0xf6, 0x09, 0x06, 0x00, 0x03, 0xfd, 0xf6, 0xfe,
  0xf2, 0xfd, 0xfb, 0xf9, 0x05, 0xfc, 0x07, 0xfe, 0xf8, 0xfe, 0xf8, 0x01,
  0xf6, 0xfb, 0xf2, 0xff, 0x03, 0xf4, 0x01, 0xf9, 0xf6, 0xfb, 0xf9, 0x08,
  0x00, 0x04, 0x05, 0x02, 0x07, 0x03, 0xf9, 0xf9, 0xfa, 0x0a, 0xf5, 0x05,
  0xf9, 0xf5, 0xf5, 0xf7, 0xf9, 0x07, 0xfd, 0x04, 0x01, 0x04, 0xfb, 0xfb,
  0x04, 0xf3, 0xf2, 0x00, 0x01, 0xf6, 0x04, 0xf9, 0x01, 0xf6, 0xf7, 0xf5,
  0x06, 0xff, 0x01, 0x03, 0x01, 0xfc, 0x00, 0xfd, 0xfe, 0xf7, 0xf6, 0x02,
  0xf7, 0xf8, 0xf3, 0x03, 0xfa, 0xfb, 0xf4, 0x01, 0xfb, 0xf4, 0xfd, 0x08,
  0xf9, 0xfa, 0xf3, 0xfa, 0xf5, 0x0a, 0x02, 0xfa, 0x05, 0x01, 0xff, 0xfa,
  0x00, 0xf8, 0x03, 0xfb, 0xfc, 0x06, 0xf4, 0xfb, 0xf7, 0x04, 0xf7, 0x01,
  0x09, 0x00, 0xf8, 0x03, 0x06, 0x00, 0xfe, 0xfc, 0x09, 0xff, 0xff, 0xff,
  0x09, 0x06, 0x02, 0x01, 0xfa, 0xf5, 0x07, 0x07, 0xfe, 0xfc, 0xf7, 0xfa,
  0x03, 0xfe, 0xf9, 0x08, 0xf4, 0x01, 0xfe, 0xfb, 0xfa, 0x07, 0x05, 0xf7,
  0xf9, 0x04, 0xf5, 0x08, 0x02, 0x08, 0x04, 0xf6, 0x06, 0xf7, 0x05, 0xfd,
  0xf9, 0x03, 0xf9, 0x0a, 0x03, 0x04, 0xfc, 0xf5, 0xfd, 0x04, 0xfc, 0x03,
  0xf8, 0xf4, 0x00, 0xfc, 0xfb, 0x04, 0x04, 0xfc, 0xf4, 0xf7, 0x03, 0x03,
  0xfb, 0x07, 0xf8, 0x05, 0xfd, 0xf3, 0x05, 0x01, 0x03, 0xfa, 0xf9, 0x06,
  0xf8, 0x06, 0xfe, 0x02, 0xfc, 0xfb, 0x07, 0xf3, 0xf9, 0xff, 0x09, 0xfd,
  0x05, 0xfb, 0x00, 0xfb, 0x05, 0xfb, 0xf9, 0xf8, 0xfe, 0x01, 0x03, 0xfa,
  0xfc, 0xf9, 0xfa, 0x01, 0x01, 0xfb, 0x00, 0x05, 0xf9, 0x06, 0xfb, 0xfe,
  0xfd, 0x00, 0xfa, 0x07, 0xfe, 0x00, 0xf6, 0x01, 0xff, 0xf3, 0xf2, 0x00,
  0x08, 0xf7, 0x01, 0xff, 0x06, 0xf2, 0x03, 0xfb, 0xf7, 0x03, 0xf7, 0xf8,
  0x03, 0xfb, 0x08, 0x02, 0xf8, 0x01, 0x02, 0xf9, 0xff, 0x04, 0x03, 0xfb,
  0xf9, 0x01, 0xfd, 0x06, 0x08, 0x01, 0x03, 0x05, 0xfe, 0xf7, 0xf7, 0xf8,
  0x0a, 0xff, 0xfc, 0xf6, 0x08, 0x04, 0x01, 0xfd, 0xff, 0x03, 0x00, 0xff,
  0xfa, 0x03, 0x00, 0xf4, 0xf8, 0x04, 0xf2, 0x09, 0xf2, 0xfb, 0xf4, 0x07,
  0x04, 0xf9, 0xf9, 0x08, 0xf8, 0xfb, 0x02, 0x03, 0xfd, 0xf7, 0xf9, 0x05,
  0xf5, 0xfb, 0x08, 0xf3, 0xfe, 0xf2, 0xfd, 0xfb, 0xf8, 0xff, 0xf4, 0x04,
  0x03, 0x00, 0xf8, 0xfb, 0xf9, 0xf5, 0xfe, 0xff, 0xfc, 0xf9, 0xf4, 0xfb,
  0xf2, 0xfc, 0xfe, 0xf2, 0xf8, 0x07, 0x02, 0xf9, 0xf9, 0xf3, 0xfb, 0x03,
  0xf7, 0x08, 0xf6, 0x02, 0xfa, 0xfa, 0x02, 0xf9, 0xfb, 0xf6, 0x04, 0xfa,
  0x05, 0xfe, 0xf8, 0x07, 0xff, 0x05, 0xf5, 0xfe, 0x08, 0xff, 0x03, 0xfd,
  0xf7, 0xfa, 0xf3, 0x02, 0x03, 0xfc, 0xf4, 0xfd, 0xfe, 0xf7, 0xfe, 0xfc,
  0xff, 0xfb, 0x03, 0x00, 0x08, 0xf9, 0xfc, 0x01, 0x01, 0xfb, 0x04, 0xf5,
  0x02, 0xfe, 0xf9, 0x02, 0xfe, 0x05, 0xf4, 0xfb, 0xf8, 0xf1, 0x05, 0x04,
  0xfd, 0xfa, 0x04, 0xf3, 0xf8, 0xfa, 0x02, 0xfa, 0xf8, 0xf9, 0x04, 0x08,
  0x04, 0xff, 0x00, 0xfb, 0xf7, 0xfa, 0xf7, 0xfd, 0xfd, 0xfd, 0xff, 0xf7,
  0xf8, 0x03, 0xfc, 0x09, 0x06, 0xf9, 0x01, 0x06, 0x04, 0x02, 0xfc, 0x05,
  0x01, 0x00, 0x01, 0xf8, 0x07, 0xf9, 0xf8, 0x00, 0xff, 0xfd, 0xfb, 0xf7,
  0xfe, 0x08, 0xf8, 0xf9, 0xfd, 0xf5, 0xfe, 0x01, 0x00, 0x02, 0xf8, 0xf5,
  0x09, 0x08, 0xfa, 0x06, 0xfe, 0xf6, 0x00, 0xf2, 0x03, 0x08, 0xfb, 0x02,
  0xf7, 0xfc, 0x03, 0xfb, 0xf7, 0xf8, 0xf3, 0xfc, 0xfb, 0xfb, 0xfd, 0x05,
  0xf4, 0xf3, 0xfe, 0xf7, 0xfa, 0xfb, 0xf3, 0x02, 0xf4, 0xff, 0xfc, 0x04,
  0xf3, 0xf1, 0xf7, 0xf3, 0x05, 0xf8, 0x07, 0xf7, 0xfa, 0xf5, 0xf4, 0xfc,
  0xf9, 0x03, 0xf6, 0x06, 0xf5, 0xfd, 0x01, 0xfb, 0xfd, 0xfd, 0xf9, 0xfc,
  0xf4, 0xf5, 0x05, 0xf4, 0xff, 0x02, 0x05, 0x03, 0xfe, 0xfa, 0xf9, 0xf7,
  0x06, 0xfb, 0xfa, 0x09, 0xf4, 0x03, 0x02, 0xfe, 0xfd, 0x03, 0xf6, 0x05,
  0xf4, 0xfd, 0x02, 0xf8, 0x01, 0xfb, 0x04, 0x03, 0xfd, 0x05, 0xf5, 0x05,
  0xf7, 0xf2, 0x04, 0x07, 0xfb, 0xf6, 0xfe, 0x04, 0xfc, 0xfe, 0xf4, 0xea,
  0x00, 0xfe, 0xf8, 0xf5, 0x08, 0xf2, 0xfa, 0x0d, 0x09, 0x00, 0xf7, 0x01,
  0x00, 0xf3, 0xf6, 0x01, 0xf5, 0xfe, 0x05, 0x04, 0xf8, 0x01, 0x01, 0xfb,
  0xeb, 0xee, 0xf8, 0x01, 0xf1, 0x01, 0xef, 0xf4, 0x06, 0xfb, 0xef, 0xfc,
  0x00, 0x05, 0x00, 0xf4, 0xf8, 0xfd, 0x02, 0xf8, 0x0b, 0x0d, 0xec, 0x08,
  0xef, 0x03, 0xfc, 0x03, 0xed, 0xfc, 0x0a, 0x02, 0xf3, 0x0b, 0xf8, 0x02,
  0xf9, 0xfc, 0x09, 0xfd, 0x0b, 0xf5, 0x02, 0x09, 0xff, 0x0a, 0xfb, 0x03,
  0xf4, 0xf8, 0xf9, 0x02, 0xfc, 0x08, 0xf0, 0x06, 0xfb, 0xec, 0x05, 0xf9,
  0x0d, 0xf9, 0x04, 0xff, 0xf9, 0xf1, 0x01, 0xf6, 0xf4, 0x04, 0x01, 0xf5,
  0xec, 0xf8, 0xfb, 0x09, 0xfd, 0xee, 0xfc, 0x01, 0xf0, 0xf2, 0xf7, 0x06,
  0x03, 0x0f, 0xf3, 0xff, 0x01, 0x02, 0x01, 0xee, 0xfe, 0xf8, 0x01, 0xfc,
  0x0d, 0xfb, 0x06, 0xf1, 0xfe, 0xf9, 0xee, 0xfe, 0x03, 0x00, 0xed, 0xfc,
  0x02, 0x03, 0xf6, 0x09, 0x07, 0x0a, 0x01, 0x08, 0x03, 0x04, 0x02, 0x08,
  0xfb, 0xfe, 0xf8, 0xfe, 0xf7, 0x00, 0xf8, 0xfe, 0xf9, 0xf1, 0x04, 0x06,
  0xfa, 0xf3, 0xfe, 0xfe, 0xfe, 0x06, 0x05, 0xfd, 0xf4, 0x04, 0x0a, 0x08,
  0x07, 0xf4, 0xfa, 0x06, 0x03, 0xed, 0xf3, 0x02, 0xfe, 0xf8, 0xfd, 0x02,
  0xf6, 0xfc, 0xf2, 0xf8, 0xfc, 0x01, 0xfa, 0x01, 0x00, 0x04, 0x0a, 0x00,
  0x03, 0x04, 0xf8, 0xee, 0xf8, 0x01, 0xf1, 0xfd, 0xf9, 0xee, 0xfb, 0x0e,
  0x01, 0xff, 0x00, 0xfe, 0xf0, 0xf6, 0xf5, 0xf6, 0x01, 0xfc, 0xfc, 0xfa,
  0xfe, 0xff, 0x06, 0xfb, 0x07, 0x06, 0x12, 0x01, 0xf9, 0xfa, 0xfc, 0xf1,
  0x0d, 0x04, 0xf5, 0xf3, 0x00, 0x00, 0xef, 0xf5, 0xf5, 0xfc, 0xfe, 0xf8,
  0xfb, 0xec, 0xff, 0xf3, 0xff, 0xfa, 0xf5, 0xf8, 0xfb, 0xfd, 0xf6, 0x00,
  0xfc, 0xfe, 0xfc, 0xfb, 0x02, 0x00, 0xf7, 0xf4, 0x09, 0xf0, 0xf2, 0xff,
  0x00, 0xfd, 0xf5, 0x00, 0x03, 0xfe, 0xf6, 0xfa, 0xed, 0x03, 0x00, 0xff,
  0xfc, 0xf7, 0xf8, 0xef, 0x0b, 0xff, 0x01, 0xf7, 0x08, 0xfc, 0xfc, 0xee,
  0xfd, 0x05, 0xed, 0xf9, 0x0b, 0x02, 0xf8, 0xfe, 0x0f, 0x00, 0xf7, 0x01,
  0xf3, 0xf2, 0xf7, 0xe6, 0xf4, 0xfc, 0xf7, 0x06, 0x00, 0xf8, 0xf7, 0xf8,
  0xfd, 0xfd, 0xfc, 0x00, 0xf1, 0xf8, 0xfe, 0xed, 0x00, 0xfb, 0x05, 0x03,
  0x00, 0x07, 0xf9, 0x03, 0xfa, 0xf5, 0xf9, 0xf6, 0xf0, 0x03, 0xee, 0xf6,
  0xfc, 0xf8, 0x01, 0xf6, 0x01, 0xf9, 0xfb, 0xec, 0x00, 0x06, 0x01, 0xfe,
  0xf8, 0xfe, 0xff, 0xfb, 0x03, 0xf6, 0x00, 0xf7, 0x00, 0x01, 0xf7, 0x09,
  0xf5, 0xfc, 0xf3, 0x0c, 0xf0, 0xfb, 0x02, 0xf7, 0x03, 0xf9, 0xf7, 0xf9,
  0x07, 0xfe, 0x00, 0xf9, 0xfa, 0xfa, 0xfc, 0xfc, 0xfa, 0xf8, 0xfb, 0xfe,
  0xf7, 0x05, 0xf6, 0xf5, 0x08, 0xf4, 0xfc, 0xf9, 0xf5, 0xf5, 0xfd, 0xf8,
  0xff, 0x06, 0xf5, 0xf2, 0xf9, 0xed, 0xf1, 0xf3, 0xf8, 0xf7, 0xe8, 0xfc,
  0xf4, 0x03, 0xf6, 0xf1, 0x05, 0xf8, 0xf6, 0x00, 0xf7, 0xf4, 0xf2, 0xf8,
  0xff, 0x03, 0x00, 0xfc, 0x07, 0x00, 0xfd, 0x04, 0x04, 0x06, 0xfc, 0xf3,
  0xfc, 0xf8, 0xf8, 0xfb, 0xfe, 0xf8, 0xf9, 0x02, 0xf8, 0xf8, 0xf2, 0x00,
  0x00, 0xfb, 0xf3, 0xfd, 0xfa, 0x01, 0xf7, 0xf9, 0xfd, 0xfb, 0x0c, 0xf9,
  0xf3, 0xff, 0xf9, 0xfd, 0xee, 0x04, 0xee, 0xe9, 0xfc, 0x03, 0xed, 0xfd,
  0xfc, 0xf5, 0xee, 0xf2, 0x05, 0xfd, 0xfd, 0x02, 0x02, 0x04, 0xfa, 0xf4,
  0x03, 0xfb, 0x00, 0xf6, 0x02, 0xf2, 0xf4, 0x00, 0xfd, 0xfe, 0xf3, 0xfd,
  0xf6, 0xf2, 0xfe, 0xf4, 0xfa, 0xf7, 0x01, 0xf4, 0x08, 0x01, 0xf4, 0xf8,
  0xf0, 0xfc, 0xfe, 0x03, 0x07, 0xf2, 0x01, 0xee, 0x04, 0xf7, 0x06, 0xfd,
  0xfb, 0xf5, 0xf2, 0xfa, 0xe8, 0x00, 0xf5, 0x04, 0xee, 0xf3, 0xff, 0x01,
  0xea, 0xf9, 0xf9, 0xfc, 0xf3, 0x00, 0xfb, 0xf6, 0xf3, 0xfb, 0xfe, 0x02,
  0x07, 0x04, 0x02, 0xf8, 0xf0, 0x00, 0xfd, 0xf8, 0xf4, 0xf6, 0x07, 0xf1,
  0xee, 0xfb, 0xf1, 0xfd, 0xf5, 0x03, 0xff, 0xf6, 0x01, 0xfa, 0xeb, 0xfe,
  0xf6, 0xf0, 0x00, 0xfa, 0xf0, 0xfc, 0xff, 0xfb, 0xea, 0xff, 0x0a, 0xf7,
  0xf1, 0xf6, 0xef, 0x00, 0x01, 0xff, 0x04, 0xf2, 0x02, 0xeb, 0xfc, 0xef,
  0xee, 0x02, 0xfa, 0xeb, 0x00, 0xfe, 0xec, 0xf7, 0xfb, 0xf0, 0xf4, 0xf7,
  0xfd, 0x02, 0xf9, 0xf5, 0xfa, 0x01, 0xf8, 0x04, 0x0a, 0x0e, 0x00, 0xf8,
  0xfd, 0x02, 0xfa, 0x04, 0x07, 0xff, 0xf2, 0xf5, 0xf9, 0xfb, 0xf3, 0xf4,
  0xf6, 0xea, 0xf7, 0xf3, 0xf4, 0xef, 0xf1, 0xf1, 0x02, 0xf0, 0x03, 0xfa,
  0xf0, 0xf1, 0xf9, 0xf7, 0xf1, 0xf5, 0xf4, 0xf3, 0xf8, 0x06, 0xf8, 0xf3,
  0xf2, 0xec, 0xfb, 0xf9, 0xf6, 0x00, 0xfa, 0xfd, 0xfd, 0x03, 0xf9, 0xfb,
  0xf5, 0xf3, 0xf7, 0x02, 0xed, 0xff, 0x06, 0xf4, 0x01, 0x03, 0xf6, 0xfc,
  0x01, 0xf5, 0xfb, 0xfb, 0xfe, 0xf9, 0x0d, 0xfe, 0x02, 0xf7, 0xed, 0xf6,
  0xef, 0xf7, 0xfc, 0x06, 0xf2, 0xf2, 0xf2, 0xef, 0xf6, 0x00, 0xf7, 0xfe,
  0xf4, 0xf4, 0xf2, 0xff, 0xfb, 0x01, 0xfc, 0xf8, 0xf2, 0xfc, 0xf9, 0xfe,
  0xf7, 0xf2, 0xfe, 0xfc, 0xfb, 0xf9, 0xf9, 0xf1, 0xff, 0xf1, 0xf5, 0xfe,
  0xfa, 0xf9, 0xec, 0xf7, 0xfa, 0xf9, 0xed, 0xfa, 0xf3, 0xfc, 0xf6, 0xf6,
  0x0b, 0xfb, 0x04, 0xfd, 0x05, 0x09, 0x02, 0xee, 0x04, 0xf7, 0xef, 0x06,
  0xf9, 0xff, 0xf4, 0xf1, 0xf4, 0xf8, 0x03, 0xf0, 0x01, 0xfd, 0xee, 0xee,
  0xea, 0xff, 0x04, 0x00, 0x00, 0xfd, 0xf6, 0x06, 0xff, 0xfc, 0xf0, 0x01,
  0xfc, 0xff, 0xfa, 0xf0, 0xf9, 0xf4, 0x02, 0xf3, 0x07, 0xff, 0xfb, 0xf0,
  0xef, 0xfa, 0x06, 0xf1, 0x02, 0xfa, 0xf5, 0x06, 0xef, 0xf0, 0xf0, 0x03,
  0xf6, 0xee, 0xf6, 0xff, 0x06, 0x02, 0xf0, 0x02, 0xec, 0xef, 0xfe, 0xe6,
  0xdf, 0x02, 0xe9, 0xe6, 0xe3, 0x0a, 0x08, 0x12, 0x03, 0xf1, 0xff, 0x0e,
  0xfb, 0xf9, 0xf3, 0xff, 0x01, 0xf2, 0x15, 0xfc, 0xf4, 0xe3, 0xee, 0xf5,
  0x02, 0xeb, 0xfb, 0x08, 0xd5, 0xe9, 0xef, 0xfd, 0xe4, 0xe4, 0xd3, 0xe1,
  0xf2, 0x09, 0x13, 0xcf, 0x06, 0xf0, 0x00, 0x07, 0xee, 0x09, 0xea, 0x07,
  0x06, 0xd7, 0x0b, 0xf4, 0xe4, 0xf0, 0xee, 0xe2, 0x13, 0x03, 0xee, 0x04,
  0xe2, 0xf8, 0xec, 0xef, 0xe1, 0xe6, 0x03, 0xfb, 0xf3, 0x13, 0x0f, 0xd7,
  0xf7, 0x04, 0x0f, 0xf5, 0x06, 0xf8, 0xf2, 0x02, 0xfa, 0xd0, 0x07, 0xe9,
  0x02, 0xe3, 0xe7, 0xe3, 0x1a, 0xfc, 0x00, 0x13, 0xf9, 0x24, 0xf5, 0xfd,
  0xe4, 0xdf, 0x0a, 0xfb, 0x0e, 0x03, 0x07, 0xea, 0x01, 0x0a, 0x00, 0xec,
  0x08, 0x06, 0xfe, 0xf8, 0xf4, 0xe4, 0x0e, 0xeb, 0x0e, 0x08, 0xe9, 0xfe,
  0x03, 0xf8, 0xff, 0xf8, 0x01, 0x06, 0xf5, 0x00, 0xf7, 0x06, 0x0b, 0x0a,
  0x06, 0x12, 0x07, 0xfb, 0xfe, 0x12, 0x0d, 0xf3, 0x03, 0x13, 0xef, 0xf7,
  0x02, 0xef, 0x12, 0x02, 0xf6, 0x1c, 0xf7, 0x15, 0x12, 0x09, 0xf9, 0xdc,
  0xe1, 0x01, 0xf0, 0xfc, 0xdb, 0xf8, 0x06, 0xcb, 0x08, 0x0e, 0x05, 0x00,
  0x03, 0xed, 0xe8, 0xff, 0xfd, 0x0a, 0xf9, 0x03, 0xe8, 0x0f, 0xe4, 0x01,
  0xd2, 0xfb, 0xf6, 0xfb, 0x02, 0x14, 0xfb, 0xd5, 0xee, 0x07, 0xef, 0xff,
  0xd9, 0xea, 0xf0, 0xcc, 0x09, 0x10, 0x07, 0xe3, 0xe8, 0xe9, 0xe9, 0xf9,
  0xed, 0x0f, 0x0c, 0x0a, 0x06, 0x07, 0xfd, 0x12, 0xf1, 0x08, 0xee, 0x02,
  0x10, 0x22, 0x05, 0xe8, 0xe2, 0x11, 0xf0, 0xfb, 0xe7, 0xf1, 0xf3, 0xf6,
  0xf3, 0x11, 0xef, 0xf6, 0xe4, 0xed, 0xf4, 0xf2, 0xf4, 0x0b, 0x03, 0xf9,
  0x06, 0xf6, 0x02, 0x1a, 0x02, 0xf2, 0xef, 0x08, 0x08, 0xf6, 0x02, 0xf8,
  0xef, 0xea, 0xef, 0x06, 0xf2, 0xed, 0x1e, 0x05, 0xf1, 0x07, 0x02, 0xf0,
  0xeb, 0x01, 0xfa, 0xf4, 0x03, 0x05, 0x03, 0x04, 0x02, 0xe9, 0xff, 0x24,
  0x12, 0xf9, 0xe6, 0x03, 0x19, 0x03, 0x15, 0xfa, 0xf7, 0xf3, 0xf7, 0x16,
  0x02, 0x08, 0x0b, 0x00, 0xff, 0xeb, 0x13, 0xf4, 0xf7, 0x0f, 0xf9, 0xff,
  0x18, 0xf7, 0xed, 0xee, 0xf1, 0xf2, 0x0e, 0x06, 0x11, 0xfc, 0xf9, 0x0f,
  0x09, 0x04, 0x0b, 0xf8, 0x0a, 0x02, 0x1d, 0x02, 0x08, 0x23, 0xf1, 0xd9,
  0xfd, 0xfe, 0xff, 0xec, 0x00, 0x0f, 0xf7, 0x0c, 0xfd, 0x0a, 0x14, 0xfd,
  0xe4, 0x19, 0xeb, 0x19, 0xd7, 0xf5, 0xbd, 0xfd, 0x06, 0x06, 0xfa, 0xf6,
  0x2b, 0x15, 0x23, 0x0a, 0x07, 0x24, 0x03, 0xf0, 0x0a, 0xfa, 0xf4, 0xe6,
  0xeb, 0x0a, 0xfd, 0x04, 0xf8, 0xf3, 0x13, 0xf1, 0xd5, 0x08, 0xf8, 0x23,
  0xd9, 0xf4, 0xcb, 0x08, 0x0b, 0xdd, 0xff, 0xed, 0x11, 0xfc, 0x1c, 0x02,
  0xfc, 0x26, 0x0f, 0xec, 0xff, 0xf2, 0x04, 0x02, 0xfc, 0x0e, 0xf8, 0x04,
  0xee, 0xfc, 0x1e, 0xf2, 0xf6, 0x11, 0xf0, 0x1c, 0xd9, 0xf6, 0xe4, 0x11,
  0xe9, 0xde, 0x19, 0xf2, 0xeb, 0xf0, 0x07, 0x01, 0xd7, 0x02, 0x0a, 0xf8,
  0xe4, 0x0a, 0x0f, 0xf9, 0x0a, 0x14, 0x04, 0xf1, 0x01, 0x02, 0x01, 0xf9,
  0x12, 0xfd, 0xfd, 0x18, 0x10, 0xfd, 0x04, 0xf6, 0x01, 0xfd, 0x24, 0x08,
  0x03, 0xf8, 0xfd, 0x1c, 0xff, 0xfd, 0xe8, 0xfa, 0xed, 0x06, 0x12, 0xf4,
  0xee, 0x28, 0x04, 0x0d, 0x02, 0xf7, 0xdf, 0x03, 0x09, 0xef, 0x01, 0xf7,
  0x01, 0xf8, 0x08, 0xf7, 0xfe, 0xf0, 0x15, 0x21, 0x12, 0xed, 0x0b, 0x0d,
  0x1b, 0x0f, 0xfc, 0x08, 0xe6, 0x0d, 0xef, 0xd3, 0x06, 0x0b, 0x0f, 0x20,
  0xf9, 0xff, 0xfe, 0x02, 0xe4, 0xf8, 0xf6, 0x09, 0xf1, 0xea, 0xc2, 0xe6,
  0x00, 0xf3, 0x10, 0x2c, 0x0a, 0xfd, 0xf9, 0x18, 0x1c, 0x05, 0x07, 0x05,
  0x0b, 0xf7, 0xfa, 0xba, 0x08, 0x12, 0x05, 0x0e, 0xec, 0x0f, 0xfe, 0x07,
  0xe9, 0xdb, 0x07, 0xfb, 0x00, 0xf3, 0xd5, 0xf2, 0x0b, 0xe8, 0x0e, 0x14,
  0x12, 0xfe, 0xfe, 0x22, 0x14, 0x11, 0x02, 0xe2, 0x08, 0xf8, 0x00, 0xe9,
  0x0b, 0x0d, 0x02, 0x1c, 0xe9, 0xfe, 0xfb, 0x0a, 0xf3, 0xfe, 0xf8, 0x00,
  0x05, 0x05, 0xe2, 0x00, 0xe3, 0xe0, 0x05, 0xf3, 0x0d, 0xf8, 0xfd, 0x10,
  0x16, 0x01, 0x0c, 0xfa, 0xf6, 0xe8, 0x0a, 0xfe, 0xff, 0xfb, 0xff, 0xfd,
  0xe7, 0x0f, 0xfd, 0x06, 0x00, 0xff, 0xf8, 0xe6, 0x07, 0x06, 0x01, 0x02,
  0xd0, 0x03, 0x00, 0x15, 0x16, 0xfb, 0x07, 0x05, 0x3f, 0xf3, 0xf4, 0x0e,
  0xee, 0xe7, 0x0c, 0xed, 0xf1, 0xfa, 0x09, 0xff, 0xe4, 0xfa, 0xed, 0x07,
  0xfa, 0x07, 0xf1, 0xd7, 0x10, 0xf5, 0x00, 0xf6, 0x09, 0x04, 0xfd, 0x0c,
  0x0f, 0xf7, 0x08, 0xfe, 0x07, 0x06, 0xf6, 0x0b, 0xf8, 0xf9, 0xf9, 0xfb,
  0x04, 0x05, 0x1f, 0x01, 0x07, 0xfa, 0x04, 0x00, 0x07, 0xf4, 0xfc, 0x09,
  0x0f, 0xf8, 0x03, 0x02, 0x10, 0x08, 0x07, 0x0d, 0xf1, 0xfa, 0x02, 0x03,
  0xf6, 0x07, 0xd3, 0xf7, 0x10, 0x11, 0x07, 0xf8, 0xe9, 0x02, 0x1a, 0x03,
  0xff, 0x0c, 0x05, 0x11, 0xfa, 0x04, 0xf2, 0x22, 0x05, 0x01, 0x00, 0xf5,
  0x0e, 0x0e, 0xed, 0xf9, 0xe9, 0xf5, 0xf4, 0x05, 0xf2, 0xf9, 0xdf, 0x09,
  0x06, 0x13, 0x10, 0x00, 0xe8, 0x0a, 0x0c, 0xf3, 0xfb, 0x20, 0x07, 0x1a,
  0xf2, 0x03, 0xfb, 0x0e, 0xf1, 0x1e, 0x03, 0xf7, 0xf4, 0x1a, 0xd8, 0xfb,
  0xf4, 0x1a, 0xfc, 0x02, 0xe9, 0xf4, 0x09, 0x13, 0x19, 0xe8, 0x0f, 0x01,
  0xf6, 0xf1, 0xfd, 0xf0, 0xf8, 0x09, 0x07, 0x0c, 0x01, 0xfd, 0xe6, 0x02,
  0xec, 0x12, 0x0e, 0x01, 0xea, 0x14, 0xd8, 0x2e, 0x18, 0x23, 0x13, 0xeb,
  0x2c, 0xfa, 0x1f, 0x21, 0x06, 0xe2, 0x01, 0xfa, 0xf9, 0xe2, 0xfd, 0xfa,
  0xf3, 0xff, 0xfb, 0xfd, 0xfc, 0x0c, 0xf0, 0xeb, 0xf8, 0x08, 0x0a, 0x1b,
  0x05, 0x02, 0x14, 0x0d, 0xf5, 0xf2, 0xfe, 0x0d, 0x0d, 0xf9, 0x04, 0x16,
  0xe7, 0xfd, 0x05, 0x04, 0x09, 0x04, 0x00, 0x03, 0x09, 0xf3, 0xfe, 0xf9,
  0x02, 0xe5, 0x06, 0xfc, 0x0e, 0x05, 0xf4, 0xe9, 0x0d, 0x13, 0x13, 0x03,
  0xfd, 0x01, 0x09, 0xf5, 0x06, 0xff, 0x0d, 0x0d, 0xfe, 0x05, 0xfd, 0xf6,
  0xfc, 0x10, 0x02, 0x0f, 0x01, 0xef, 0xe0, 0xfe, 0x0f, 0xfa, 0x02, 0xfa,
  0x07, 0x09, 0xef, 0x02, 0x0f, 0x1b, 0x10, 0x0c, 0xf9, 0x0b, 0xff, 0xfb,
  0x18, 0xf9, 0x00, 0xfb, 0x02, 0x17, 0x0b, 0xe9, 0xf2, 0x0b, 0x03, 0xf3,
  0xfe, 0x0c, 0xeb, 0xff, 0x07, 0xf2, 0x0f, 0x00, 0x0a, 0x14, 0xeb, 0x02,
  0xf9, 0x1b, 0x0c, 0x01, 0x0f, 0x20, 0x00, 0xf0, 0x03, 0xf8, 0xff, 0x06,
  0x06, 0x23, 0x0c, 0x04, 0xed, 0x06, 0x00, 0xf8, 0xfe, 0x0a, 0x01, 0xff,
  0x00, 0xfe, 0x0b, 0x03, 0xff, 0x19, 0x01, 0x06, 0x0b, 0x02, 0x03, 0x04,
  0x10, 0x18, 0x0a, 0xf5, 0x05, 0x04, 0x01, 0x0a, 0xfe, 0x22, 0x04, 0x05,
  0xf6, 0x16, 0x0b, 0x02, 0x07, 0x06, 0xf5, 0x08, 0x00, 0x05, 0x12, 0x06,
  0xf1, 0x14, 0xf4, 0x12, 0x05, 0xfd, 0x0d, 0xfa, 0xff, 0x01, 0x07, 0xfb,
  0x05, 0xfd, 0x01, 0x00, 0xff, 0xf0, 0x0d, 0xf4, 0x17, 0xf3, 0x07, 0x04,
  0x00, 0xfd, 0xfc, 0xfb, 0x0d, 0xf0, 0xff, 0x05, 0xfb, 0xff, 0x0c, 0xf5,
  0x05, 0x18, 0x0b, 0xfb, 0x0e, 0x03, 0x05, 0xf7, 0x02, 0x0a, 0x0c, 0x07,
  0xfe, 0x0f, 0xf6, 0x06, 0x03, 0x0a, 0x07, 0x03, 0x00, 0xf3, 0xfe, 0x00,
  0x04, 0x07, 0x07, 0x0e, 0xf8, 0x07, 0x05, 0x0b, 0x07, 0x1c, 0x08, 0xfe,
  0x08, 0x0e, 0x0d, 0x03, 0x08, 0x09, 0x05, 0xf3, 0x11, 0x0e, 0xf2, 0xf4,
  0xf3, 0x02, 0xf7, 0x06, 0x04, 0xf3, 0xfd, 0x02, 0x09, 0xfd, 0x06, 0x14,
  0x01, 0x0b, 0xfe, 0x16, 0xeb, 0x0f, 0x0d, 0xed, 0xf5, 0x1c, 0xfd, 0x0d,
  0x0f, 0xf9, 0xf8, 0xfe, 0x0d, 0x14, 0xf9, 0xf9, 0xee, 0x00, 0x09, 0xf9,
  0x05, 0x01, 0x03, 0xf1, 0xf0, 0x0c, 0x0d, 0x13, 0x00, 0x05, 0xf0, 0x1b,
  0x11, 0xfe, 0xf6, 0xe2, 0x01, 0x19, 0x04, 0x0f, 0x0f, 0xf6, 0x01, 0xf4,
  0x1b, 0x2c, 0x00, 0x02, 0x07, 0x0a, 0xfa, 0xfa, 0x07, 0x11, 0x14, 0x10,
  0x05, 0x13, 0x04, 0x10, 0xfb, 0x27, 0x0b, 0x15, 0xfe, 0x06, 0x0f, 0x0f,
  0xf4, 0xf7, 0xf9, 0x00, 0x16, 0xfc, 0x00, 0xbf, 0xf0, 0x08, 0x14, 0x06,
  0x12, 0x09, 0x05, 0x06, 0x02, 0xf5, 0xfd, 0xfc, 0xf4, 0xff, 0xf2, 0x00,
  0xfa, 0xeb, 0x10, 0x00, 0x08, 0xf5, 0x04, 0x09, 0x0c, 0xfc, 0x0e, 0x07,
  0x19, 0x1d, 0x0c, 0xdc, 0xff, 0x10, 0x17, 0x1b, 0x07, 0x11, 0x0a, 0x14,
  0xff, 0x07, 0xfd, 0x05, 0x0a, 0x08, 0x03, 0x0c, 0x04, 0xf4, 0xfa, 0xff,
  0xea, 0xfd, 0x06, 0x07, 0x03, 0xfe, 0x0b, 0x06, 0x0f, 0x07, 0xf0, 0xd6,
  0x0b, 0xfb, 0x13, 0x08, 0xfe, 0xfe, 0x15, 0x11, 0x0c, 0xfb, 0xff, 0x08,
  0x00, 0x06, 0x05, 0x03, 0x02, 0xf6, 0xf7, 0x03, 0x0a, 0xec, 0x0b, 0xfc,
  0xee, 0xfa, 0xfe, 0xf7, 0x00, 0xf4, 0xdf, 0xd0, 0x02, 0x01, 0x0e, 0xf2,
  0x16, 0x05, 0x19, 0xf8, 0x1a, 0x05, 0xf7, 0xf8, 0xf8, 0xff, 0x11, 0x00,
  0xf4, 0xed, 0x04, 0x0b, 0x2f, 0xd6, 0x37, 0xf2, 0xfe, 0x0c, 0xf9, 0x02,
  0xfc, 0x0c, 0x32, 0xe8, 0xf1, 0x21, 0x10, 0x07, 0x13, 0x37, 0x05, 0xf6,
  0x05, 0x1a, 0x11, 0xfe, 0xfa, 0x11, 0x1d, 0x0b, 0xfb, 0x0b, 0x03, 0x0d,
  0xfb, 0x07, 0xf9, 0xf8, 0xed, 0x06, 0xe1, 0xf8, 0xfb, 0xf4, 0x02, 0xc8,
  0x00, 0x0f, 0x17, 0x05, 0x08, 0xfa, 0xf4, 0xf8, 0x1b, 0xfb, 0x08, 0x19,
  0xf1, 0x05, 0xe3, 0xe7, 0x05, 0xe6, 0x01, 0xf2, 0x0a, 0xf7, 0xff, 0xf8,
  0xf4, 0x07, 0xea, 0x09, 0x13, 0x08, 0x08, 0xd8, 0x00, 0x18, 0x14, 0xee,
  0x09, 0xf2, 0x05, 0x06, 0x18, 0x17, 0x0a, 0x23, 0x0f, 0xff, 0xf3, 0x01,
  0x0b, 0xf4, 0xf0, 0xed, 0x09, 0xe8, 0xf3, 0xe8, 0x00, 0xff, 0xee, 0x05,
  0x02, 0xf6, 0xe3, 0xcc, 0x09, 0xfa, 0xfd, 0x09, 0x06, 0xfa, 0xf7, 0xfd,
  0x03, 0x07, 0x09, 0x0f, 0xff, 0x00, 0x19, 0xf1, 0xf4, 0xf1, 0x03, 0xfb,
  0x06, 0xfa, 0xe9, 0xc5, 0x03, 0x1d, 0xf9, 0x0d, 0x0e, 0xf9, 0xe4, 0xd4,
  0x0c, 0xef, 0xef, 0xf9, 0x15, 0xfc, 0xee, 0xfb, 0xf4, 0xfc, 0x03, 0xf1,
  0xf1, 0x00, 0x0f, 0xf3, 0xda, 0xf2, 0xfd, 0x08, 0x02, 0xf6, 0x2c, 0xfa,
  0x1b, 0x32, 0xf5, 0x0f, 0x2b, 0x11, 0xf4, 0xe0, 0x0c, 0xf1, 0xec, 0xff,
  0x08, 0x1b, 0xf7, 0x11, 0xf0, 0xeb, 0xff, 0xd3, 0xe5, 0x2b, 0x29, 0x0c,
  0xee, 0xe8, 0xfa, 0x0f, 0xfd, 0x0a, 0xe6, 0xe9, 0xef, 0xf8, 0xc7, 0xfd,
  0xf0, 0xe6, 0x01, 0xa3, 0xfa, 0xfa, 0xe7, 0x10, 0xfa, 0xfb, 0x97, 0xe4,
  0xf4, 0x01, 0x01, 0xf8, 0x11, 0x08, 0xa2, 0xc9, 0xf5, 0x02, 0x1e, 0xec,
  0x0d, 0x1e, 0xf7, 0xe7, 0xf6, 0x1a, 0xe8, 0xf8, 0x02, 0x05, 0xf6, 0x91,
  0xfc, 0x01, 0xd4, 0xf5, 0x04, 0xee, 0x8c, 0xf5, 0xf4, 0xf3, 0x03, 0xf3,
  0xf9, 0x03, 0xdf, 0xd9, 0x05, 0xff, 0x19, 0xf4, 0x08, 0x20, 0xf2, 0xcc,
  0xfb, 0x3b, 0xd2, 0x01, 0xff, 0xf5, 0xe1, 0xb5, 0x1f, 0xef, 0xdb, 0xf6,
  0xfe, 0xfe, 0x9c, 0xfc, 0xfd, 0xfc, 0x0e, 0xef, 0x02, 0x1d, 0x0c, 0xe5,
  0x02, 0xf4, 0x03, 0xfd, 0x0b, 0x12, 0xed, 0xcc, 0x13, 0x45, 0xe6, 0x04,
  0xf2, 0xfa, 0x22, 0xce, 0x0f, 0xce, 0xf7, 0x08, 0xfb, 0x02, 0xbb, 0xf7,
  0xe7, 0x02, 0x15, 0xe3, 0x06, 0x0c, 0xf9, 0xe8, 0xff, 0xf5, 0x07, 0x10,
  0xf7, 0xfd, 0x1d, 0x04, 0x1f, 0x1d, 0xf9, 0xf9, 0x24, 0xfe, 0x18, 0xe1,
  0xfb, 0xda, 0xcd, 0x0d, 0xf8, 0x22, 0xc8, 0x08, 0xd1, 0xdf, 0xf9, 0xa7,
  0xf2, 0x23, 0x1d, 0xe8, 0xe5, 0xe0, 0xf2, 0x0f, 0x02, 0x13, 0x03, 0xec,
  0x1a, 0x1c, 0x09, 0x1b, 0x00, 0x15, 0xf9, 0xf1, 0x18, 0x13, 0x14, 0x04,
  0x0f, 0x07, 0xfd, 0x0f, 0xf9, 0x31, 0x26, 0x12, 0x10, 0x05, 0x19, 0x0d,
  0x01, 0x05, 0x1b, 0x21, 0xfc, 0x0e, 0xf9, 0xf5, 0x07, 0x14, 0x04, 0x13,
  0x08, 0x0b, 0xfb, 0xe8, 0x0b, 0xfe, 0x16, 0x10, 0x19, 0x01, 0xf9, 0xf6,
  0xf0, 0x19, 0x2b, 0x04, 0x02, 0x07, 0x02, 0x19, 0x0a, 0x03, 0x08, 0x1f,
  0x08, 0x32, 0x17, 0x04, 0xf7, 0xfc, 0x04, 0x0f, 0x04, 0x00, 0x05, 0xff,
  0xfa, 0xff, 0xfc, 0x39, 0x0c, 0xfe, 0xf7, 0xf0, 0x0e, 0x0c, 0x1b, 0xfe,
  0x0b, 0x0d, 0xf9, 0x2d, 0x0e, 0x02, 0x19, 0x18, 0x1a, 0x23, 0x17, 0xf5,
  0xf5, 0x06, 0x03, 0x06, 0xee, 0x02, 0x01, 0x13, 0x04, 0x08, 0xfd, 0x20,
  0x0a, 0x09, 0xfd, 0x02, 0x13, 0x13, 0x15, 0x05, 0x06, 0x03, 0x05, 0x1c,
  0x18, 0x0c, 0x07, 0x0f, 0x1e, 0x1d, 0x1d, 0xed, 0xf1, 0xf7, 0xfc, 0xf9,
  0x0e, 0xf9, 0x0d, 0x04, 0x04, 0x08, 0xfb, 0x0e, 0x11, 0x00, 0xfd, 0x0c,
  0x0f, 0x10, 0x20, 0x01, 0x0d, 0x03, 0x12, 0x0c, 0x10, 0x10, 0x02, 0xf7,
  0xf3, 0xfc, 0xf8, 0xef, 0x12, 0x0b, 0x03, 0xfa, 0x07, 0x1f, 0x0b, 0xdd,
  0xfe, 0xeb, 0xf0, 0x02, 0x07, 0x07, 0xd9, 0xf9, 0xf1, 0xfc, 0x18, 0xea,
  0xf0, 0x28, 0xef, 0x20, 0x04, 0xee, 0xfa, 0x03, 0xed, 0x00, 0xf1, 0x00,
  0x18, 0x0b, 0x03, 0x0a, 0x0a, 0xfe, 0x16, 0xe6, 0xfb, 0xee, 0x0b, 0xee,
  0xff, 0xf3, 0xe4, 0xeb, 0xfb, 0x01, 0x18, 0xf2, 0xcb, 0x02, 0xe9, 0x1c,
  0xf9, 0xe7, 0xc5, 0x10, 0xf0, 0xef, 0xfb, 0xf6, 0x0c, 0x02, 0xfe, 0x0f,
  0x06, 0x11, 0x0b, 0xe5, 0x01, 0xcf, 0x12, 0x15, 0x0c, 0xf1, 0xeb, 0xe3,
  0xf6, 0xfc, 0x22, 0xfb, 0xe2, 0xf9, 0xd5, 0x15, 0xe2, 0xea, 0xf4, 0x0b,
  0xee, 0xe8, 0x12, 0xe7, 0xe8, 0xe9, 0x09, 0xfe, 0xf8, 0x0a, 0xde, 0xe3,
  0xed, 0xd7, 0x07, 0x19, 0x1a, 0xee, 0xe2, 0xf8, 0x09, 0x09, 0x11, 0x04,
  0xfb, 0xf9, 0xd6, 0x23, 0xf7, 0xec, 0x0a, 0xf5, 0x18, 0xfb, 0x16, 0xe9,
  0xdf, 0xce, 0xfd, 0x04, 0x08, 0x07, 0xfd, 0xf1, 0xf4, 0x03, 0x0f, 0x14,
  0x18, 0x08, 0xda, 0x1b, 0xf9, 0x0b, 0x0a, 0x1f, 0x07, 0xfa, 0xf6, 0x1b,
  0xf8, 0xf6, 0x10, 0xed, 0xde, 0xf6, 0x06, 0x2a, 0x0b, 0xea, 0x02, 0x14,
  0x2a, 0x12, 0x18, 0x20, 0xf6, 0xf3, 0xf1, 0xd2, 0xf0, 0x21, 0xf7, 0x16,
  0xee, 0xe5, 0xe3, 0xee, 0xe1, 0xe4, 0xfd, 0xfb, 0x04, 0xcc, 0xac, 0xe7,
  0xf0, 0xf3, 0x06, 0x26, 0x18, 0x00, 0x02, 0x14, 0x1c, 0x13, 0x25, 0x1d,
  0x02, 0xf2, 0xef, 0xbe, 0x01, 0x27, 0x00, 0x04, 0x0a, 0xfc, 0xf3, 0xfb,
  0xed, 0xdd, 0xe2, 0xfa, 0xf4, 0x06, 0xd5, 0xfa, 0xf7, 0xe0, 0x01, 0x1c,
  0x19, 0x0e, 0x0e, 0x05, 0x1b, 0x22, 0x0d, 0xf7, 0x02, 0xe6, 0xfb, 0xf5,
  0x0d, 0x26, 0xe7, 0x03, 0xfb, 0x10, 0x0b, 0xf9, 0xfd, 0x0a, 0xe0, 0xfc,
  0xfc, 0x03, 0xf4, 0x04, 0xec, 0xe0, 0x0e, 0xe9, 0x13, 0x0b, 0x08, 0x08,
  0x0d, 0x17, 0xe4, 0xec, 0x00, 0xe3, 0x05, 0x03, 0x14, 0x05, 0xf7, 0xff,
  0xdf, 0xfe, 0x07, 0xff, 0x11, 0x1e, 0xe4, 0xf6, 0xfd, 0xf2, 0xf9, 0x00,
  0xe8, 0xf3, 0x08, 0xfc, 0x20, 0xf6, 0x01, 0xfd, 0x06, 0x1f, 0xe2, 0xf5,
  0xe9, 0xd4, 0x0e, 0x04, 0x02, 0xdd, 0xef, 0x05, 0xd0, 0xf9, 0xff, 0x05,
  0xf0, 0x19, 0xe6, 0x06, 0xf0, 0xf8, 0x0a, 0xf4, 0x00, 0xed, 0x09, 0x14,
  0xe5, 0xf0, 0xfd, 0xfe, 0x01, 0xe8, 0xf6, 0x07, 0xf9, 0xff, 0xef, 0xcd,
  0xed, 0x02, 0x12, 0xf5, 0xf3, 0xff, 0xe8, 0xfe, 0xf2, 0xd9, 0x14, 0xfa,
  0x05, 0x09, 0xc6, 0xe3, 0x10, 0xf7, 0x03, 0x12, 0xd4, 0xf5, 0xea, 0xf6,
  0x0b, 0xe8, 0xfd, 0x1b, 0xf4, 0x02, 0xfc, 0xf7, 0xf9, 0x0f, 0x07, 0xf7,
  0x01, 0xf7, 0xf1, 0x18, 0x02, 0xe3, 0xfc, 0xf8, 0x17, 0x09, 0xf3, 0xe9,
  0x00, 0x13, 0xea, 0x1c, 0xe6, 0xfb, 0xe6, 0x06, 0xfd, 0xf4, 0x0a, 0x0f,
  0x0e, 0x01, 0xfd, 0x00, 0xe3, 0x02, 0x04, 0x02, 0xf6, 0xf7, 0xf2, 0x0f,
  0xf3, 0xe6, 0xf8, 0xfa, 0x13, 0x03, 0xee, 0xfb, 0x03, 0x1d, 0xeb, 0x0e,
  0xfb, 0x0f, 0xfc, 0x0f, 0xec, 0xf8, 0x23, 0x2a, 0x0c, 0xf1, 0x03, 0x09,
  0xea, 0x03, 0xf1, 0xfd, 0x09, 0xfd, 0xf6, 0xff, 0xf5, 0x08, 0xf7, 0xec,
  0x06, 0x02, 0x00, 0x03, 0x0e, 0x1e, 0xbf, 0x01, 0xe7, 0x00, 0x01, 0x02,
  0xd5, 0xfd, 0x0c, 0x0f, 0x1c, 0xd5, 0x02, 0x01, 0xe5, 0xec, 0x00, 0xfc,
  0xfb, 0x00, 0xea, 0x10, 0xf0, 0x03, 0xef, 0xfd, 0xfe, 0x03, 0x01, 0x0a,
  0xfd, 0xff, 0xfc, 0xff, 0x00, 0x03, 0xf0, 0xf9, 0x0c, 0x04, 0xf3, 0xf4,
  0xef, 0xf9, 0xf0, 0x00, 0xee, 0x11, 0xea, 0x00, 0xd8, 0x03, 0xe8, 0xf3,
  0xf8, 0xf6, 0x0e, 0xec, 0xde, 0xfe, 0xec, 0xf9, 0x04, 0xf9, 0x02, 0xf1,
  0x06, 0xf7, 0xfd, 0x09, 0xf9, 0x00, 0x06, 0x05, 0xf5, 0xfa, 0x0a, 0x0b,
  0xff, 0x13, 0xfc, 0xfa, 0xf2, 0x08, 0xee, 0xf8, 0x03, 0xf5, 0x04, 0x03,
  0x04, 0x0c, 0xe8, 0xf5, 0xff, 0xf9, 0x17, 0xf8, 0xf2, 0xe3, 0x02, 0x04,
  0xef, 0xfa, 0x03, 0x06, 0xe9, 0x04, 0x16, 0xfb, 0xf1, 0x23, 0x15, 0xec,
  0xe2, 0x0a, 0xec, 0xf9, 0x16, 0xe9, 0x0c, 0x15, 0x02, 0x0f, 0xef, 0xee,
  0x03, 0xf7, 0x12, 0xfc, 0xc4, 0xde, 0xfb, 0xfe, 0xe1, 0xf1, 0x13, 0xf1,
  0x00, 0xf3, 0x19, 0x03, 0xea, 0x14, 0x1c, 0xf4, 0xed, 0x14, 0xe8, 0x0d,
  0x0a, 0xe9, 0x0d, 0x0f, 0x1a, 0x17, 0xf9, 0xf6, 0x0b, 0xf6, 0xf7, 0xea,
  0xbc, 0xe6, 0xf5, 0x11, 0xcc, 0xd8, 0x13, 0xfb, 0xfe, 0x09, 0x3b, 0x03,
  0x07, 0x05, 0x11, 0xe1, 0x1c, 0x1c, 0xf1, 0x41, 0x1a, 0xe7, 0xf7, 0x08,
  0x11, 0x1f, 0xfb, 0xfa, 0xe9, 0xfa, 0xff, 0x10, 0xf0, 0xe6, 0xf6, 0xf2,
  0xdc, 0xf6, 0xee, 0xe0, 0xdb, 0xdc, 0x05, 0x01, 0xf9, 0xea, 0xf7, 0x04,
  0xe8, 0xe2, 0xeb, 0xed, 0xd9, 0xfd, 0xf4, 0x12, 0xde, 0xf3, 0xe8, 0xec,
  0xfe, 0xf1, 0xcd, 0x12, 0x10, 0xf1, 0xf9, 0xfa, 0xe6, 0xef, 0xe9, 0xec,
  0xed, 0xf1, 0xff, 0xee, 0x11, 0xde, 0xfe, 0xf1, 0x03, 0xd3, 0xf6, 0xfc,
  0xe3, 0xe4, 0x0b, 0x04, 0xf2, 0xdf, 0xe4, 0xf9, 0x09, 0xf2, 0x01, 0x07,
  0x17, 0x06, 0x0a, 0xf1, 0xee, 0x13, 0x07, 0x05, 0x0c, 0x0a, 0x00, 0x0f,
  0x03, 0xf6, 0x17, 0x06, 0x0d, 0xfe, 0xf8, 0x05, 0x20, 0xfe, 0x12, 0x0c,
  0xf3, 0x0a, 0xff, 0xf9, 0x12, 0xf2, 0xfb, 0x0d, 0x1c, 0x0a, 0x17, 0xf1,
  0x01, 0x17, 0x02, 0x0c, 0x0d, 0xff, 0xf9, 0xf6, 0x03, 0x1b, 0x0d, 0x04,
  0x10, 0xff, 0xef, 0x0e, 0x0b, 0x04, 0x0e, 0x08, 0x0c, 0x0b, 0xf4, 0xf9,
  0xeb, 0xf7, 0xfa, 0x10, 0x0a, 0xfa, 0x0a, 0x00, 0x0a, 0x04, 0x0e, 0x02,
  0xf8, 0xec, 0xf1, 0xfb, 0x05, 0x0c, 0x0c, 0xfd, 0xf6, 0xec, 0xf7, 0xf2,
  0xe0, 0xfa, 0x02, 0x03, 0xef, 0xed, 0xf3, 0xfb, 0xf8, 0xf2, 0xeb, 0x07,
  0x08, 0xf3, 0xf3, 0x00, 0xdb, 0xef, 0xea, 0xea, 0xee, 0xf5, 0x10, 0xee,
  0xf9, 0xcf, 0x11, 0x06, 0x05, 0xf4, 0x06, 0xf7, 0xfc, 0xe1, 0x14, 0x13,
  0xec, 0xd3, 0xf9, 0xf9, 0x0e, 0xf6, 0xe7, 0xe6, 0x00, 0x0e, 0x04, 0xf4,
  0xea, 0xe9, 0xe8, 0xdf, 0xfe, 0xf6, 0x15, 0xfc, 0x00, 0xe2, 0x0c, 0x02,
  0x17, 0xf3, 0xff, 0x04, 0x05, 0x00, 0x1b, 0xf3, 0xd5, 0x07, 0xfc, 0xfc,
  0x1e, 0xff, 0x12, 0xf4, 0x12, 0x13, 0x07, 0xf5, 0xf5, 0xf3, 0x0b, 0x14,
  0x0d, 0x19, 0x05, 0x24, 0x00, 0xe9, 0x15, 0x06, 0x17, 0xf4, 0x02, 0x06,
  0x11, 0x08, 0x16, 0xed, 0xe9, 0x08, 0x18, 0x09, 0x06, 0xfe, 0x07, 0x21,
  0x1e, 0x24, 0x03, 0x09, 0x1a, 0x13, 0x04, 0x17, 0x0d, 0xed, 0xff, 0xfe,
  0x11, 0x07, 0x0f, 0x11, 0x0f, 0xe6, 0xfb, 0xfc, 0xfd, 0xfa, 0x0e, 0xec,
  0x09, 0xf6, 0x04, 0x06, 0xfd, 0xfd, 0xea, 0x23, 0x17, 0x12, 0x16, 0x05,
  0x18, 0x15, 0xff, 0x07, 0xfd, 0xe4, 0xec, 0xef, 0x06, 0x08, 0x03, 0x0b,
  0x04, 0xe2, 0x0d, 0xef, 0xe6, 0x02, 0x0f, 0x17, 0xf3, 0xe7, 0xf1, 0x07,
  0x02, 0xff, 0xfc, 0xde, 0x08, 0x04, 0xf1, 0x0f, 0xe2, 0xf8, 0xec, 0x06,
  0xfd, 0xfb, 0x01, 0xec, 0xfa, 0xeb, 0xf9, 0xf3, 0x14, 0xfc, 0x0d, 0x0c,
  0xe6, 0xfe, 0x00, 0xfd, 0xdf, 0xf1, 0x05, 0x0d, 0x14, 0x08, 0xef, 0xc1,
  0x05, 0x0f, 0xed, 0xf5, 0xda, 0xfa, 0x02, 0xe3, 0x0e, 0xf6, 0xf6, 0x0d,
  0x12, 0xde, 0xe0, 0xfa, 0x11, 0xfd, 0x0d, 0x08, 0xe4, 0x07, 0x03, 0xf0,
  0xe7, 0x09, 0x15, 0x0e, 0x03, 0x24, 0xf4, 0xbb, 0x0e, 0x13, 0x01, 0xec,
  0xdd, 0xfb, 0x18, 0x0e, 0x13, 0x04, 0xe2, 0x10, 0x13, 0xd0, 0xd3, 0x01,
  0x0e, 0xe8, 0x01, 0xf2, 0xeb, 0x08, 0xf5, 0xf9, 0xe9, 0xfc, 0x11, 0x10,
  0x01, 0x23, 0xe8, 0x0e, 0x0f, 0x0a, 0x0b, 0x06, 0x12, 0x04, 0xfc, 0x12,
  0x02, 0xcf, 0xe3, 0x02, 0x05, 0xef, 0xd6, 0x04, 0xfc, 0xe7, 0x05, 0xda,
  0xe5, 0x04, 0xf1, 0xdd, 0xf0, 0xf2, 0x01, 0xfd, 0xf6, 0x06, 0xea, 0x0f,
  0x15, 0x18, 0x00, 0x05, 0x1b, 0x05, 0xee, 0xff, 0x06, 0xe2, 0xd4, 0xf6,
  0x00, 0x19, 0xd7, 0xfe, 0xf5, 0xd6, 0x06, 0xeb, 0xd3, 0x06, 0xea, 0xe7,
  0xf8, 0xc6, 0xf6, 0x07, 0x04, 0x04, 0xee, 0xe2, 0x07, 0x01, 0xfc, 0xf1,
  0xf6, 0xf8, 0xfb, 0x0a, 0x0d, 0x01, 0xfc, 0x2c, 0x04, 0xec, 0xe7, 0xf8,
  0x00, 0xf4, 0x1b, 0x00, 0xda, 0x06, 0x09, 0xf5, 0xe3, 0xfc, 0x14, 0x08,
  0x0e, 0x18, 0xd5, 0xbd, 0x13, 0x1e, 0xdd, 0xd1, 0xec, 0xfd, 0xfe, 0x14,
  0x0b, 0xeb, 0xe4, 0x2f, 0x19, 0xed, 0xc7, 0xfd, 0x1c, 0xe7, 0x0f, 0xeb,
  0x08, 0x1f, 0xf6, 0xe2, 0xf1, 0x0f, 0x25, 0x16, 0x04, 0x24, 0xe9, 0xc7,
  0x03, 0x0f, 0xf5, 0xdd, 0xdb, 0x04, 0x0e, 0x00, 0x00, 0xe4, 0xd2, 0x1f,
  0x10, 0xc9, 0xa3, 0xf1, 0x10, 0xde, 0x03, 0xe4, 0x03, 0x10, 0xec, 0xec,
  0xf0, 0xf7, 0x1a, 0x01, 0x0a, 0x12, 0xdc, 0xfb, 0x0f, 0x16, 0x01, 0xde,
  0x1c, 0x00, 0x0b, 0xfd, 0x02, 0xee, 0xcd, 0x0a, 0x0d, 0xc9, 0xcf, 0xf1,
  0x0e, 0xda, 0xf8, 0xeb, 0xfe, 0x0a, 0xe2, 0xe8, 0xe7, 0xee, 0x0a, 0x04,
  0xff, 0x10, 0xe3, 0x08, 0x1e, 0x18, 0xf9, 0xe7, 0x19, 0xfd, 0xf2, 0xfb,
  0x16, 0xfa, 0xea, 0x0a, 0x08, 0x03, 0xd6, 0xdf, 0x0c, 0xdd, 0x03, 0xe5,
  0xfb, 0x04, 0xd3, 0xdf, 0x01, 0xe5, 0xfe, 0x02, 0xfa, 0x04, 0xe5, 0xf8,
  0x0c, 0x0c, 0x06, 0xf6, 0xfa, 0x00, 0x01, 0x15, 0x0f, 0x05, 0x0e, 0x1f,
  0x09, 0xeb, 0xfc, 0xec, 0x04, 0x0a, 0x14, 0x08, 0xff, 0x11, 0xf8, 0x06,
  0xe9, 0xfb, 0x28, 0x06, 0x08, 0x17, 0xe6, 0x03, 0xff, 0x14, 0x00, 0xd2,
  0xf2, 0xf2, 0x05, 0x2a, 0x03, 0xef, 0xfc, 0x3b, 0x0d, 0xda, 0x06, 0xe3,
  0x1c, 0xeb, 0x05, 0xfd, 0x0b, 0x17, 0xf5, 0xf1, 0x09, 0x0a, 0x2c, 0x00,
  0x05, 0x23, 0xf5, 0xfc, 0x07, 0x12, 0xfb, 0xb9, 0xfa, 0x07, 0xf7, 0x14,
  0x18, 0x0c, 0xf1, 0x14, 0x1f, 0xd1, 0xeb, 0xe5, 0x23, 0xf4, 0x0d, 0xfd,
  0x0e, 0x0d, 0xd2, 0xf7, 0xef, 0xfe, 0x15, 0x05, 0x33, 0x0f, 0xfe, 0x12,
  0x00, 0x19, 0x06, 0xcf, 0x19, 0x04, 0x0d, 0xfa, 0x0e, 0x14, 0xe4, 0x0f,
  0x1d, 0xf4, 0xf5, 0xf1, 0x12, 0xe0, 0xf3, 0xf5, 0x0b, 0xfb, 0xfe, 0xd8,
  0xfd, 0xea, 0x0e, 0xf9, 0x40, 0xff, 0xf3, 0x19, 0xf3, 0x05, 0xee, 0xe2,
  0x09, 0xfb, 0x0e, 0xf5, 0x17, 0x12, 0xfe, 0x13, 0x12, 0xfb, 0xf7, 0xed,
  0x23, 0xfa, 0xfa, 0xfb, 0x0a, 0xee, 0xf6, 0xf5, 0x06, 0xf2, 0xff, 0xfe,
  0xf8, 0xfb, 0x2d, 0xfb, 0x07, 0xf0, 0xf8, 0x21, 0x20, 0xf7, 0x03, 0xfb,
  0xf9, 0xe9, 0xef, 0xe8, 0x03, 0x1b, 0xed, 0x0d, 0xfb, 0xdd, 0xf9, 0xe6,
  0xf4, 0xf5, 0x02, 0xeb, 0x30, 0xef, 0xed, 0xf1, 0x0b, 0x0d, 0xfc, 0x12,
  0x20, 0x06, 0x10, 0x1b, 0x28, 0xf7, 0x19, 0x23, 0x09, 0xea, 0xf7, 0x01,
  0x02, 0x16, 0xfb, 0x14, 0x0d, 0xf0, 0x05, 0xfe, 0xf8, 0xf2, 0x0b, 0xf7,
  0x26, 0x10, 0xf4, 0xff, 0x0e, 0x16, 0xfe, 0x02, 0x2c, 0x0f, 0x0c, 0x11,
  0x3a, 0x0c, 0x2e, 0x14, 0x11, 0xef, 0x06, 0x1e, 0x0c, 0x12, 0x03, 0x0a,
  0x18, 0x0b, 0x0d, 0x00, 0xfb, 0x11, 0x0c, 0x04, 0x24, 0x07, 0xfd, 0x10,
  0x1d, 0x14, 0x06, 0x08, 0x1c, 0x02, 0x12, 0x05, 0x2b, 0x1a, 0x06, 0x0b,
  0x12, 0x08, 0x01, 0x15, 0x14, 0x05, 0x05, 0xf5, 0x1f, 0xf3, 0xfb, 0x01,
  0x0b, 0x10, 0x0a, 0xfd, 0x18, 0x07, 0x00, 0x1c, 0xf2, 0x17, 0xf1, 0xf7,
  0xf0, 0x18, 0xfd, 0xf5, 0x11, 0xee, 0xf8, 0xff, 0x0e, 0x02, 0xf7, 0x19,
  0xf7, 0xf3, 0xff, 0xee, 0x19, 0x04, 0x13, 0x15, 0x02, 0x1c, 0xf5, 0x04,
  0xf4, 0x15, 0x0f, 0x03, 0xea, 0xf3, 0x18, 0x28, 0xe8, 0xe5, 0xd7, 0x13,
  0x1d, 0xbb, 0x0a, 0x25, 0xf0, 0xee, 0xf2, 0xd7, 0xee, 0x27, 0x02, 0xe5,
  0x02, 0xf3, 0xed, 0xef, 0x1f, 0xbf, 0x0a, 0xea, 0x46, 0xec, 0xcc, 0xea,
  0x06, 0xfb, 0xef, 0x2d, 0xf8, 0xf2, 0xf7, 0x0b, 0x12, 0xe0, 0x0c, 0x28,
  0x0a, 0xe2, 0x01, 0x15, 0x13, 0x25, 0xf9, 0xf6, 0x10, 0xf8, 0xfd, 0xf2,
  0x1b, 0xd3, 0x11, 0xf7, 0x4a, 0xfe, 0x07, 0xf7, 0x06, 0xfb, 0xfe, 0x1a,
  0xfc, 0xf8, 0xf9, 0x03, 0x0e, 0x03, 0x0a, 0x17, 0x07, 0xf6, 0x06, 0x1b,
  0x0d, 0x15, 0xed, 0x04, 0x17, 0x03, 0xfd, 0x01, 0x05, 0x04, 0xfb, 0x03,
  0x22, 0x11, 0x04, 0xf9, 0x13, 0x07, 0x14, 0xf9, 0x01, 0xe6, 0xfc, 0x0a,
  0xff, 0x0a, 0x0c, 0x03, 0x0b, 0xe4, 0xfa, 0x07, 0x10, 0x09, 0xf5, 0xff,
  0x0b, 0x09, 0x04, 0xfd, 0xf0, 0xff, 0xf0, 0x03, 0x13, 0x02, 0xf1, 0x05,
  0x0d, 0x01, 0xfa, 0xd4, 0xe6, 0xff, 0xfe, 0xef, 0xf6, 0x02, 0xee, 0xff,
  0x03, 0x05, 0xdf, 0x0b, 0x07, 0xef, 0xec, 0xf2, 0xed, 0x0b, 0xfc, 0x04,
  0x0e, 0x13, 0xf8, 0x04, 0x0a, 0x10, 0x11, 0x02, 0xea, 0xf1, 0x06, 0x3e,
  0xdb, 0xf5, 0xff, 0x04, 0x03, 0xd6, 0xf8, 0x24, 0xe6, 0xed, 0xfc, 0xe4,
  0xee, 0x24, 0x08, 0xd6, 0xf7, 0xee, 0xf2, 0xf8, 0x1c, 0xa2, 0x0e, 0xfd,
  0x34, 0xda, 0xdf, 0xdf, 0x09, 0xf7, 0xf9, 0x39, 0xd6, 0xf8, 0xf0, 0xfc,
  0x0f, 0xe9, 0xff, 0x34, 0xf7, 0xf9, 0x07, 0x12, 0x07, 0x18, 0x08, 0xed,
  0x0b, 0xfa, 0xfe, 0x06, 0x0a, 0xd4, 0x0a, 0xfb, 0x35, 0xe4, 0xe3, 0xe0,
  0x02, 0xe9, 0xf6, 0x31, 0xeb, 0xec, 0x01, 0x06, 0xfa, 0xfe, 0x0b, 0x31,
  0xf5, 0xee, 0x23, 0x15, 0x04, 0xfb, 0x1a, 0xfd, 0x14, 0x04, 0x09, 0x05,
  0x0c, 0xee, 0x0d, 0x05, 0x1a, 0xf4, 0xf5, 0xe2, 0xe5, 0x0c, 0xff, 0x16,
  0xfa, 0xf5, 0x04, 0x09, 0xf4, 0x0c, 0xf3, 0x09, 0x0f, 0xf8, 0x0b, 0xf9,
  0x14, 0xf8, 0x1d, 0x16, 0x02, 0xff, 0x02, 0xfd, 0xfe, 0xf3, 0x0f, 0xf5,
  0xf6, 0xea, 0x03, 0xec, 0x08, 0xee, 0x10, 0xed, 0xfb, 0x07, 0x05, 0xfe,
  0xf1, 0x17, 0xeb, 0xf4, 0xff, 0x17, 0x01, 0xfc, 0xfe, 0x01, 0x09, 0xfa,
  0xeb, 0x02, 0xf6, 0xf6, 0xef, 0x12, 0x10, 0x07, 0xf7, 0xfc, 0xfc, 0x00,
  0x03, 0xfa, 0xec, 0x14, 0xf5, 0xef, 0x06, 0xfc, 0xfa, 0xe9, 0xf6, 0x0b,
  0xfc, 0xfe, 0xfe, 0xe0, 0xed, 0x00, 0x1c, 0xea, 0xf8, 0xf8, 0xfa, 0x06,
  0x11, 0xcb, 0x08, 0x12, 0x0d, 0xd8, 0xcf, 0xf2, 0x0e, 0xfe, 0x10, 0x25,
  0xf1, 0xfe, 0x07, 0x12, 0x03, 0xeb, 0x07, 0x19, 0xee, 0x00, 0x0a, 0xdf,
  0x01, 0x18, 0x04, 0xfe, 0x0a, 0x0b, 0x07, 0x09, 0x12, 0xf5, 0x15, 0x01,
  0x12, 0xf1, 0xfd, 0x08, 0xf1, 0xe0, 0x03, 0x10, 0x11, 0xef, 0x08, 0x0b,
  0x07, 0x13, 0x07, 0x1c, 0x03, 0xe6, 0x0c, 0xf1, 0x09, 0x12, 0xfd, 0x10,
  0x11, 0x0c, 0x01, 0x10, 0x0e, 0xf1, 0x0d, 0x00, 0x1f, 0xf5, 0xf4, 0xf8,
  0xf4, 0xfb, 0x06, 0xfd, 0x10, 0xfa, 0x15, 0x15, 0x0f, 0x12, 0xe4, 0x07,
  0x0e, 0x0e, 0xec, 0xf2, 0x09, 0x04, 0x01, 0x17, 0xf8, 0x12, 0xfc, 0x0c,
  0x05, 0x09, 0x17, 0xf3, 0xf8, 0x06, 0xfe, 0xf4, 0x0b, 0xfa, 0x1d, 0x04,
  0x12, 0x0c, 0x09, 0x0b, 0x17, 0x18, 0xe8, 0xfe, 0x00, 0x25, 0xe8, 0xf6,
  0xef, 0x06, 0x08, 0x23, 0xe0, 0x02, 0xfc, 0xf1, 0xed, 0xfe, 0x33, 0xf0,
  0xe3, 0xf6, 0x00, 0xfa, 0x0c, 0x02, 0x09, 0x10, 0x0b, 0x00, 0x15, 0x11,
  0xf5, 0xfb, 0x09, 0x1d, 0xfb, 0x04, 0x11, 0xf1, 0x04, 0x05, 0x08, 0xf4,
  0x1b, 0xec, 0x15, 0xff, 0x03, 0xda, 0x12, 0x09, 0xf6, 0xdc, 0xfd, 0x11,
  0xfa, 0xed, 0x0e, 0x20, 0xf9, 0xe6, 0x06, 0x10, 0x08, 0x0d, 0x15, 0x17,
  0xe6, 0xf4, 0x16, 0xf9, 0x05, 0x15, 0x09, 0x07, 0x0f, 0xf9, 0xf8, 0x00,
  0x18, 0xe5, 0x06, 0x01, 0x12, 0xf8, 0x06, 0xfc, 0xe7, 0xf4, 0xfb, 0x10,
  0xf9, 0xe6, 0xf3, 0xfa, 0x0c, 0xfa, 0x06, 0x13, 0x03, 0x0d, 0x06, 0xf4,
  0xff, 0xfe, 0x04, 0x11, 0x0e, 0x03, 0xec, 0x13, 0x1d, 0xe2, 0xf4, 0xf1,
  0x1d, 0x05, 0xf8, 0xf4, 0x09, 0x08, 0xf4, 0xfe, 0x02, 0x0f, 0x04, 0x08,
  0x05, 0x01, 0xf7, 0x0a, 0x18, 0x05, 0xfd, 0x05, 0x0b, 0xf6, 0xf9, 0x14,
  0x03, 0x0a, 0xf4, 0x1a, 0x00, 0x00, 0x01, 0xe5, 0x03, 0x07, 0x0d, 0xf9,
  0x00, 0x15, 0xfc, 0x06, 0x16, 0x26, 0xfe, 0xff, 0x19, 0xec, 0xfc, 0xfe,
  0x0b, 0x14, 0xf3, 0x06, 0x00, 0xe6, 0x02, 0x03, 0xdc, 0xfa, 0x07, 0xe0,
  0x02, 0x07, 0x07, 0xe8, 0x00, 0xf8, 0xfd, 0x04, 0xfd, 0xf5, 0x04, 0xfa,
  0x08, 0xff, 0x00, 0x0a, 0xfe, 0x00, 0x04, 0x15, 0xf8, 0xf8, 0xfb, 0xe3,
  0xf6, 0xfc, 0xf3, 0xfd, 0x12, 0xf0, 0x0b, 0x06, 0xe8, 0xee, 0x03, 0xfb,
  0xe3, 0xd6, 0xe3, 0xef, 0x18, 0xf1, 0x31, 0xf2, 0x0c, 0x0a, 0x03, 0x06,
  0xfa, 0xfa, 0xe8, 0x03, 0x05, 0x0d, 0xff, 0xc9, 0x28, 0x0f, 0x02, 0x0f,
  0x16, 0x02, 0x14, 0x09, 0x0d, 0xea, 0x06, 0xf1, 0xf6, 0xfc, 0xf9, 0x02,
  0x07, 0xe0, 0x30, 0xf6, 0x11, 0xf6, 0x04, 0x0a, 0xfb, 0x0d, 0xe2, 0xfc,
  0x08, 0x0a, 0x0c, 0xe4, 0x17, 0x1e, 0x0d, 0x08, 0x0d, 0x14, 0xfa, 0x18,
  0x33, 0xf2, 0x0d, 0xf6, 0xf8, 0x0d, 0x19, 0xfc, 0xfe, 0x01, 0x20, 0x00,
  0x2b, 0x13, 0x19, 0x05, 0x04, 0x0b, 0xdb, 0x0f, 0xfb, 0x09, 0x0d, 0xfb,
  0x0b, 0x10, 0xfe, 0x03, 0x15, 0x05, 0xf2, 0x09, 0x20, 0x00, 0xfe, 0xec,
  0x0f, 0xfb, 0x05, 0x08, 0xff, 0x09, 0x06, 0x10, 0x1b, 0x1c, 0x0f, 0x18,
  0x23, 0x15, 0xf8, 0xf6, 0xfa, 0x0d, 0x1f, 0xfe, 0x01, 0x2c, 0x14, 0x05,
  0x15, 0x0c, 0x11, 0x0a, 0x00, 0x02, 0x11, 0x04, 0x1d, 0xf5, 0xfd, 0x0d,
  0xfd, 0xf7, 0x12, 0x09, 0x03, 0xf1, 0x0f, 0xf8, 0x0b, 0xf8, 0x07, 0x08,
  0xfc, 0xfb, 0x00, 0xec, 0x24, 0xfb, 0x08, 0x04, 0x0e, 0xfb, 0x08, 0xfe,
  0x1b, 0xfb, 0x1a, 0x09, 0x02, 0x01, 0x0a, 0x06, 0x21, 0x10, 0x15, 0xf0,
  0xed, 0x02, 0xf1, 0x08, 0x13, 0x04, 0x03, 0xfa, 0x0c, 0x10, 0xfb, 0x0f,
  0x03, 0x12, 0x05, 0x03, 0x06, 0xfd, 0xff, 0x0d, 0x13, 0x18, 0x0b, 0xeb,
  0x0b, 0x0f, 0x14, 0x04, 0x05, 0x2a, 0x00, 0xe7, 0xf2, 0x15, 0xe9, 0xfa,
  0x0b, 0xe3, 0xf8, 0xf1, 0x16, 0x03, 0xf7, 0x15, 0x00, 0x08, 0xf2, 0xfd,
  0x05, 0x00, 0x00, 0xf8, 0x04, 0x21, 0xfd, 0xd7, 0xf8, 0x08, 0x10, 0x0b,
  0x10, 0x33, 0xfa, 0xe4, 0xf9, 0x23, 0xe7, 0x07, 0x18, 0xe4, 0xed, 0xfb,
  0x13, 0xf9, 0xe0, 0x06, 0x0a, 0xfd, 0xed, 0xf1, 0x07, 0xee, 0xf9, 0xeb,
  0x00, 0x15, 0xfb, 0xc6, 0x0f, 0xfa, 0x17, 0x14, 0x17, 0x16, 0xf9, 0xd9,
  0xfc, 0x2b, 0xef, 0x0d, 0x36, 0xed, 0xec, 0xec, 0x1e, 0x0a, 0xdf, 0xfe,
  0x00, 0x09, 0xde, 0xfb, 0xf3, 0xf7, 0x07, 0x08, 0xf9, 0x0d, 0xfe, 0xe9,
  0x0a, 0x09, 0x0a, 0x21, 0xfb, 0xec, 0x0b, 0x06, 0xe7, 0xf9, 0xfb, 0x09,
  0x12, 0xfe, 0xff, 0xef, 0xfb, 0xfb, 0x07, 0xfc, 0x0c, 0x15, 0x09, 0x16,
  0x04, 0x05, 0x01, 0xf7, 0x15, 0x00, 0x05, 0xf1, 0x09, 0x14, 0x11, 0x06,
  0x0b, 0x07, 0x12, 0x05, 0xe0, 0xfa, 0xfb, 0x0a, 0x10, 0xe1, 0x15, 0x0d,
  0x0e, 0x0f, 0xe6, 0x28, 0xf6, 0x1b, 0xf2, 0x01, 0xf2, 0x03, 0x07, 0xfb,
  0x04, 0x03, 0x05, 0xfd, 0x25, 0x05, 0x0c, 0xf3, 0xf4, 0x12, 0xf2, 0xf5,
  0xda, 0x1b, 0xe4, 0xeb, 0xf7, 0xe3, 0xf2, 0xef, 0x0d, 0x06, 0xe9, 0x0c,
  0xf4, 0xed, 0xf6, 0xdf, 0xe8, 0xff, 0xf3, 0xff, 0x06, 0xed, 0xee, 0xff,
  0x11, 0x05, 0x09, 0xf3, 0x20, 0x10, 0xe0, 0xea, 0xdb, 0x0e, 0xd9, 0xd1,
  0xf5, 0xb4, 0xf7, 0xd5, 0x0b, 0x1b, 0xf0, 0x12, 0xfe, 0xc6, 0xe6, 0xd5,
  0x0d, 0xfd, 0xea, 0xfd, 0x05, 0xf2, 0xcc, 0xe7, 0x05, 0x11, 0x1c, 0xf1,
  0x14, 0xec, 0xd8, 0xf9, 0xda, 0xf2, 0xd9, 0xd1, 0x0e, 0xd7, 0x14, 0xe0,
  0x03, 0x1f, 0xf6, 0x15, 0xf5, 0xec, 0xe2, 0xda, 0xe7, 0x00, 0xef, 0x07,
  0x0b, 0xf7, 0xb3, 0xd4, 0xff, 0x16, 0x0d, 0xf2, 0xfc, 0x02, 0x06, 0xf9,
  0xf1, 0x09, 0x04, 0x0f, 0xf9, 0xff, 0xff, 0xfa, 0xfe, 0xf0, 0xf6, 0x0e,
  0xfa, 0x06, 0xf9, 0x05, 0x07, 0xf2, 0xfb, 0xe4, 0xf0, 0x0f, 0x11, 0x02,
  0x03, 0x02, 0x1b, 0xf9, 0x0e, 0x0a, 0x14, 0xfb, 0xee, 0xf9, 0xff, 0x05,
  0x02, 0xfd, 0x0c, 0x06, 0x09, 0xf5, 0xff, 0x19, 0x01, 0x09, 0x0a, 0x03,
  0xf8, 0x06, 0x06, 0xf0, 0xfd, 0x05, 0x11, 0xfb, 0x09, 0x09, 0x0f, 0xf3,
  0x05, 0x09, 0x0d, 0xf5, 0x07, 0x0c, 0xfd, 0x0d, 0x00, 0xf3, 0xec, 0xe1,
  0x0a, 0x13, 0xfd, 0xf9, 0xfd, 0x05, 0xf9, 0x04, 0xf8, 0x10, 0xf3, 0xff,
  0xfd, 0xf5, 0x12, 0xf5, 0xfb, 0x1d, 0xf9, 0xf1, 0x18, 0xf7, 0x17, 0xe8,
  0xf6, 0x0b, 0xe9, 0x06, 0xf8, 0xee, 0x01, 0xd9, 0xef, 0x16, 0xf9, 0x02,
  0xf4, 0x15, 0xf4, 0xf7, 0xf7, 0xfb, 0xf6, 0xf5, 0xff, 0xfd, 0x17, 0xf9,
  0xf5, 0x01, 0xf7, 0xf3, 0x17, 0xfd, 0x14, 0x0e, 0xe8, 0xea, 0xce, 0xf5,
  0xff, 0xd7, 0x11, 0xce, 0xe9, 0x1e, 0xf7, 0x0c, 0xf5, 0x1d, 0x0d, 0xe4,
  0xe6, 0x00, 0xc7, 0xe8, 0x08, 0xff, 0x1a, 0xe9, 0x18, 0x13, 0x06, 0xe2,
  0x0e, 0x0a, 0x02, 0xff, 0xf7, 0x04, 0xef, 0x13, 0xfd, 0xfb, 0x06, 0x05,
  0x06, 0xff, 0x11, 0xff, 0xff, 0xf7, 0x07, 0x01, 0x08, 0xed, 0x04, 0xf7,
  0xfb, 0x10, 0x1d, 0x06, 0xfc, 0xfd, 0x0c, 0xfd, 0xf8, 0x01, 0x0a, 0x05,
  0x07, 0x15, 0x12, 0x03, 0xfc, 0x08, 0xf9, 0x04, 0x06, 0x03, 0x07, 0x11,
  0xff, 0x00, 0x04, 0x09, 0x10, 0x07, 0x0a, 0xee, 0x00, 0x0c, 0x2c, 0x0f,
  0xfe, 0x15, 0x1a, 0x0b, 0xff, 0xf3, 0x04, 0xf2, 0xfe, 0xed, 0x13, 0xf8,
  0x02, 0x05, 0xfd, 0xdd, 0xfe, 0x08, 0x06, 0xf2, 0x13, 0x0c, 0x06, 0x0a,
  0xf6, 0x06, 0xfd, 0xeb, 0xfa, 0x0f, 0x19, 0xfe, 0xfb, 0xf9, 0x00, 0xf1,
  0x08, 0xd6, 0x10, 0x08, 0x13, 0xed, 0xf1, 0x03, 0x0a, 0x09, 0x0f, 0xc6,
  0xe7, 0x0c, 0x04, 0xf7, 0xf6, 0x16, 0x13, 0x05, 0xee, 0xff, 0xf1, 0xee,
  0x03, 0xf0, 0x25, 0x07, 0x0f, 0xf8, 0xef, 0xee, 0xf6, 0xe1, 0x12, 0x03,
  0xe6, 0xc3, 0xda, 0xfa, 0xfc, 0xe7, 0x12, 0xd5, 0xab, 0x20, 0xe4, 0xf8,
  0xc7, 0x0a, 0x03, 0xe9, 0xec, 0xfc, 0xce, 0xca, 0xf2, 0xf8, 0x12, 0x03,
  0x11, 0x06, 0xf3, 0xdb, 0x0f, 0x0d, 0xf9, 0xfb, 0xe2, 0x10, 0x01, 0xf2,
  0xfb, 0x01, 0x06, 0x08, 0x10, 0x0d, 0x01, 0x20, 0x0c, 0x06, 0x04, 0xfa,
  0xfe, 0x01, 0x0e, 0x0d, 0xfb, 0x07, 0x08, 0xf8, 0x05, 0x15, 0x1c, 0x04,
  0xff, 0x18, 0x0d, 0xfb, 0x0c, 0x16, 0x04, 0x04, 0x11, 0x03, 0x05, 0x07,
  0x11, 0x14, 0x05, 0x20, 0x06, 0x03, 0x06, 0x12, 0x07, 0x06, 0xf1, 0x0a,
  0x17, 0x1d, 0x12, 0xf9, 0xf8, 0x21, 0x20, 0xf5, 0x06, 0x19, 0xfd, 0xfe,
  0x15, 0x0d, 0xfd, 0xfc, 0x16, 0x12, 0x08, 0x0c, 0xf6, 0x0b, 0x07, 0x0a,
  0xfe, 0x0a, 0xf6, 0x07, 0xf8, 0x0d, 0x05, 0xfd, 0x03, 0x13, 0x09, 0x08,
  0x0a, 0x12, 0xfd, 0x06, 0x0a, 0x07, 0x00, 0xf4, 0x0c, 0xfe, 0x02, 0x04,
  0x08, 0x0f, 0x1b, 0x0d, 0xf9, 0xfa, 0x07, 0xf2, 0xf7, 0x03, 0x05, 0x06,
  0xfc, 0x09, 0x04, 0x07, 0xfc, 0xff, 0x0a, 0xf5, 0x00, 0xfe, 0xf5, 0x14,
  0x09, 0xff, 0x08, 0x05, 0x16, 0x0c, 0xfc, 0xfe, 0x1a, 0x03, 0x12, 0x0b,
  0xf7, 0x04, 0x01, 0x04, 0xfc, 0x01, 0x05, 0x04, 0xf8, 0x0e, 0xec, 0xf7,
  0xff, 0xf9, 0xfb, 0xf4, 0x18, 0xfe, 0x02, 0x0f, 0x06, 0xfd, 0xf9, 0x0b,
  0x05, 0x04, 0x06, 0x0a, 0x08, 0x09, 0x0b, 0xfd, 0x0b, 0x0c, 0x07, 0x0a,
  0x04, 0xf8, 0x0c, 0x0c, 0x09, 0x0d, 0x00, 0x02, 0xf8, 0x06, 0x0f, 0x0b,
  0xf0, 0x05, 0x08, 0x01, 0xf5, 0x07, 0x0c, 0x03, 0x03, 0x08, 0x02, 0x01,
  0x00, 0x13, 0xfb, 0xfd, 0x0e, 0x02, 0x03, 0x02, 0x04, 0xfc, 0x01, 0x11,
  0xf8, 0xf2, 0xf1, 0xf4, 0x0f, 0xff, 0x06, 0xfa, 0xfd, 0xf8, 0x0a, 0x0b,
  0xf8, 0x0f, 0x07, 0xfb, 0x09, 0x0c, 0x09, 0x04, 0x0f, 0x03, 0xf4, 0x06,
  0xf7, 0xff, 0xfb, 0x07, 0x00, 0xfa, 0x02, 0x0c, 0xf1, 0xf1, 0xf7, 0xf9,
  0xfd, 0xf1, 0x09, 0xfe, 0x02, 0x05, 0x05, 0x03, 0x04, 0x05, 0xf8, 0xea,
  0x00, 0x0e, 0x05, 0xfe, 0x09, 0xea, 0x12, 0x05, 0xfe, 0x08, 0x00, 0xfa,
  0xe0, 0xef, 0xfc, 0x03, 0xec, 0x0c, 0xf2, 0xf9, 0x10, 0xfc, 0x08, 0xfb,
  0xfe, 0x14, 0x03, 0x07, 0x07, 0x0f, 0x09, 0xff, 0x08, 0x01, 0x0c, 0x09,
  0x13, 0xf7, 0x02, 0x09, 0xf7, 0x02, 0x0e, 0x06, 0xeb, 0x00, 0x02, 0x00,
  0x01, 0x0f, 0xf4, 0xec, 0x01, 0xf9, 0x0b, 0xf4, 0x13, 0x06, 0x04, 0x0e,
  0x0d, 0x0e, 0xf4, 0xe9, 0xfd, 0x05, 0x08, 0xfb, 0xe9, 0x0d, 0xfd, 0xdf,
  0x12, 0x17, 0x28, 0x03, 0x11, 0xf8, 0x11, 0x17, 0x12, 0x07, 0x05, 0x20,
  0xef, 0x16, 0xfd, 0xff, 0xf2, 0x0b, 0x16, 0x01, 0xfd, 0xf4, 0xea, 0xe1,
  0xf6, 0x06, 0x0e, 0x04, 0xe1, 0x10, 0xd7, 0xe7, 0x0f, 0x09, 0x25, 0xeb,
  0x0a, 0xe6, 0x10, 0x17, 0x02, 0x13, 0x00, 0x17, 0xfd, 0x0f, 0x08, 0x04,
  0xf0, 0xe9, 0x1d, 0x08, 0xff, 0x06, 0xf4, 0xf0, 0xf9, 0x01, 0x0f, 0xfd,
  0xdc, 0x06, 0xed, 0xfd, 0xfa, 0x02, 0x0a, 0xfc, 0xfc, 0xe3, 0x18, 0xfc,
  0xfa, 0x12, 0xff, 0x08, 0x03, 0x0b, 0xfd, 0xfc, 0xf6, 0xf2, 0x09, 0x11,
  0x01, 0xf7, 0xed, 0xfa, 0xf8, 0xf7, 0xfc, 0x08, 0xf8, 0xf8, 0x15, 0xf7,
  0xfc, 0xff, 0x06, 0x00, 0xf2, 0xed, 0x02, 0xfa, 0xf5, 0x03, 0x07, 0xf2,
  0xf7, 0x13, 0x08, 0x0a, 0xf2, 0x0a, 0xff, 0x09, 0xf1, 0x04, 0x03, 0x13,
  0xff, 0xdc, 0xf3, 0x0e, 0x0b, 0xfa, 0x2c, 0xef, 0xed, 0x0b, 0x12, 0xf9,
  0xf8, 0x10, 0xfd, 0x04, 0xff, 0x05, 0x03, 0xfc, 0x0b, 0xf2, 0x00, 0x13,
  0x13, 0x18, 0xfc, 0xf7, 0x1a, 0x1c, 0x10, 0xc6, 0xfd, 0x1b, 0xf6, 0x08,
  0xef, 0x16, 0xf6, 0xd8, 0x11, 0x12, 0x09, 0x0c, 0x04, 0xe5, 0xeb, 0x16,
  0x07, 0x0c, 0x1c, 0x15, 0xf6, 0x2c, 0xe3, 0xfd, 0xed, 0x07, 0x13, 0x1b,
  0x17, 0x10, 0x14, 0xb4, 0x0a, 0x16, 0xff, 0xff, 0xf8, 0x0c, 0xe9, 0xd9,
  0x18, 0x10, 0xfc, 0xdd, 0xff, 0xf1, 0xec, 0x0b, 0x06, 0x12, 0x12, 0x19,
  0x08, 0x21, 0xf0, 0x04, 0xea, 0xf1, 0x06, 0x1a, 0x1d, 0x02, 0x1f, 0xcd,
  0x14, 0x0c, 0x13, 0xf9, 0x0c, 0xfd, 0xf4, 0xfb, 0xf6, 0xf8, 0xef, 0x06,
  0x00, 0xf5, 0xfa, 0x05, 0xfc, 0x00, 0x0b, 0xfa, 0x12, 0x02, 0x01, 0xf7,
  0x04, 0xf5, 0x0f, 0x06, 0xe9, 0x09, 0xff, 0xfc, 0x14, 0xf1, 0xff, 0x03,
  0x18, 0xfb, 0x1d, 0x05, 0xe2, 0xe7, 0xf6, 0xf9, 0x02, 0x03, 0xf2, 0x0a,
  0xe7, 0xfd, 0x01, 0xea, 0xfd, 0xed, 0xf7, 0xf9, 0x02, 0x0e, 0x04, 0xf5,
  0xf8, 0xf8, 0x1d, 0x31, 0xe9, 0xcc, 0x04, 0x09, 0x1f, 0xf1, 0x00, 0x05,
  0xd8, 0xf6, 0x14, 0xf2, 0xf9, 0x1b, 0x0a, 0xf4, 0x03, 0x01, 0xf1, 0xef,
  0x0f, 0xf5, 0xf1, 0xff, 0x1f, 0xff, 0xf2, 0xf5, 0x0f, 0x26, 0xf3, 0xd8,
  0x11, 0x1d, 0x1c, 0xf1, 0xff, 0x1a, 0xe8, 0xea, 0x13, 0x0d, 0xe0, 0xd9,
  0x06, 0xe6, 0xbc, 0x0a, 0xf9, 0xf7, 0x13, 0xf2, 0xe7, 0x3c, 0xe3, 0x08,
  0xdc, 0xde, 0xf5, 0x1c, 0x03, 0x16, 0x0b, 0xd7, 0x07, 0x1e, 0x11, 0xfa,
  0xf8, 0x11, 0xf9, 0xf0, 0x01, 0xef, 0xe4, 0xb5, 0x0b, 0xf8, 0xc9, 0xfe,
  0xe4, 0xf7, 0x1b, 0xe8, 0xf8, 0x26, 0xee, 0x0e, 0xf1, 0xe5, 0xd6, 0x11,
  0xf6, 0x01, 0x14, 0xef, 0x08, 0xfd, 0x13, 0xf1, 0x18, 0x03, 0x16, 0xf5,
  0xd7, 0xee, 0xef, 0xd3, 0xf3, 0x0f, 0x03, 0xfa, 0xef, 0xf5, 0x10, 0xc4,
  0xfb, 0xf7, 0xfa, 0x11, 0x0a, 0xf3, 0xcb, 0x13, 0xd4, 0xe4, 0x03, 0x07,
  0x04, 0xc5, 0x0c, 0xfd, 0x07, 0x05, 0x03, 0xfc, 0xc8, 0xf1, 0xf3, 0xea,
  0xfe, 0x07, 0x21, 0xf9, 0xe1, 0x05, 0x01, 0xe1, 0x0c, 0xda, 0xf8, 0x0a,
  0x18, 0x15, 0xe0, 0xfa, 0xd9, 0xf4, 0x0a, 0xf4, 0xe8, 0x90, 0x04, 0xfd,
  0xf0, 0x03, 0xe6, 0x02, 0xd3, 0xfa, 0xff, 0xfb, 0xf7, 0x0e, 0x20, 0xff,
  0xf9, 0xf6, 0xf4, 0xed, 0x0a, 0xd8, 0xfe, 0xf4, 0x04, 0x00, 0x06, 0xe6,
  0xf4, 0xe2, 0x05, 0x07, 0x05, 0xe0, 0x03, 0xfb, 0x10, 0x13, 0x07, 0x11,
  0xea, 0xfe, 0x01, 0xe5, 0xf6, 0x0b, 0xf9, 0x04, 0x06, 0xe3, 0xef, 0xea,
  0xf4, 0x0b, 0x01, 0xff, 0xf7, 0xf0, 0xf9, 0xf0, 0xf9, 0xf5, 0x05, 0x04,
  0x08, 0xf3, 0x1a, 0xf5, 0x05, 0x19, 0x03, 0x04, 0xe3, 0xe9, 0x00, 0xeb,
  0xf9, 0xf9, 0xfc, 0x1a, 0xf8, 0xe2, 0xf4, 0xe6, 0xf0, 0xf2, 0x06, 0x00,
  0xec, 0xd9, 0xed, 0xf7, 0x00, 0xc1, 0x1f, 0xf5, 0xf3, 0xd1, 0x0b, 0xf7,
  0xf4, 0x1a, 0xf1, 0xfa, 0xe3, 0xff, 0xfc, 0xb1, 0x01, 0x09, 0xfe, 0x0a,
  0xfa, 0xf0, 0xf5, 0x00, 0x06, 0xde, 0x05, 0x06, 0xe4, 0xe9, 0xe8, 0xec,
  0xf3, 0xba, 0x09, 0x04, 0xff, 0xdb, 0x11, 0x00, 0x01, 0x04, 0xf9, 0xf9,
  0xe6, 0x00, 0x0e, 0x98, 0xf7, 0x13, 0x07, 0x1a, 0xf8, 0x05, 0xf6, 0x06,
  0xfc, 0xcd, 0x09, 0xf6, 0x01, 0xe3, 0xcd, 0xec, 0xf0, 0xf3, 0xfa, 0x0f,
  0x08, 0x00, 0x07, 0xfb, 0xfe, 0xf7, 0x08, 0x0e, 0xe1, 0x0e, 0x0b, 0xe0,
  0xea, 0x13, 0x13, 0x0a, 0x05, 0xf8, 0xf4, 0x01, 0xe6, 0xf4, 0x01, 0x00,
  0x14, 0xe1, 0xf4, 0xef, 0xfe, 0xdc, 0x09, 0xfb, 0xff, 0xee, 0x12, 0xf3,
  0xf2, 0x0b, 0xff, 0xf6, 0xf3, 0x09, 0x09, 0xfd, 0xf7, 0xf8, 0x03, 0x09,
  0x02, 0x05, 0x03, 0x0a, 0xfb, 0x05, 0xf9, 0xfb, 0xf3, 0xf6, 0xf8, 0xf6,
  0xf6, 0xec, 0x0f, 0xf0, 0x02, 0xed, 0x05, 0x02, 0x0b, 0x11, 0xff, 0xcf,
  0xf2, 0x03, 0xfc, 0x09, 0x06, 0xf1, 0xfc, 0x14, 0xfe, 0x02, 0xf6, 0x04,
  0xf8, 0x04, 0x09, 0xf7, 0xe3, 0x0d, 0x02, 0xee, 0x06, 0xd7, 0x0d, 0xf9,
  0x0f, 0xe4, 0x09, 0x09, 0x18, 0x0d, 0x05, 0xe9, 0xeb, 0x1d, 0x03, 0xee,
  0x03, 0xf7, 0x04, 0x15, 0xfb, 0x09, 0xf5, 0x00, 0xf2, 0x02, 0xff, 0xf7,
  0xed, 0x06, 0x07, 0xe9, 0x11, 0xfc, 0x10, 0x0b, 0x01, 0xf3, 0x08, 0xff,
  0x0b, 0xf0, 0x02, 0x07, 0xfd, 0x29, 0x04, 0xea, 0x0b, 0x02, 0x1e, 0x02,
  0x23, 0x0c, 0x01, 0x1d, 0x07, 0xd6, 0x09, 0x06, 0x15, 0x05, 0x0b, 0xf4,
  0x00, 0x07, 0x15, 0x25, 0xf6, 0x0b, 0x0c, 0x07, 0xff, 0xfb, 0x0e, 0x08,
  0xf9, 0x1f, 0x10, 0xfe, 0x11, 0x10, 0x1c, 0x09, 0x1b, 0x06, 0x0d, 0x0f,
  0x08, 0xf2, 0x0e, 0x09, 0x10, 0xfd, 0x0d, 0x02, 0xfa, 0xee, 0x06, 0xd6,
  0x08, 0xf0, 0xff, 0xf6, 0xf2, 0x22, 0x07, 0xd2, 0xf2, 0x0a, 0xf3, 0xff,
  0x16, 0xe8, 0xf5, 0x10, 0xfc, 0x0c, 0xfa, 0xff, 0x00, 0x1b, 0xd3, 0x03,
  0xe2, 0xff, 0x04, 0xf3, 0x0c, 0xef, 0x08, 0xfb, 0x06, 0xe8, 0xfa, 0xf9,
  0x06, 0x14, 0x0e, 0xbd, 0xf6, 0x0d, 0x00, 0x1a, 0x05, 0xee, 0x0d, 0x0d,
  0xfc, 0x0e, 0xfc, 0xff, 0xf7, 0xfc, 0xf0, 0xf8, 0xf2, 0x09, 0x05, 0xeb,
  0xf3, 0xf1, 0x07, 0xf9, 0xf8, 0xdf, 0xf4, 0x0b, 0x21, 0xf6, 0xf8, 0xc1,
  0xfa, 0x23, 0x06, 0x14, 0x08, 0x06, 0x16, 0x06, 0xf3, 0x0f, 0xfc, 0x24,
  0x05, 0xf7, 0x0e, 0x04, 0xf0, 0x26, 0x0d, 0xdc, 0x08, 0xe8, 0xf8, 0x0b,
  0xf2, 0xf9, 0xdc, 0x05, 0x0b, 0xd1, 0xf8, 0xe5, 0x01, 0x18, 0x08, 0x04,
  0x19, 0xf1, 0x14, 0x06, 0x26, 0x1c, 0x11, 0x20, 0x16, 0xe0, 0x0f, 0xec,
  0xff, 0x1f, 0x1a, 0xe2, 0x1b, 0x0c, 0xff, 0x15, 0xdd, 0x18, 0xf0, 0xfc,
  0xf7, 0xd6, 0xf2, 0xf3, 0x09, 0x1c, 0x00, 0x18, 0x1e, 0x06, 0x08, 0xf7,
  0x20, 0x01, 0x19, 0x12, 0x1c, 0xe3, 0x03, 0xf3, 0xff, 0xfc, 0x11, 0xee,
  0x11, 0xfe, 0xf9, 0xe5, 0x03, 0x0b, 0xf5, 0xf0, 0xf7, 0xfb, 0xf7, 0xf3,
  0xfd, 0x15, 0x06, 0x15, 0x05, 0xf1, 0xee, 0x0a, 0x10, 0xfb, 0x03, 0x0f,
  0x01, 0x11, 0xea, 0xf0, 0xeb, 0xfc, 0x1c, 0x05, 0x08, 0xe8, 0x0b, 0xf1,
  0xfc, 0xee, 0xfc, 0x01, 0x09, 0x00, 0x08, 0xd5, 0x00, 0x1a, 0x06, 0x0d,
  0xf1, 0xf8, 0xfc, 0x0d, 0xfa, 0x20, 0x02, 0x19, 0xf0, 0x02, 0x0f, 0xfa,
  0xed, 0x21, 0xf5, 0xf2, 0x08, 0xe0, 0x01, 0xf0, 0xe5, 0xf4, 0xe8, 0xf7,
  0x0c, 0xf2, 0x0e, 0xd2, 0x00, 0x10, 0xf5, 0xe9, 0x06, 0xfb, 0xff, 0x02,
  0xf8, 0x13, 0xf5, 0x08, 0x12, 0xf1, 0x21, 0x07, 0x0c, 0x2c, 0xfc, 0xdc,
  0x1c, 0xe7, 0xf5, 0xf2, 0xe0, 0xfc, 0xca, 0xf6, 0x12, 0xdb, 0xf4, 0xd9,
  0x00, 0x0c, 0xf2, 0xfd, 0x11, 0xfe, 0x0a, 0xed, 0x09, 0x0b, 0x0e, 0x19,
  0x25, 0xd1, 0x23, 0xeb, 0x0d, 0x24, 0x16, 0xd5, 0x0f, 0xfc, 0xfc, 0xfd,
  0xd4, 0xfe, 0xd1, 0xde, 0xef, 0xe2, 0x06, 0xe8, 0xfc, 0x1f, 0x04, 0x1a,
  0x19, 0x14, 0x04, 0xe4, 0x18, 0x0a, 0x0b, 0x1b, 0x28, 0xf2, 0x11, 0xed,
  0x1a, 0x0b, 0x1a, 0xdd, 0x09, 0x0b, 0xf6, 0xf4, 0x02, 0x1b, 0xdf, 0xff,
  0xf5, 0xf9, 0x06, 0xd2, 0x07, 0x1a, 0x12, 0x12, 0xff, 0xee, 0xf4, 0xf3,
  0xf4, 0x11, 0x09, 0x0f, 0x0c, 0x0d, 0xf7, 0xf2, 0x05, 0x2e, 0x0d, 0x06,
  0x22, 0x02, 0x05, 0xd4, 0xf9, 0x13, 0xf3, 0xf5, 0xfa, 0x08, 0xf9, 0xda,
  0x0c, 0x15, 0xf1, 0xfe, 0x0e, 0xfd, 0xe4, 0xfa, 0x08, 0x11, 0xfd, 0x0c,
  0x08, 0x08, 0x0d, 0xe0, 0xf0, 0x2c, 0x27, 0xf0, 0x1e, 0xf8, 0xfe, 0xd8,
  0xee, 0x22, 0xde, 0xff, 0x08, 0xff, 0xf8, 0xb7, 0x0a, 0x22, 0xe1, 0xee,
  0x11, 0xfc, 0xe4, 0x14, 0xf4, 0x15, 0x02, 0x08, 0x16, 0xf5, 0x04, 0xd4,
  0x05, 0x21, 0x1c, 0xdc, 0x2f, 0xf2, 0x00, 0xdc, 0xff, 0x28, 0xd1, 0x04,
  0x02, 0xee, 0xf5, 0xb6, 0x14, 0xf4, 0xec, 0xf0, 0x01, 0xf8, 0xdb, 0x00,
  0x06, 0xf5, 0x0c, 0xfd, 0x11, 0xdf, 0x10, 0xf2, 0xee, 0x18, 0x01, 0xe5,
  0x11, 0xe3, 0x18, 0x03, 0xf4, 0xf8, 0xdb, 0xfd, 0x02, 0xf7, 0x0f, 0xdc,
  0xf4, 0xea, 0xe4, 0x00, 0x11, 0x23, 0xe5, 0xf7, 0xf6, 0xe5, 0x09, 0xdc,
  0x00, 0x03, 0x16, 0x14, 0x0a, 0xf6, 0x01, 0xf4, 0x07, 0xf8, 0xf9, 0x00,
  0xf9, 0x06, 0xf9, 0x02, 0xff, 0xfb, 0x06, 0x03, 0xfd, 0x04, 0xf8, 0x09,
  0xfa, 0x01, 0xf4, 0xfb, 0xfa, 0xfa, 0x06, 0x01, 0x04, 0xfb, 0xf8, 0xf4,
  0xf9, 0xfd, 0x04, 0x05, 0xf5, 0x00, 0x06, 0x00, 0x09, 0xf9, 0xfc, 0xff,
  0xf8, 0xfa, 0x05, 0xfe, 0xfb, 0xf4, 0xf6, 0xf7, 0x00, 0xff, 0x03, 0xfa,
  0xfa, 0x06, 0xf5, 0xfb, 0xfd, 0xff, 0x01, 0xf5, 0xf8, 0xfd, 0x09, 0x02,
  0xf9, 0x07, 0xf5, 0xf4, 0xfd, 0xf6, 0xf9, 0xff, 0xf6, 0xfd, 0x03, 0xfd,
  0xf6, 0xf3, 0xfb, 0xf8, 0x01, 0x03, 0x04, 0x00, 0x00, 0xfa, 0xff, 0xf9,
  0xfb, 0xf4, 0x03, 0xf5, 0xfd, 0x03, 0x01, 0xfb, 0x01, 0x04, 0xff, 0xf7,
  0x09, 0xfb, 0xf9, 0xfb, 0xf4, 0xf8, 0xfc, 0x00, 0x02, 0xfd, 0xf6, 0xf8,
  0x08, 0x04, 0xfe, 0xf4, 0x06, 0xf9, 0x05, 0xf9, 0x05, 0xf7, 0x00, 0xf7,
  0xfe, 0x02, 0x03, 0x06, 0xfc, 0xfc, 0x05, 0xfd, 0xfd, 0xf4, 0x00, 0xf6,
  0xf2, 0xff, 0xff, 0xff, 0xf9, 0x03, 0x05, 0xf5, 0x03, 0xf3, 0xf1, 0xfd,
  0x02, 0xf6, 0xfb, 0x02, 0xff, 0xfb, 0x07, 0xfc, 0xf9, 0xf7, 0xf8, 0xfd,
  0xfa, 0xef, 0x07, 0xf5, 0x02, 0xfb, 0x03, 0xf6, 0xfd, 0x04, 0xfb, 0x04,
  0xfd, 0xf4, 0xfd, 0x03, 0xf5, 0xfc, 0xfe, 0xfa, 0xf6, 0x01, 0xf8, 0x04,
  0xfd, 0x03, 0xf3, 0xf6, 0xf8, 0x05, 0xfc, 0xf8, 0x03, 0x02, 0x01, 0x07,
  0xfa, 0xf7, 0xfa, 0xf6, 0xf8, 0xf5, 0xf3, 0xf7, 0xf3, 0xf4, 0xff, 0xf7,
  0xfb, 0x02, 0xfb, 0xf5, 0xfc, 0xf5, 0xfa, 0xfc, 0x03, 0x04, 0x03, 0x01,
  0x07, 0x02, 0x07, 0xfb, 0xfb, 0xf7, 0xff, 0xf7, 0xfa, 0x04, 0xf4, 0xfc,
  0xf8, 0xfc, 0xf0, 0x03, 0x00, 0xfc, 0xf9, 0xf7, 0xf9, 0x04, 0xf6, 0xfa,
  0xf5, 0xff, 0xfb, 0x00, 0x04, 0xf8, 0xf8, 0xf9, 0xf8, 0xfd, 0xf2, 0xfa,
  0xfc, 0xfd, 0x03, 0xf5, 0xfb, 0x05, 0xf8, 0xf4, 0xf7, 0xf8, 0xff, 0xfd,
  0xf3, 0x07, 0xff, 0xf7, 0xf4, 0xf9, 0x03, 0xfd, 0xf8, 0xf5, 0xf8, 0x00,
  0xfd, 0x04, 0x00, 0xfa, 0x05, 0xf8, 0xff, 0x02, 0x03, 0xf6, 0xf3, 0xfd,
  0x06, 0xf5, 0xf8, 0x02, 0xfe, 0xfb, 0xfa, 0x01, 0x04, 0xfe, 0xf9, 0x03,
  0xfb, 0xff, 0xfa, 0xf9, 0x01, 0xf3, 0xfe, 0xf7, 0xf8, 0xfc, 0xf9, 0x02,
  0xf7, 0x00, 0xfb, 0xfe, 0xfe, 0xef, 0xfc, 0xfb, 0x01, 0xff, 0xfb, 0xf4,
  0x04, 0x00, 0xf4, 0x00, 0x03, 0xf8, 0x03, 0xfa, 0xf2, 0xf6, 0x02, 0x06,
  0xf6, 0x00, 0xfc, 0xf8, 0xfe, 0xfd, 0xfc, 0xfe, 0x03, 0xff, 0xfe, 0x00,
  0xff, 0xf8, 0x03, 0xf8, 0x05, 0x04, 0x00, 0x00, 0x00, 0xfd, 0xfd, 0xfa,
  0xf8, 0xf9, 0xfc, 0xff, 0xff, 0xfb, 0xfc, 0xfc, 0x00, 0x03, 0xfe, 0xf9,
  0xf2, 0xf5, 0xfb, 0xf3, 0xf4, 0xf9, 0xfa, 0xf8, 0xf8, 0xf8, 0xef, 0x04,
  0xf3, 0xfe, 0xfc, 0xf3, 0xf1, 0xf7, 0xf7, 0xfe, 0x00, 0x01, 0xfd, 0xf0,
  0xf9, 0x06, 0x00, 0xf7, 0xf6, 0xfa, 0xfe, 0x05, 0xfc, 0xfe, 0xf9, 0x03,
  0x00, 0x04, 0x04, 0xf6, 0x08, 0x0a, 0xfa, 0xf7, 0xfb, 0xfb, 0xf6, 0x08,
  0x04, 0xfe, 0xf7, 0x01, 0x04, 0xfe, 0x00, 0xfa, 0xfc, 0x0c, 0xfa, 0xf7,
  0xf6, 0x02, 0x00, 0x02, 0xfc, 0x03, 0x00, 0xf8, 0xf4, 0x05, 0x03, 0xfd,
  0xf9, 0xfe, 0x00, 0xfa, 0xfa, 0x04, 0xf6, 0x0b, 0xfb, 0xf7, 0x03, 0xf7,
  0x08, 0x04, 0xf8, 0xfa, 0xf9, 0x04, 0xfd, 0xfa, 0x00, 0x01, 0xff, 0xfe,
  0x04, 0xf9, 0x08, 0x07, 0xf9, 0xfb, 0x00, 0xfb, 0x02, 0x04, 0x06, 0xf4,
  0x01, 0x01, 0xfa, 0xff, 0xfd, 0xf6, 0xf4, 0xf5, 0xfa, 0x05, 0xf7, 0x02,
  0x02, 0xf4, 0x03, 0xf8, 0x02, 0x02, 0x04, 0x06, 0xfb, 0x04, 0xfa, 0x00,
  0x00, 0xfb, 0x08, 0xfe, 0xf9, 0xf3, 0xf8, 0x03, 0x07, 0x02, 0xfb, 0x06,
  0xf5, 0xfb, 0xf9, 0x07, 0xff, 0xfb, 0xfc, 0xf4, 0x01, 0x02, 0x05, 0xf6,
  0x02, 0xfc, 0xf2, 0x02, 0xf4, 0x06, 0xf7, 0xf7, 0xf5, 0xfb, 0xfc, 0xf9,
  0x05, 0xf7, 0x03, 0xfe, 0xfa, 0x00, 0xf7, 0xf9, 0x05, 0xf9, 0xf4, 0xf6,
  0x02, 0x01, 0xf9, 0x02, 0xfa, 0x0d, 0xf3, 0xf4, 0xfc, 0xfb, 0xf5, 0xf5,
  0x06, 0xff, 0x05, 0xf9, 0xf6, 0xf8, 0xf5, 0xfd, 0xf8, 0x03, 0xfb, 0x03,
  0x00, 0x06, 0x00, 0xf7, 0x08, 0xf6, 0x03, 0x01, 0xf7, 0xfa, 0x00, 0xf8,
  0xfe, 0x04, 0xf9, 0x05, 0x03, 0x05, 0x01, 0xff, 0x01, 0xf6, 0xfc, 0x03,
  0xf5, 0xfa, 0x08, 0xfe, 0x09, 0x01, 0xfb, 0xf5, 0x07, 0x03, 0xf8, 0x05,
  0xf7, 0xfe, 0xf6, 0x02, 0x01, 0xfb, 0xfa, 0x04, 0xfd, 0xf3, 0x09, 0xfe,
  0xfa, 0xfa, 0xfe, 0xff, 0xfe, 0xf9, 0xf8, 0x06, 0xfa, 0x06, 0xfe, 0x06,
  0x03, 0xf5, 0xf4, 0xf9, 0xfe, 0xf8, 0xfe, 0xfa, 0xfd, 0x04, 0xf5, 0xf9,
  0x01, 0x00, 0xf7, 0x06, 0x01, 0xfc, 0x01, 0xfc, 0x08, 0x01, 0xf8, 0xf8,
  0x00, 0xfd, 0xff, 0xfc, 0xff, 0xff, 0xff, 0xf3, 0x04, 0xf9, 0x02, 0xf6,
  0xf6, 0xff, 0x01, 0x04, 0xf8, 0xf7, 0xf4, 0xf9, 0x02, 0xff, 0x03, 0xff,
  0xf2, 0xf1, 0x03, 0xf2, 0xfb, 0x05, 0x06, 0xfc, 0xf8, 0x08, 0xf8, 0xfe,
  0xf3, 0xff, 0x01, 0xfc, 0x02, 0xf1, 0xf6, 0x03, 0xfd, 0x08, 0xf3, 0x00,
  0xf9, 0xf9, 0xf8, 0x04, 0xff, 0x05, 0x04, 0xf9, 0xf9, 0xf7, 0xfe, 0xff,
  0xf5, 0xfa, 0xfe, 0x02, 0xfb, 0x06, 0x03, 0x02, 0xf9, 0x08, 0x04, 0xfb,
  0x05, 0x03, 0x08, 0xfc, 0x06, 0x07, 0xf5, 0xf4, 0x07, 0x04, 0xf6, 0x00,
  0xf9, 0xfe, 0xfa, 0x04, 0xf9, 0x0a, 0xf7, 0x04, 0xf9, 0xf8, 0x04, 0x01,
  0xf7, 0xfd, 0x03, 0xfa, 0xf9, 0xff, 0x07, 0x00, 0x05, 0xf6, 0xfc, 0xf6,
  0x00, 0x01, 0x05, 0x08, 0x0a, 0x07, 0xfa, 0x07, 0x04, 0xf9, 0xf6, 0xfa,
  0x05, 0x05, 0x0a, 0x07, 0x07, 0x04, 0x03, 0x08, 0xf5, 0xf3, 0x0a, 0xfd,
  0xf9, 0xfc, 0x03, 0x02, 0x08, 0x16, 0x03, 0x01, 0x0c, 0x08, 0x0f, 0x13,
  0xf9, 0xfa, 0xf6, 0xfd, 0x0a, 0x01, 0x17, 0x06, 0x00, 0xfb, 0x11, 0x0e,
  0x0d, 0x04, 0x03, 0x0d, 0x0c, 0x07, 0x01, 0xfa, 0x06, 0xfc, 0xf4, 0x0c,
  0x0d, 0x28, 0x12, 0xf1, 0x0c, 0x11, 0x0a, 0x0b, 0xfd, 0xfd, 0x0e, 0x15,
  0x0c, 0x04, 0xfc, 0x1b, 0xfa, 0x05, 0xfa, 0x0a, 0x0c, 0x09, 0x12, 0x08,
  0x05, 0xf4, 0xfa, 0x02, 0x13, 0x0c, 0x1d, 0x0e, 0x06, 0x05, 0x04, 0xec,
  0x05, 0x0e, 0x15, 0x10, 0x06, 0x06, 0xf7, 0x05, 0x1a, 0x07, 0xfa, 0x09,
  0x11, 0xfa, 0xfb, 0x09, 0x0c, 0x01, 0x11, 0x10, 0x00, 0x0a, 0x0a, 0x15,
  0xf6, 0x0a, 0x05, 0x1b, 0xee, 0x10, 0x11, 0xf4, 0x05, 0xf6, 0x14, 0x07,
  0x13, 0x06, 0x07, 0x01, 0x06, 0xf0, 0x02, 0x1a, 0x17, 0x0b, 0x08, 0x0c,
  0xeb, 0x0a, 0x15, 0x0a, 0x0a, 0x10, 0x0e, 0x08, 0x1c, 0x08, 0x1a, 0xfd,
  0xf0, 0x04, 0x10, 0xf9, 0x0d, 0x05, 0x19, 0x08, 0xe9, 0x03, 0xff, 0x09,
  0xec, 0xeb, 0x01, 0x03, 0x1c, 0x03, 0x09, 0x11, 0x15, 0xf7, 0x1f, 0x0a,
  0x05, 0x14, 0x12, 0xfe, 0x10, 0xfd, 0x07, 0x14, 0x0d, 0x09, 0x1d, 0xda,
  0x03, 0x08, 0xfd, 0x09, 0xfa, 0x0b, 0xfa, 0xeb, 0xf7, 0x03, 0x04, 0x0d,
  0x13, 0x03, 0xf7, 0xf9, 0x10, 0x01, 0x10, 0x0c, 0x07, 0x06, 0xf3, 0xf2,
  0xfd, 0x00, 0x13, 0x02, 0x0b, 0x1d, 0x0c, 0xe0, 0x01, 0x03, 0x05, 0x00,
  0xfd, 0xf6, 0x08, 0x08, 0xf9, 0x02, 0x02, 0x13, 0x18, 0x00, 0xef, 0xf4,
  0x12, 0xfe, 0x0b, 0xfd, 0xfc, 0xff, 0xe3, 0x02, 0xfb, 0x04, 0x0b, 0x06,
  0x09, 0xfd, 0xfa, 0x05, 0x17, 0xfb, 0x0f, 0x07, 0x0c, 0x0d, 0xff, 0x01,
  0xf8, 0x03, 0x02, 0x02, 0x19, 0x04, 0xec, 0x03, 0x0b, 0x10, 0x19, 0xff,
  0xea, 0xf2, 0xf7, 0x04, 0xfa, 0xfd, 0x03, 0x00, 0xfe, 0x02, 0x04, 0x02,
  0x01, 0xf0, 0x12, 0xf9, 0xf8, 0x11, 0xf4, 0x03, 0xf5, 0xe4, 0xfc, 0x05,
  0x0e, 0xf9, 0xf8, 0x0c, 0xff, 0x0a, 0x0f, 0x0f, 0xfe, 0x09, 0x05, 0x1e,
