unsigned char digits_model_28x28_int8_augmented_cnn_tflite[] = {
  0x1c, 0x00, 0x00, 0x00, 0x54, 0x46, 0x4c, 0x33, 0x14, 0x00, 0x20, 0x00,
  0x1c, 0x00, 0x18, 0x00, 0x14, 0x00, 0x10, 0x00, 0x0c, 0x00, 0x00, 0x00,
  0x08, 0x00, 0x04, 0x00, 0x14, 0x00, 0x00, 0x00, 0x1c, 0x00, 0x00, 0x00,
  0x88, 0x00, 0x00, 0x00, 0xe0, 0x00, 0x00, 0x00, 0x48, 0xe1, 0x00, 0x00,
  0x58, 0xe1, 0x00, 0x00, 0x30, 0xf2, 0x00, 0x00, 0x03, 0x00, 0x00, 0x00,
  0x01, 0x00, 0x00, 0x00, 0x04, 0x00, 0x00, 0x00, 0xae, 0x1d, 0xff, 0xff,
  0x0c, 0x00, 0x00, 0x00, 0x1c, 0x00, 0x00, 0x00, 0x38, 0x00, 0x00, 0x00,
  0x0f, 0x00, 0x00, 0x00, 0x73, 0x65, 0x72, 0x76, 0x69, 0x6e, 0x67, 0x5f,
  0x64, 0x65, 0x66, 0x61, 0x75, 0x6c, 0x74, 0x00, 0x01, 0x00, 0x00, 0x00,
  0x04, 0x00, 0x00, 0x00, 0x94, 0xff, 0xff, 0xff, 0x11, 0x00, 0x00, 0x00,
  0x04, 0x00, 0x00, 0x00, 0x07, 0x00, 0x00, 0x00, 0x64, 0x65, 0x6e, 0x73,
  0x65, 0x5f, 0x31, 0x00, 0x01, 0x00, 0x00, 0x00, 0x04, 0x00, 0x00, 0x00,
  0x8e, 0x1e, 0xff, 0xff, 0x04, 0x00, 0x00, 0x00, 0x0c, 0x00, 0x00, 0x00,
  0x63, 0x6f, 0x6e, 0x76, 0x32, 0x64, 0x5f, 0x69, 0x6e, 0x70, 0x75, 0x74,
  0x00, 0x00, 0x00, 0x00, 0x02, 0x00, 0x00, 0x00, 0x34, 0x00, 0x00, 0x00,
  0x04, 0x00, 0x00, 0x00, 0xdc, 0xff, 0xff, 0xff, 0x14, 0x00, 0x00, 0x00,
  0x04, 0x00, 0x00, 0x00, 0x13, 0x00, 0x00, 0x00, 0x43, 0x4f, 0x4e, 0x56,
  0x45, 0x52, 0x53, 0x49, 0x4f, 0x4e, 0x5f, 0x4d, 0x45, 0x54, 0x41, 0x44,
  0x41, 0x54, 0x41, 0x00, 0x08, 0x00, 0x0c, 0x00, 0x08, 0x00, 0x04, 0x00,
  0x08, 0x00, 0x00, 0x00, 0x13, 0x00, 0x00, 0x00, 0x04, 0x00, 0x00, 0x00,
  0x13, 0x00, 0x00, 0x00, 0x6d, 0x69, 0x6e, 0x5f, 0x72, 0x75, 0x6e, 0x74,
  0x69, 0x6d, 0x65, 0x5f, 0x76, 0x65, 0x72, 0x73, 0x69, 0x6f, 0x6e, 0x00,
  0x15, 0x00, 0x00, 0x00, 0x64, 0xe0, 0x00, 0x00, 0x5c, 0xe0, 0x00, 0x00,
  0x44, 0xe0, 0x00, 0x00, 0x0c, 0xe0, 0x00, 0x00, 0x7c, 0xdd, 0x00, 0x00,
  0x6c, 0xdc, 0x00, 0x00, 0x5c, 0x14, 0x00, 0x00, 0xcc, 0x13, 0x00, 0x00,
  0xbc, 0x01, 0x00, 0x00, 0x6c, 0x01, 0x00, 0x00, 0xcc, 0x00, 0x00, 0x00,
  0xc4, 0x00, 0x00, 0x00, 0xbc, 0x00, 0x00, 0x00, 0xb4, 0x00, 0x00, 0x00,
  0xac, 0x00, 0x00, 0x00, 0xa4, 0x00, 0x00, 0x00, 0x9c, 0x00, 0x00, 0x00,
  0x94, 0x00, 0x00, 0x00, 0x8c, 0x00, 0x00, 0x00, 0x6c, 0x00, 0x00, 0x00,
  0x04, 0x00, 0x00, 0x00, 0x5e, 0x1f, 0xff, 0xff, 0x04, 0x00, 0x00, 0x00,
  0x58, 0x00, 0x00, 0x00, 0x0c, 0x00, 0x00, 0x00, 0x08, 0x00, 0x0e, 0x00,
  0x08, 0x00, 0x04, 0x00, 0x08, 0x00, 0x00, 0x00, 0x10, 0x00, 0x00, 0x00,
  0x28, 0x00, 0x00, 0x00, 0x00, 0x00, 0x06, 0x00, 0x08, 0x00, 0x04, 0x00,
  0x06, 0x00, 0x00, 0x00, 0x04, 0x00, 0x00, 0x00, 0x01, 0x00, 0x00, 0x00,
  0xeb, 0x03, 0x00, 0x00, 0x00, 0x00, 0x0a, 0x00, 0x10, 0x00, 0x0c, 0x00,
  0x08, 0x00, 0x04, 0x00, 0x0a, 0x00, 0x00, 0x00, 0x02, 0x00, 0x00, 0x00,
  0x02, 0x00, 0x00, 0x00, 0x04, 0x00, 0x00, 0x00, 0x06, 0x00, 0x00, 0x00,
  0x32, 0x2e, 0x31, 0x30, 0x2e, 0x31, 0x00, 0x00, 0xc2, 0x1f, 0xff, 0xff,
  0x04, 0x00, 0x00, 0x00, 0x10, 0x00, 0x00, 0x00, 0x31, 0x2e, 0x31, 0x34,
  0x2e, 0x30, 0x00, 0x00, 0x00, 0x00, 0x00, 0x00, 0x00, 0x00, 0x00, 0x00,
  0x60, 0x10, 0xff, 0xff, 0x64, 0x10, 0xff, 0xff, 0x68, 0x10, 0xff, 0xff,
  0x6c, 0x10, 0xff, 0xff, 0x70, 0x10, 0xff, 0xff, 0x74, 0x10, 0xff, 0xff,
  0x78, 0x10, 0xff, 0xff, 0x7c, 0x10, 0xff, 0xff, 0xfe, 0x1f, 0xff, 0xff,
  0x04, 0x00, 0x00, 0x00, 0x90, 0x00, 0x00, 0x00, 0x14, 0x92, 0x15, 0x5f,
  0x90, 0xb4, 0x7f, 0x12, 0xd4, 0x33, 0x15, 0x19, 0xf7, 0x08, 0x31, 0x81,
  0xe2, 0x44, 0x21, 0xfc, 0x3b, 0x04, 0xe8, 0x27, 0x7f, 0x11, 0x70, 0x31,
  0x98, 0x81, 0x3e, 0x9b, 0xbb, 0x2e, 0x2e, 0x37, 0x32, 0x17, 0x00, 0x21,
  0xf6, 0xe8, 0x12, 0xc0, 0x81, 0xfa, 0xed, 0x81, 0x40, 0x2e, 0xc0, 0x28,
  0x58, 0xe4, 0xeb, 0x81, 0x23, 0x5c, 0xc5, 0xbe, 0x4f, 0x27, 0x09, 0x81,
  0xfa, 0x5a, 0x92, 0x21, 0x35, 0x9d, 0x02, 0x74, 0x3b, 0x14, 0x46, 0x6a,
  0x20, 0xc4, 0x07, 0x9b, 0x81, 0x37, 0xec, 0xda, 0xfb, 0x67, 0xd9, 0x5b,
  0xec, 0x81, 0x46, 0x0d, 0xb5, 0x31, 0x1b, 0xbb, 0x5d, 0x12, 0x81, 0xcd,
  0xad, 0xd6, 0x22, 0xca, 0xa2, 0x60, 0x7f, 0x37, 0x7f, 0xd9, 0xc8, 0xfc,
  0x81, 0x06, 0xc5, 0x24, 0x67, 0x85, 0x81, 0xdb, 0xc4, 0x03, 0x79, 0x39,
  0x5a, 0x3e, 0x1e, 0x63, 0x4d, 0xe2, 0x25, 0x25, 0xa1, 0x81, 0xda, 0xb8,
  0xb7, 0x81, 0xf3, 0xf0, 0xe9, 0x5a, 0x60, 0x7b, 0x9a, 0x20, 0xff, 0xff,
  0x04, 0x00, 0x00, 0x00, 0x40, 0x00, 0x00, 0x00, 0x82, 0xfb, 0xff, 0xff,
  0x3c, 0xad, 0xff, 0xff, 0x0c, 0x2c, 0xff, 0xff, 0xc1, 0xc6, 0xff, 0xff,
  0x65, 0xe5, 0xff, 0xff, 0x78, 0xfb, 0xff, 0xff, 0x26, 0xfa, 0xff, 0xff,
  0xcd, 0xfc, 0xff, 0xff, 0xb6, 0xff, 0xff, 0xff, 0xef, 0xd6, 0xff, 0xff,
  0xeb, 0xfa, 0xff, 0xff, 0x53, 0xfc, 0xff, 0xff, 0x55, 0xff, 0xff, 0xff,
  0x5e, 0xf9, 0xff, 0xff, 0x4e, 0xfe, 0xff, 0xff, 0x75, 0xfa, 0xff, 0xff,
  0xe6, 0x20, 0xff, 0xff, 0x04, 0x00, 0x00, 0x00, 0x00, 0x12, 0x00, 0x00,
  0x14, 0x17, 0xe7, 0xf8, 0xc6, 0x22, 0x0c, 0xf7, 0x08, 0xf5, 0xea, 0x0f,
  0x2a, 0x0f, 0x13, 0xff, 0xea, 0xf8, 0xe6, 0xde, 0xcb, 0xe5, 0x0d, 0xd4,
  0xee, 0xd7, 0x10, 0xe3, 0x37, 0xe7, 0xe0, 0xe6, 0xf9, 0xfe, 0x0d, 0xda,
  0x0c, 0xee, 0xda, 0x2f, 0x29, 0x18, 0x2c, 0xe9, 0x36, 0x1e, 0xe2, 0xf9,
  0xfe, 0xfb, 0xe2, 0xd9, 0xcc, 0xed, 0x06, 0x0b, 0x0a, 0x00, 0xfb, 0xe0,
  0x54, 0x00, 0xcb, 0xf9, 0xd4, 0xf2, 0x02, 0xc9, 0xe2, 0xe0, 0xd9, 0x05,
  0x0b, 0xf4, 0x19, 0xdd, 0x6a, 0x1a, 0xdc, 0x04, 0xf7, 0xf1, 0xf9, 0xd5,
  0xf7, 0xd8, 0xdf, 0x18, 0x1d, 0x05, 0x23, 0xde, 0x7f, 0x27, 0xf8, 0xe7,
  0x04, 0xfc, 0x08, 0xe3, 0xef, 0xf8, 0xe8, 0x2e, 0x0e, 0x03, 0x12, 0x08,
  0x2b, 0xf6, 0xed, 0xf6, 0x31, 0x18, 0xf8, 0xe7, 0xd3, 0x1f, 0xfe, 0xef,
  0x00, 0xe9, 0x24, 0xf3, 0x35, 0xf1, 0x09, 0xfb, 0x16, 0xfa, 0xde, 0x0c,
  0xc4, 0x04, 0x08, 0x08, 0xfc, 0xe0, 0x1b, 0xf3, 0x39, 0x04, 0x00, 0xd9,
  0x18, 0xfd, 0x03, 0x1e, 0x05, 0x3f, 0x28, 0x49, 0xd3, 0x08, 0x10, 0xf3,
  0xbf, 0xf7, 0x0a, 0xd0, 0x2e, 0xfc, 0x14, 0x3e, 0x04, 0x17, 0x34, 0x29,
  0xf7, 0x20, 0x0b, 0x00, 0x00, 0xbd, 0xc7, 0xb1, 0x2b, 0x08, 0xe7, 0xeb,
  0xd6, 0x1a, 0xe3, 0x62, 0xfd, 0x15, 0x40, 0xad, 0x22, 0xd5, 0x89, 0x81,
  0x00, 0xdb, 0xfa, 0xbf, 0x1b, 0xea, 0x0e, 0x19, 0x09, 0x2f, 0x33, 0xcb,
  0x11, 0xfc, 0xab, 0x00, 0x0f, 0x22, 0x0b, 0x08, 0x02, 0x12, 0xe6, 0x39,
  0xf2, 0x1e, 0x0d, 0xd6, 0x08, 0xff, 0xb6, 0xd2, 0x19, 0xfe, 0xe0, 0x16,
  0xf3, 0xe5, 0xbc, 0x53, 0x02, 0x0a, 0x38, 0x85, 0x36, 0xea, 0x87, 0x97,
  0xd7, 0xd4, 0x24, 0xcf, 0x1a, 0xbb, 0xa4, 0x3a, 0x21, 0x1e, 0x32, 0xcf,
  0x6d, 0x57, 0xec, 0x22, 0xf2, 0xf5, 0xfd, 0xd4, 0x08, 0xe3, 0xe7, 0x31,
  0x26, 0x11, 0x0f, 0xba, 0x46, 0x10, 0xc2, 0xee, 0xf9, 0xf2, 0x16, 0xcc,
  0x04, 0xe7, 0xdc, 0x1e, 0x06, 0x11, 0x26, 0xcf, 0x07, 0x06, 0xba, 0xea,
  0x1c, 0xe7, 0x16, 0xed, 0x07, 0x11, 0xe7, 0x22, 0x25, 0x19, 0x00, 0x03,
  0x13, 0x0a, 0xe2, 0x09, 0x21, 0x1a, 0x0b, 0xe5, 0xd9, 0x43, 0x24, 0x09,
  0xe0, 0x02, 0xd3, 0x17, 0x21, 0x30, 0x02, 0xf6, 0x47, 0x16, 0x1a, 0xed,
  0xd0, 0x3d, 0x4d, 0xfe, 0xc6, 0xd7, 0xc9, 0x4c, 0x1f, 0x26, 0xf1, 0x23,
  0xff, 0xf8, 0x02, 0xf2, 0xf7, 0xfc, 0xbb, 0x0a, 0x01, 0x1b, 0xec, 0xe6,
  0x22, 0xf0, 0x33, 0xdd, 0xf2, 0xe4, 0xfa, 0xf6, 0xe5, 0xfe, 0x1c, 0xc8,
  0x46, 0x15, 0xe3, 0x20, 0xe3, 0xf3, 0x7f, 0xe6, 0xdd, 0xfe, 0x06, 0xd8,
  0x02, 0xe0, 0xc5, 0xc9, 0x40, 0xe9, 0xbe, 0xca, 0xfa, 0xf8, 0x69, 0xda,
  0x3e, 0x02, 0xfb, 0xd1, 0xe1, 0x1f, 0x1a, 0x0e, 0xcc, 0x12, 0xf6, 0x3b,
  0xf3, 0xfb, 0xf8, 0x1f, 0xe5, 0xfb, 0xe3, 0xa6, 0xe3, 0x01, 0x20, 0xb9,
  0xdc, 0xd8, 0xc4, 0x31, 0x19, 0x0f, 0xda, 0x35, 0x12, 0xdf, 0xf8, 0xa7,
  0xef, 0x15, 0xfa, 0xeb, 0x27, 0xe0, 0xef, 0x19, 0x03, 0x21, 0xde, 0x01,
  0x0a, 0xf6, 0xff, 0x18, 0xc8, 0x24, 0x20, 0xd2, 0xe3, 0x03, 0x08, 0x2d,
  0x13, 0x0d, 0x81, 0x0b, 0xf4, 0xcb, 0xdc, 0xd0, 0xf2, 0xe8, 0xe8, 0x10,
  0xf3, 0xec, 0xf2, 0xed, 0x54, 0x02, 0xe9, 0xf0, 0xcd, 0xfe, 0xf1, 0xe4,
  0x25, 0x9f, 0x88, 0x00, 0x16, 0x07, 0x05, 0xb2, 0x74, 0xd6, 0x30, 0xdd,
  0xff, 0x19, 0x22, 0xf3, 0xd5, 0xfa, 0xe0, 0xc7, 0xe4, 0x03, 0xf7, 0x05,
  0x04, 0xe6, 0xf8, 0x17, 0x3c, 0xf5, 0x0f, 0x03, 0x00, 0x1f, 0x13, 0xd2,
  0xf2, 0x13, 0x2b, 0x22, 0x06, 0xfa, 0x9f, 0x04, 0x13, 0xaf, 0xd1, 0x0f,
  0xe0, 0x06, 0x1c, 0xd5, 0x06, 0xd7, 0xf6, 0x1f, 0x1e, 0xeb, 0x3f, 0x0a,
  0xf7, 0x30, 0xfd, 0x11, 0x17, 0x02, 0xd8, 0x04, 0xe4, 0x33, 0xf0, 0xb5,
  0xee, 0xd0, 0x2f, 0xb6, 0x33, 0x3c, 0x04, 0x0b, 0x0c, 0x03, 0x1b, 0x35,
  0xb2, 0xfc, 0x13, 0xfd, 0x07, 0xe0, 0xba, 0xeb, 0x2c, 0xc2, 0x10, 0xf8,
  0xd1, 0x33, 0x3f, 0x9f, 0xf3, 0x0c, 0x19, 0x39, 0xbe, 0xe0, 0x98, 0x22,
  0xff, 0x03, 0xf2, 0xf0, 0xbc, 0x00, 0xd1, 0x9e, 0x9e, 0x04, 0x0f, 0xa0,
  0xbc, 0x81, 0x8b, 0xa6, 0x0f, 0xe6, 0xe7, 0xee, 0xf1, 0x15, 0xf1, 0xe8,
  0xf8, 0x17, 0x06, 0xe4, 0x0b, 0xd5, 0xc6, 0xd8, 0x0e, 0xe6, 0xe5, 0xf3,
  0x05, 0x33, 0x2c, 0xf5, 0x0b, 0x2e, 0x17, 0x28, 0xd4, 0x0c, 0x3d, 0x11,
  0xee, 0x0a, 0x0a, 0xf4, 0xe7, 0xe0, 0xc2, 0xb1, 0xce, 0xdf, 0xeb, 0xa5,
  0xb4, 0xb5, 0xd1, 0xb4, 0xff, 0x03, 0xfe, 0x1f, 0xb4, 0x00, 0x1a, 0xea,
  0xc9, 0xf6, 0xd2, 0x10, 0x05, 0x1b, 0x09, 0x13, 0x0d, 0x05, 0xef, 0x06,
  0xe3, 0x3d, 0x2a, 0x05, 0xe8, 0xe5, 0xda, 0x41, 0xf8, 0x3e, 0x2e, 0x4e,
  0x1e, 0xe7, 0xfa, 0x17, 0xfa, 0x17, 0xd8, 0xc4, 0xf7, 0xdb, 0xe9, 0xb7,
  0xac, 0xb4, 0x28, 0x9b, 0x15, 0x14, 0xec, 0xae, 0xda, 0xff, 0xeb, 0xe1,
  0x16, 0xfe, 0xf4, 0xd4, 0x9b, 0xe9, 0x4d, 0xde, 0xca, 0x1f, 0x0c, 0xd9,
  0xec, 0xe7, 0xd6, 0xdd, 0x19, 0x11, 0xe0, 0xea, 0xfa, 0xe7, 0x62, 0x2d,
  0x0b, 0xea, 0xf5, 0xb7, 0xd6, 0xe5, 0x01, 0x2d, 0xfd, 0xd8, 0x19, 0x1b,
  0x24, 0x10, 0x13, 0x00, 0xc8, 0x2b, 0xf9, 0x18, 0xf2, 0xb1, 0xb6, 0x22,
  0x0d, 0x02, 0xf3, 0xb6, 0x79, 0x1b, 0x42, 0xf3, 0x33, 0xfe, 0x19, 0xd7,
  0xdf, 0x0d, 0x19, 0xb7, 0xfc, 0x2e, 0x33, 0x23, 0x5e, 0x39, 0xe5, 0x28,
  0x2a, 0xf9, 0xea, 0xe2, 0xf7, 0x25, 0x16, 0x07, 0xd8, 0x15, 0x26, 0x1d,
  0xeb, 0xc5, 0xb1, 0x18, 0x15, 0xf9, 0xf6, 0xea, 0xd8, 0xfe, 0xfd, 0x14,
  0xfd, 0xd2, 0xf6, 0xf7, 0x27, 0xc8, 0x1f, 0xc9, 0xb7, 0x17, 0x1b, 0x12,
  0xdb, 0xeb, 0xa6, 0x17, 0xc3, 0xff, 0xd6, 0xc8, 0x69, 0xe1, 0x20, 0xf5,
  0x19, 0x2c, 0xd5, 0xf6, 0xf1, 0x29, 0xfd, 0x4d, 0xc8, 0xe6, 0x14, 0xf7,
  0xcf, 0xdf, 0x5a, 0xce, 0x3d, 0xf3, 0xef, 0xc8, 0xcd, 0x48, 0x59, 0xdd,
  0xdd, 0xfc, 0xf7, 0x20, 0xf6, 0xe0, 0xb8, 0x1f, 0xf1, 0xee, 0xf2, 0xe5,
  0xdc, 0xfb, 0x23, 0x1c, 0x00, 0xfe, 0xf2, 0xff, 0xd2, 0xf0, 0x7f, 0xc3,
  0x3e, 0x12, 0x12, 0x24, 0xfd, 0x2f, 0x30, 0xc3, 0xf3, 0x0c, 0xfc, 0x14,
  0xae, 0xe5, 0xd5, 0xf4, 0xf0, 0x21, 0xfd, 0x0e, 0x13, 0x0e, 0xf4, 0xf2,
  0x0b, 0x01, 0x11, 0xc2, 0x07, 0x1e, 0xf2, 0xf7, 0xec, 0xff, 0x10, 0xfa,
  0x29, 0xe7, 0xbd, 0x14, 0x38, 0x38, 0x11, 0xa8, 0xe0, 0x18, 0x2a, 0xb9,
  0xde, 0xf2, 0xfb, 0xf4, 0xee, 0xef, 0xde, 0x81, 0x0e, 0xed, 0xfe, 0xc6,
  0xd3, 0x8f, 0x10, 0xa7, 0xde, 0xeb, 0x07, 0xc8, 0xe4, 0xe3, 0xce, 0xf7,
  0x1f, 0x07, 0x0c, 0xd2, 0xfe, 0xdd, 0xf4, 0xdc, 0xf7, 0xfe, 0x0c, 0x15,
  0x14, 0x04, 0x11, 0xf7, 0x09, 0x09, 0x0d, 0x19, 0x2f, 0x0a, 0x09, 0x0a,
  0xbc, 0xee, 0xe0, 0xe0, 0xfa, 0xc4, 0xda, 0xf1, 0xea, 0xcc, 0xd2, 0xf8,
  0x2b, 0xf8, 0x15, 0x01, 0xe0, 0xfe, 0x14, 0xe3, 0xe1, 0xea, 0xfc, 0x00,
  0xd2, 0xbf, 0xca, 0x35, 0x3e, 0x22, 0xbe, 0x19, 0xe8, 0x14, 0x0a, 0x16,
  0xf0, 0xe7, 0xf7, 0xfe, 0xd5, 0xea, 0xcc, 0x1a, 0x4a, 0x20, 0xdf, 0x2f,
  0x4e, 0xd8, 0xfc, 0xf9, 0xe2, 0x16, 0x05, 0xf3, 0xcb, 0x15, 0x15, 0x18,
  0xe4, 0xf4, 0x81, 0xf6, 0x1d, 0xed, 0xe9, 0xed, 0x15, 0x1d, 0x1b, 0x14,
  0xe1, 0x16, 0x33, 0x13, 0x1e, 0x0d, 0xde, 0x0f, 0xce, 0xeb, 0xf3, 0xd1,
  0x19, 0xff, 0xf7, 0xfb, 0xd2, 0xf7, 0xd8, 0x2a, 0x60, 0x34, 0x90, 0x22,
  0x16, 0xfe, 0xfe, 0x3f, 0xe0, 0x15, 0x15, 0xcd, 0xee, 0xec, 0xe5, 0xff,
  0xef, 0xde, 0xf7, 0x07, 0x02, 0x01, 0xf0, 0x27, 0xfc, 0x0d, 0x1b, 0xe6,
  0xf5, 0x00, 0xdd, 0x25, 0xfa, 0x22, 0x28, 0x1c, 0xab, 0x09, 0x06, 0xec,
  0x02, 0xcc, 0xf6, 0xe1, 0x12, 0xde, 0xda, 0x0e, 0xde, 0x0f, 0x19, 0xff,
  0xf7, 0xef, 0xe4, 0x09, 0xed, 0xca, 0xcf, 0xec, 0xf1, 0xf3, 0xea, 0xbc,
  0xff, 0x8f, 0x1d, 0x8b, 0xeb, 0xe4, 0xc7, 0xf3, 0x02, 0xd9, 0xcc, 0xea,
  0x0b, 0xfd, 0xe6, 0xd4, 0x26, 0xd1, 0x28, 0xef, 0xee, 0xf1, 0xe3, 0xed,
  0xf4, 0xf2, 0xc3, 0xf3, 0x22, 0x0b, 0x0e, 0xf5, 0x1a, 0xf1, 0x11, 0xee,
  0x0c, 0x15, 0x08, 0xe2, 0xe3, 0x14, 0x46, 0x1e, 0xea, 0xf8, 0x1a, 0x41,
  0x09, 0x18, 0x39, 0x0d, 0x1f, 0xfe, 0x0d, 0x04, 0xf3, 0x1f, 0x16, 0x45,
  0x08, 0xfe, 0x05, 0x16, 0xc9, 0xc5, 0x3a, 0xb5, 0x2d, 0x36, 0x23, 0x1c,
  0xe5, 0x67, 0x18, 0x4f, 0x9d, 0x00, 0xf5, 0xfb, 0xe9, 0xd5, 0x50, 0x03,
  0x20, 0xff, 0xcb, 0x11, 0xe9, 0xf6, 0x10, 0x1a, 0x09, 0xf2, 0x00, 0x2a,
  0xf1, 0xda, 0x28, 0x03, 0x30, 0xea, 0xe6, 0xbe, 0xc1, 0x3b, 0x27, 0x28,
  0xd3, 0x13, 0x19, 0x37, 0xc5, 0xd7, 0xf0, 0xe7, 0x41, 0xfb, 0x1e, 0x11,
  0xe3, 0x40, 0x2d, 0x63, 0xa4, 0xf3, 0xf7, 0xef, 0x9b, 0xbb, 0x25, 0xc1,
  0xfe, 0xce, 0xdf, 0x01, 0x03, 0x0a, 0x1d, 0x2b, 0xf5, 0xeb, 0xe8, 0x15,
  0x3c, 0x0b, 0x26, 0x09, 0x19, 0x08, 0xe2, 0xbc, 0xb6, 0x04, 0x04, 0x32,
  0x00, 0x13, 0x27, 0xed, 0xd7, 0xe8, 0xe4, 0xf7, 0x3c, 0x13, 0xfc, 0xe4,
  0xaf, 0x18, 0x19, 0x7f, 0xf6, 0xfa, 0x1b, 0xe5, 0xf1, 0xc5, 0x51, 0xc0,
  0x15, 0xf4, 0x10, 0x07, 0x2e, 0x07, 0xfa, 0xa1, 0x1b, 0x05, 0x11, 0x05,
  0xfe, 0xf4, 0x0a, 0x06, 0x01, 0xf1, 0xed, 0xf3, 0xed, 0xfc, 0xf9, 0x0b,
  0x07, 0xe9, 0x07, 0x0b, 0xef, 0x0f, 0xf4, 0xf6, 0xc7, 0x0e, 0x01, 0xf1,
  0xf6, 0x9f, 0xc9, 0x1d, 0xf3, 0xcb, 0xf0, 0xcc, 0xfb, 0xf7, 0x04, 0xf6,
  0x22, 0xec, 0x11, 0x02, 0x03, 0x1b, 0x0f, 0x9b, 0x05, 0x10, 0x0b, 0x09,
  0xf7, 0xf3, 0xed, 0x03, 0x08, 0x00, 0xf4, 0xf7, 0xe6, 0xfd, 0xfe, 0x2e,
  0x0a, 0xe2, 0x15, 0xf1, 0xfd, 0x00, 0xf9, 0xf2, 0xb1, 0x0d, 0x10, 0x04,
  0xd1, 0xb9, 0xeb, 0x0b, 0xaf, 0x96, 0x81, 0xee, 0x01, 0x13, 0xf5, 0xf4,
  0x2c, 0xfa, 0xfd, 0x15, 0x17, 0x1b, 0x01, 0xeb, 0x30, 0x23, 0x3a, 0xde,
  0x06, 0xdf, 0xd8, 0xcb, 0xf7, 0x0e, 0xf4, 0xf5, 0xe7, 0xed, 0xfc, 0x38,
  0x00, 0x05, 0x27, 0xd9, 0xed, 0xed, 0xed, 0xe4, 0x9b, 0x0b, 0x0e, 0x28,
  0xfa, 0xdd, 0xe8, 0x03, 0xb5, 0xa6, 0x83, 0xf3, 0xcd, 0xf4, 0xf6, 0xf9,
  0xf2, 0xee, 0xe6, 0xd1, 0xb2, 0xda, 0xed, 0xfc, 0xce, 0xac, 0xba, 0x23,
  0x95, 0xbe, 0x24, 0x18, 0xb8, 0x22, 0x14, 0x15, 0xe1, 0xaa, 0xa9, 0xe0,
  0xcc, 0xb2, 0x9f, 0xd9, 0xf1, 0xb2, 0x1d, 0xc8, 0xbf, 0x0c, 0x0a, 0x2a,
  0xeb, 0xc9, 0x9b, 0xde, 0xa1, 0xb1, 0x8d, 0x94, 0xee, 0xbf, 0xf3, 0xd8,
  0x16, 0x06, 0xef, 0x04, 0xe4, 0x28, 0x2f, 0x04, 0x13, 0x1c, 0x19, 0x0b,
  0xef, 0x0c, 0x07, 0x13, 0xfe, 0xf0, 0xfc, 0xf7, 0xc9, 0x24, 0x08, 0x01,
  0x12, 0xec, 0x08, 0xe6, 0xd2, 0xdd, 0x18, 0xef, 0x16, 0xfe, 0x04, 0xfe,
  0xbd, 0xfb, 0xa7, 0x0e, 0x99, 0xaf, 0xab, 0x9e, 0xba, 0x9d, 0x00, 0x81,
  0x2f, 0xfd, 0xe6, 0xfe, 0x34, 0x28, 0x09, 0x72, 0x21, 0x44, 0x3a, 0x18,
  0x53, 0x02, 0xb6, 0xfa, 0x31, 0x26, 0xe4, 0xf5, 0xe8, 0x34, 0x0f, 0x2b,
  0x18, 0x15, 0x50, 0xf1, 0x13, 0xfe, 0xd7, 0xeb, 0x21, 0x20, 0xea, 0x0d,
  0xc5, 0xf7, 0xf3, 0x2e, 0xfe, 0xf7, 0x35, 0xec, 0xc1, 0xc5, 0x19, 0xc1,
  0x18, 0x0b, 0x23, 0x18, 0x14, 0x01, 0xfb, 0xef, 0x19, 0x22, 0x34, 0xf0,
  0xeb, 0xd7, 0x06, 0xe7, 0xf5, 0xcd, 0xf6, 0xf9, 0x1f, 0x1b, 0x01, 0xb9,
  0x09, 0x0b, 0x15, 0xf8, 0x30, 0x07, 0x30, 0x15, 0x19, 0x91, 0xa1, 0xbf,
  0xc7, 0x2e, 0x0b, 0x9e, 0xd5, 0xec, 0xf9, 0x33, 0x12, 0xe7, 0xee, 0x02,
  0x10, 0x17, 0x16, 0x20, 0xfe, 0x1e, 0x22, 0xa4, 0xbb, 0xef, 0x04, 0x12,
  0xe7, 0xf6, 0xe3, 0x02, 0xee, 0xf8, 0x06, 0xfc, 0xfc, 0x03, 0x04, 0x81,
  0xf9, 0xe4, 0xec, 0x14, 0xfc, 0x13, 0xf8, 0x18, 0x16, 0xd7, 0xc0, 0xbf,
  0xba, 0x4a, 0x17, 0x8b, 0xdf, 0x02, 0x25, 0x23, 0x98, 0xef, 0xd1, 0x04,
  0xef, 0x1e, 0x1e, 0x10, 0xfd, 0x12, 0x17, 0xbd, 0xfe, 0x04, 0xed, 0x16,
  0xf9, 0x0d, 0xe2, 0x0f, 0xec, 0xe0, 0x12, 0xfa, 0x1e, 0xde, 0xf4, 0xa9,
  0x1f, 0x27, 0xfc, 0x00, 0x29, 0x0e, 0xdd, 0x07, 0x11, 0xe8, 0xdb, 0xcf,
  0x0a, 0x38, 0xed, 0x2e, 0x25, 0x28, 0x40, 0xee, 0x01, 0xc7, 0xe4, 0xdf,
  0xb5, 0x19, 0x1f, 0xf4, 0xf3, 0xfb, 0xcb, 0xed, 0xe1, 0x10, 0xeb, 0xd8,
  0xa6, 0xed, 0xb8, 0xf6, 0x25, 0x14, 0x0d, 0x15, 0xf8, 0x1c, 0x0d, 0x93,
  0x00, 0x17, 0x08, 0xf7, 0xc0, 0xf0, 0xed, 0x08, 0x11, 0xf2, 0xe0, 0xf8,
  0xfa, 0x03, 0x09, 0x19, 0x24, 0x0b, 0x2b, 0xdd, 0xd9, 0x00, 0x09, 0xca,
  0xfa, 0x1a, 0x17, 0xd9, 0x13, 0xf4, 0xc1, 0xe1, 0x05, 0x00, 0x10, 0xd7,
  0xb9, 0xf0, 0xe6, 0xe4, 0x1e, 0x06, 0x07, 0x05, 0x18, 0x1f, 0x00, 0x8a,
  0x16, 0x0a, 0x0d, 0xe8, 0xc1, 0xb0, 0x1e, 0xe0, 0x02, 0xc3, 0xbb, 0xe8,
  0xfa, 0xff, 0xfb, 0xfc, 0x30, 0x0c, 0x36, 0xc3, 0xf5, 0xf2, 0xe4, 0xb3,
  0x17, 0x28, 0x17, 0x11, 0x15, 0xf8, 0xd3, 0x00, 0x18, 0x07, 0x28, 0xe4,
  0x20, 0xe2, 0x19, 0xf7, 0x06, 0xe4, 0xfa, 0xf0, 0x0f, 0x29, 0xfd, 0xc8,
  0x24, 0xfa, 0x1b, 0x0b, 0xf3, 0x18, 0xea, 0x08, 0x19, 0xa8, 0xa7, 0xc0,
  0xed, 0x07, 0xe5, 0xfd, 0x02, 0x04, 0x1e, 0xdd, 0xab, 0x9b, 0xd1, 0x81,
  0x21, 0x25, 0xec, 0x0b, 0xf6, 0x32, 0x10, 0xd9, 0xe0, 0xe0, 0xed, 0x06,
  0xe3, 0xb0, 0x2b, 0xed, 0x36, 0x00, 0xf9, 0xfb, 0xe6, 0x36, 0x22, 0x1a,
  0x02, 0x17, 0x06, 0xfe, 0x09, 0xde, 0x13, 0xe7, 0x14, 0xf2, 0xfd, 0xf8,
  0x14, 0x17, 0x2a, 0x30, 0x25, 0x27, 0x21, 0x25, 0x44, 0x20, 0xf6, 0x17,
  0xef, 0xd1, 0xdc, 0xf2, 0xc0, 0xe9, 0xee, 0xf7, 0xc1, 0xc9, 0xc7, 0x17,
  0x81, 0x8c, 0xfa, 0xec, 0xf3, 0x09, 0x06, 0xc8, 0xc0, 0xc3, 0xaa, 0x10,
  0xe0, 0xd9, 0xe6, 0xd3, 0xc1, 0xb6, 0x03, 0xc1, 0xf8, 0xee, 0xfb, 0xff,
  0xfc, 0xbd, 0xd3, 0xfc, 0x21, 0xf9, 0x10, 0x0d, 0x0c, 0x00, 0x1d, 0x02,
  0xfb, 0xf9, 0xee, 0xe0, 0xed, 0x09, 0xfe, 0x0c, 0xe8, 0xef, 0xf3, 0x07,
  0x02, 0xec, 0xa6, 0x15, 0x15, 0xdc, 0xdd, 0xf5, 0x9b, 0xf9, 0x1b, 0xe0,
  0xe3, 0xdb, 0xef, 0x24, 0xdd, 0xd1, 0x00, 0x15, 0xe6, 0xab, 0xca, 0xea,
  0xa4, 0xf7, 0xfe, 0xa4, 0x08, 0x94, 0xaa, 0x3f, 0xcc, 0xc1, 0x27, 0x14,
  0xd7, 0xbc, 0xc9, 0xcd, 0xc7, 0xe4, 0x0b, 0xb2, 0xe6, 0x9b, 0x96, 0x31,
  0xec, 0xec, 0x0f, 0x2a, 0x0a, 0xf5, 0xe3, 0xd2, 0x81, 0x0f, 0x44, 0xe3,
  0xca, 0xa1, 0xbf, 0x4c, 0xaf, 0xd9, 0x3f, 0x20, 0x06, 0x03, 0xf5, 0xf0,
  0xd1, 0xf0, 0x24, 0x01, 0xe0, 0xd6, 0xf0, 0x05, 0xce, 0xd4, 0x11, 0xda,
  0xbc, 0x05, 0xe2, 0xd8, 0xed, 0xef, 0xde, 0xf8, 0xf6, 0xd3, 0xc3, 0xed,
  0x13, 0x03, 0xf6, 0x09, 0xf8, 0xf8, 0xee, 0xe0, 0xdc, 0x0e, 0xf9, 0xeb,
  0xcc, 0xd9, 0xed, 0x03, 0x01, 0x07, 0xc5, 0x0b, 0x11, 0xec, 0xe4, 0x0e,
  0xb9, 0x18, 0x1b, 0xe6, 0xd2, 0xda, 0xeb, 0x0b, 0xc6, 0xd6, 0x0b, 0xf2,
  0x16, 0x05, 0xe3, 0xd9, 0xf9, 0xfd, 0x0a, 0x48, 0x23, 0x1d, 0x38, 0x0d,
  0x21, 0xf2, 0x38, 0x09, 0x1e, 0x0b, 0xfc, 0x11, 0xf5, 0x13, 0x0b, 0x22,
  0xf6, 0x05, 0x0e, 0x0e, 0x0a, 0xff, 0x15, 0xfc, 0x2b, 0x0a, 0xf8, 0xf8,
  0xfe, 0x34, 0x3b, 0x04, 0xe9, 0x00, 0x06, 0x36, 0xf2, 0xfb, 0x3a, 0x1c,
  0x0b, 0x1a, 0x11, 0x18, 0xf5, 0x06, 0x1d, 0x81, 0x02, 0xfc, 0x05, 0x09,
  0x1a, 0xe1, 0xed, 0xf6, 0xf5, 0xe5, 0xfa, 0xe3, 0xfc, 0xf2, 0xf9, 0x15,
  0x17, 0x0e, 0x1d, 0xf6, 0x1f, 0x1b, 0xe3, 0xf0, 0xd7, 0xcd, 0xce, 0xcd,
  0x05, 0xda, 0xe5, 0xec, 0x30, 0x17, 0x18, 0xfc, 0x38, 0x21, 0xfe, 0x18,
  0x01, 0x0d, 0x19, 0x0e, 0xfc, 0x0b, 0x1b, 0xd9, 0xfd, 0x0c, 0x10, 0x09,
  0xde, 0xf2, 0xef, 0xf6, 0x08, 0xe6, 0xdf, 0xed, 0x00, 0x0d, 0x0c, 0x26,
  0xfc, 0x1b, 0x24, 0xed, 0x13, 0xe4, 0xda, 0xce, 0xf3, 0xd9, 0xcd, 0xcb,
  0xe4, 0xfb, 0xfc, 0xdb, 0xfa, 0xf9, 0xfd, 0x02, 0x25, 0xf3, 0xe6, 0xfd,
  0x1e, 0x0c, 0x23, 0x09, 0x0e, 0x1c, 0x07, 0x0b, 0xf8, 0x0e, 0x07, 0x15,
  0xdc, 0x03, 0xd4, 0x01, 0x29, 0xef, 0xe8, 0xf4, 0xeb, 0x25, 0x16, 0xf4,
  0xfa, 0x00, 0x16, 0x02, 0xd7, 0xcd, 0x06, 0xfa, 0x0f, 0xcf, 0xba, 0xe3,
  0xbd, 0x13, 0x1b, 0xda, 0x08, 0xd5, 0xf0, 0x19, 0xe7, 0xc6, 0x6c, 0xdc,
  0xe9, 0x08, 0x03, 0x13, 0x0e, 0x1b, 0xff, 0xe2, 0x1d, 0xdc, 0xce, 0x26,
  0xea, 0x09, 0x7b, 0x21, 0xfc, 0x28, 0xf8, 0x34, 0xe0, 0x4a, 0x34, 0xce,
  0xe1, 0xb5, 0xb7, 0x37, 0x89, 0xee, 0x7f, 0x16, 0x23, 0x51, 0x09, 0x25,
  0xeb, 0x36, 0x69, 0xd0, 0xcf, 0xdb, 0xd5, 0x3b, 0xaf, 0xe6, 0x7d, 0x14,
  0xf2, 0xf2, 0xb8, 0xe2, 0xc7, 0x0b, 0x24, 0xab, 0x02, 0xc8, 0xc8, 0x33,
  0xf0, 0xed, 0x18, 0x20, 0x3e, 0xf1, 0xca, 0xf0, 0x99, 0x42, 0x25, 0xdd,
  0xcc, 0xdc, 0xd7, 0x0b, 0xc1, 0xd4, 0x17, 0xfc, 0x1a, 0x14, 0xf5, 0xfb,
  0xc5, 0x34, 0x2e, 0x23, 0xcd, 0xfd, 0xfb, 0xfc, 0xaa, 0xc2, 0x01, 0xb3,
  0xd0, 0xd1, 0xd9, 0xd0, 0xed, 0xc5, 0xd2, 0xe4, 0x1c, 0x14, 0x00, 0xdc,
  0x36, 0x1b, 0xd4, 0x0f, 0xfe, 0xfb, 0xe1, 0xbc, 0x25, 0xea, 0xc5, 0x34,
  0x3b, 0x3e, 0x10, 0xcc, 0x79, 0x39, 0x83, 0xe8, 0x0c, 0xe6, 0xf9, 0xd1,
  0x2c, 0xfb, 0xb1, 0x7d, 0x47, 0x65, 0x59, 0xab, 0x68, 0x2a, 0x84, 0xda,
  0x0c, 0xec, 0xeb, 0xf5, 0xe5, 0x14, 0xff, 0x0a, 0x07, 0xf2, 0x05, 0xe6,
  0x01, 0x10, 0x25, 0xfd, 0xfd, 0x03, 0xd6, 0xe5, 0xcc, 0xfe, 0x1a, 0xed,
  0xf9, 0x0a, 0x1f, 0x0c, 0x37, 0xdd, 0x1b, 0xe9, 0xf8, 0xfc, 0xf2, 0x05,
  0xe9, 0xfb, 0x13, 0x26, 0xdd, 0xf3, 0xf1, 0x2a, 0x3e, 0x0a, 0xed, 0x17,
  0xfb, 0xec, 0x04, 0xfb, 0xec, 0xf5, 0x1c, 0x02, 0xea, 0xef, 0xe2, 0xfa,
  0x3f, 0x07, 0xc1, 0x13, 0xcd, 0x05, 0xfb, 0xd9, 0xfb, 0xf9, 0xf4, 0xed,
  0x05, 0x05, 0xc6, 0x15, 0x4d, 0x2b, 0xd6, 0x04, 0xee, 0xe2, 0xf6, 0xe9,
  0xfc, 0xf6, 0xdf, 0xd8, 0x45, 0x21, 0x09, 0xf3, 0xf3, 0x0e, 0x1c, 0xf8,
  0x02, 0xec, 0x1c, 0xfe, 0xe1, 0xfb, 0x07, 0xdf, 0x23, 0x0b, 0xf8, 0x14,
  0x0c, 0x08, 0x36, 0x17, 0xdc, 0xda, 0xfe, 0xe2, 0x11, 0xd5, 0xdf, 0xc9,
  0x32, 0x08, 0x03, 0x0c, 0x63, 0xfe, 0x26, 0x04, 0xde, 0xe1, 0xd5, 0xd9,
  0xe5, 0xcb, 0xe6, 0xdb, 0x17, 0xeb, 0xfd, 0x25, 0x7f, 0x12, 0xe8, 0x18,
  0x15, 0x06, 0xee, 0xf1, 0xf9, 0x07, 0x15, 0xf1, 0x19, 0x05, 0x00, 0xfc,
  0x05, 0xed, 0x1e, 0xfa, 0xfe, 0xfb, 0xf2, 0x00, 0xf1, 0xf8, 0x04, 0x0f,
  0xf1, 0xf1, 0x03, 0x18, 0xe7, 0xfd, 0x0c, 0xfc, 0x07, 0x10, 0x00, 0x0a,
  0xf8, 0xea, 0x10, 0x01, 0xc5, 0xf4, 0xe7, 0x06, 0xf4, 0x07, 0x03, 0x07,
  0x03, 0xeb, 0xe2, 0xd7, 0xf0, 0xec, 0xf4, 0x21, 0x1d, 0xf3, 0x08, 0xfc,
  0x06, 0xfa, 0x18, 0xf7, 0xde, 0xfd, 0xf3, 0xf0, 0xf5, 0xed, 0xfd, 0x0a,
  0xf1, 0xe3, 0xf1, 0xfe, 0x03, 0x03, 0x1f, 0xfe, 0xe0, 0x0e, 0x0d, 0x0a,
  0xdd, 0xde, 0x09, 0x0f, 0xb0, 0xf4, 0xd5, 0xf5, 0xff, 0x05, 0xeb, 0x02,
  0xe0, 0xe6, 0xe8, 0xe9, 0xf5, 0xda, 0xde, 0x2a, 0x03, 0xf2, 0xfa, 0xf0,
  0x12, 0xff, 0xdd, 0xfa, 0xc2, 0xfe, 0x08, 0xf2, 0xfc, 0xe5, 0xf4, 0x09,
  0xbb, 0xae, 0x81, 0x0f, 0xfc, 0x15, 0xe5, 0x13, 0xd8, 0x01, 0x0c, 0xf2,
  0xf9, 0xd9, 0xf8, 0x12, 0xdb, 0xfc, 0xde, 0xfb, 0xdc, 0x18, 0xd1, 0x0d,
  0x1a, 0x0b, 0x01, 0xf7, 0xf3, 0x1c, 0x24, 0x00, 0x0d, 0xe6, 0xee, 0x29,
  0x08, 0x18, 0x39, 0x24, 0x0e, 0x0e, 0xf9, 0xf8, 0xff, 0x18, 0x15, 0xfa,
  0x16, 0x11, 0x02, 0x13, 0xff, 0x0f, 0x29, 0x08, 0xe7, 0x09, 0x07, 0xdf,
  0xfd, 0xf3, 0xfe, 0xec, 0x0d, 0xf8, 0xee, 0xfe, 0x03, 0xff, 0x09, 0xf8,
  0xfb, 0x0f, 0x05, 0xfc, 0x03, 0x0f, 0x0b, 0xdc, 0x07, 0xfe, 0xe5, 0x17,
  0xff, 0x13, 0x24, 0x13, 0xf9, 0xf8, 0xfc, 0x06, 0x07, 0xf8, 0xfd, 0xe6,
  0xf4, 0x0c, 0xf2, 0x0d, 0x00, 0xfc, 0x07, 0x00, 0xf0, 0x04, 0x02, 0x0f,
  0xfd, 0xd1, 0xf3, 0xc1, 0xe4, 0xf7, 0xdd, 0xe5, 0xda, 0xf3, 0xed, 0xe2,
  0xe0, 0xf6, 0x00, 0xfe, 0xf4, 0xe0, 0x02, 0xc8, 0xfa, 0xe8, 0xe2, 0x12,
  0xdb, 0x01, 0x12, 0x1b, 0xe3, 0xf8, 0x06, 0xf1, 0xf7, 0xec, 0xef, 0xbd,
  0xee, 0xdd, 0xe0, 0xeb, 0xdf, 0xdc, 0x0e, 0xf7, 0xc2, 0xf5, 0xfd, 0xf7,
  0xe2, 0x9b, 0xdd, 0x81, 0xd7, 0xad, 0x95, 0xc0, 0xae, 0xbb, 0xf1, 0xc4,
  0xda, 0x18, 0x0c, 0xdc, 0xd7, 0x07, 0x07, 0x19, 0xe1, 0x11, 0xe7, 0x26,
  0x4a, 0x30, 0xb7, 0x4a, 0xb3, 0x11, 0x20, 0xe5, 0xd4, 0xc2, 0x01, 0xff,
  0xfd, 0xe9, 0xe6, 0x26, 0x3f, 0x2c, 0xeb, 0x04, 0xaa, 0xdb, 0xf3, 0x11,
  0x2f, 0xa5, 0xbf, 0x01, 0x44, 0x2b, 0x2c, 0xde, 0xae, 0xd4, 0x55, 0x89,
  0xf5, 0xfb, 0x06, 0xc9, 0xeb, 0xf1, 0xa5, 0xe3, 0xe8, 0x1a, 0xec, 0xdb,
  0xf7, 0x11, 0xd7, 0xd5, 0xf2, 0xcc, 0xf9, 0xd2, 0xf0, 0xd1, 0xb5, 0xd5,
  0x20, 0x02, 0x23, 0xf0, 0x21, 0xf2, 0xff, 0xd5, 0xc4, 0xe3, 0xb8, 0xd7,
  0x09, 0xda, 0xea, 0xe2, 0xf9, 0x0a, 0xfd, 0x19, 0x5b, 0xd2, 0xec, 0xff,
  0x2c, 0x00, 0xe9, 0x2e, 0xe3, 0x25, 0x18, 0x12, 0x26, 0x05, 0xfb, 0xe7,
  0x3d, 0x81, 0x6d, 0xbb, 0xee, 0xd4, 0xb5, 0x01, 0xe2, 0xf8, 0x15, 0xff,
  0xce, 0xd5, 0xee, 0x2c, 0x5d, 0xd5, 0x1c, 0xf7, 0xe7, 0xd3, 0xc6, 0x0c,
  0xce, 0xdb, 0x06, 0xe8, 0x15, 0xdb, 0xf5, 0x36, 0x1e, 0x22, 0x08, 0x05,
  0xe7, 0xfb, 0x0d, 0x08, 0x11, 0xcf, 0xb4, 0x03, 0xfe, 0x13, 0xfe, 0x81,
  0x1e, 0xfe, 0xf9, 0xcc, 0xba, 0x08, 0x0c, 0xfa, 0xf9, 0xca, 0xa6, 0x09,
  0xf0, 0xf2, 0xcc, 0x93, 0xf9, 0xfa, 0x00, 0xeb, 0xd9, 0x03, 0x0f, 0x1b,
  0x1c, 0xea, 0xc2, 0xff, 0xf1, 0xf2, 0xf2, 0xc5, 0xeb, 0x01, 0x03, 0xeb,
  0xcb, 0xfc, 0xfb, 0xe1, 0xe0, 0xd7, 0xe3, 0xfc, 0xff, 0xcc, 0xc0, 0x09,
  0x00, 0xea, 0x2f, 0x08, 0x02, 0x10, 0xf8, 0xe7, 0xea, 0x0a, 0xf7, 0xf3,
  0x19, 0x0c, 0x0f, 0x0c, 0xe8, 0xf0, 0x26, 0x10, 0x13, 0x08, 0xfd, 0xf3,
  0x0b, 0xf2, 0xee, 0xf8, 0x0e, 0x0e, 0xf7, 0xf5, 0xba, 0xe3, 0x28, 0xcd,
  0xf8, 0xf5, 0xfe, 0xda, 0xf8, 0x24, 0x29, 0xf6, 0x01, 0xf8, 0xe1, 0x28,
  0xe2, 0x26, 0xc6, 0x2b, 0x04, 0xf1, 0xed, 0xcc, 0xfe, 0x18, 0x00, 0xfb,
  0x05, 0xec, 0x0d, 0x06, 0xdb, 0x02, 0xd6, 0x17, 0x23, 0xf2, 0xfa, 0x06,
  0xe1, 0x28, 0x25, 0xf4, 0xe4, 0xf4, 0x0d, 0x34, 0xfb, 0x03, 0xe3, 0x0f,
  0x02, 0xf7, 0xf3, 0xd2, 0x14, 0xf7, 0xcf, 0x0c, 0x07, 0xf5, 0xfd, 0xfc,
  0x0e, 0x07, 0xfb, 0xfc, 0x0c, 0xf6, 0xfd, 0x0b, 0xfb, 0xfb, 0xbf, 0xf8,
  0xfe, 0xf9, 0x10, 0xc7, 0x26, 0xe9, 0x0a, 0xc2, 0xf5, 0x06, 0x0c, 0xe5,
  0xeb, 0xcb, 0xca, 0x01, 0xe4, 0xff, 0xf8, 0x93, 0xed, 0x02, 0xf6, 0xd7,
  0x25, 0x0b, 0xfc, 0xf4, 0xed, 0x32, 0x0f, 0xb8, 0xe3, 0xd2, 0xea, 0x31,
  0xf1, 0x2a, 0x13, 0x0e, 0x28, 0xf6, 0xfd, 0xfb, 0xf8, 0x1d, 0x25, 0xdd,
  0xdd, 0xdb, 0xf4, 0x1b, 0xc9, 0xf0, 0x11, 0x1e, 0x2b, 0xf7, 0xfc, 0xe3,
  0xc9, 0xfd, 0x0d, 0xc6, 0xf8, 0xd8, 0xdb, 0x18, 0xb2, 0xc0, 0x1e, 0xeb,
  0xe6, 0x26, 0x0a, 0x17, 0xcc, 0x0c, 0x14, 0xc2, 0x05, 0xcc, 0xc4, 0x17,
  0x04, 0xea, 0x7f, 0x18, 0x24, 0x24, 0x01, 0xf8, 0xc8, 0x15, 0x2e, 0xd2,
  0xb6, 0xf0, 0xd9, 0x27, 0xda, 0xde, 0x4b, 0x11, 0xff, 0x0a, 0x0b, 0x09,
  0xad, 0x23, 0x31, 0xae, 0xac, 0xc4, 0xe1, 0x2c, 0x0a, 0x02, 0x08, 0x0a,
  0x00, 0xf6, 0x06, 0xda, 0x08, 0x0c, 0xdf, 0x36, 0x16, 0x10, 0x1e, 0xf8,
  0x11, 0x23, 0x05, 0x03, 0xe0, 0x1f, 0xea, 0x0d, 0x0c, 0xf3, 0xd5, 0x01,
  0x14, 0xf0, 0xe9, 0xe1, 0x26, 0x14, 0x15, 0x10, 0xf7, 0x1b, 0xe4, 0xe0,
  0xea, 0xfc, 0xf9, 0xd0, 0x12, 0xf8, 0xf1, 0xfe, 0x1f, 0x01, 0x23, 0x00,
  0x1a, 0xfa, 0xfc, 0xf5, 0xd2, 0x0e, 0xf8, 0x00, 0xe5, 0x01, 0x02, 0xf0,
  0xe4, 0xdc, 0x0f, 0xe7, 0x14, 0x07, 0xf3, 0xc9, 0xb8, 0x1a, 0x0c, 0xde,
  0xcf, 0xb9, 0xc6, 0x04, 0x0e, 0xf4, 0xf9, 0xea, 0xd3, 0xef, 0x01, 0xfb,
  0xd8, 0xf4, 0x09, 0xc4, 0x00, 0xd8, 0xe9, 0x01, 0x33, 0xfe, 0x03, 0xe8,
  0x1e, 0xf7, 0xef, 0x0d, 0xae, 0x19, 0x33, 0xe5, 0x08, 0xdd, 0xc5, 0x49,
  0xf2, 0xfb, 0x7f, 0x1d, 0xf2, 0xf4, 0xf9, 0xf6, 0xc8, 0x15, 0x2a, 0xc4,
  0x29, 0xc6, 0xb0, 0x35, 0x0c, 0xfd, 0x64, 0x12, 0xcf, 0xef, 0x09, 0xe1,
  0xf4, 0x0f, 0x25, 0xd4, 0x3a, 0xe6, 0xd4, 0x2a, 0x22, 0x21, 0x45, 0x1d,
  0xfa, 0xf9, 0xfd, 0x04, 0xf6, 0x00, 0x15, 0xed, 0x00, 0xf4, 0xe7, 0x06,
  0xfe, 0xe8, 0xf7, 0x04, 0x81, 0xf0, 0x00, 0xeb, 0xea, 0xa7, 0xec, 0x06,
  0x9e, 0xc2, 0xae, 0xf7, 0x09, 0x06, 0xbc, 0x00, 0xca, 0xf7, 0x01, 0xe9,
  0x15, 0xd7, 0xc7, 0x0c, 0x26, 0x02, 0xfd, 0xd0, 0xfd, 0x16, 0x02, 0xff,
  0xcb, 0x05, 0xf7, 0xdc, 0xea, 0xc7, 0xf4, 0x08, 0xd5, 0xb8, 0xa5, 0x02,
  0x0d, 0x0d, 0xe8, 0x0e, 0xe8, 0xfe, 0xff, 0xfb, 0xfa, 0x06, 0xf2, 0x06,
  0xfc, 0xf1, 0xf1, 0xfc, 0x16, 0xfd, 0xd8, 0xff, 0xfb, 0xe6, 0xf0, 0xe9,
  0x0f, 0xf9, 0xd9, 0xff, 0x28, 0x20, 0x22, 0xdd, 0x02, 0xf3, 0x04, 0xf6,
  0xa5, 0x01, 0x17, 0xf1, 0x04, 0xcb, 0xe0, 0x08, 0x15, 0x0d, 0x05, 0xf7,
  0x19, 0x12, 0xc9, 0x20, 0xf6, 0xf0, 0x08, 0xec, 0x15, 0xea, 0xd6, 0xe6,
  0x23, 0x21, 0x12, 0xdc, 0x06, 0x0f, 0xf9, 0xfb, 0xf6, 0xc3, 0xe6, 0xe2,
  0x13, 0xd6, 0xbf, 0xaf, 0x1b, 0x16, 0x19, 0xa0, 0x31, 0xf9, 0xec, 0xec,
  0xcd, 0x12, 0xeb, 0x99, 0xee, 0xdd, 0xeb, 0x21, 0x1f, 0xf4, 0xf9, 0xf1,
  0x1e, 0x1c, 0xec, 0x25, 0xca, 0xe0, 0xe6, 0xcb, 0x03, 0x8f, 0xeb, 0x15,
  0x37, 0xf8, 0x07, 0xda, 0x5f, 0x1a, 0xd2, 0x31, 0xde, 0xe0, 0xe8, 0xf4,
  0x15, 0xf7, 0xf0, 0xf6, 0x5a, 0xea, 0xe6, 0x28, 0x46, 0x53, 0xf4, 0x2d,
  0x02, 0x11, 0xb4, 0x86, 0xed, 0xf7, 0xe1, 0x40, 0x30, 0x2b, 0x42, 0xb3,
  0x25, 0xd7, 0xac, 0xb3, 0xcb, 0xeb, 0xf8, 0x02, 0xfc, 0xcb, 0xa9, 0x4e,
  0xce, 0xe2, 0x0f, 0xc4, 0x38, 0x1b, 0x81, 0xfa, 0xeb, 0xc5, 0xfe, 0xf0,
  0xcd, 0x11, 0x0d, 0xda, 0x18, 0xe3, 0x21, 0xd3, 0x60, 0x17, 0x98, 0x1f,
  0x56, 0xe3, 0xad, 0xd3, 0xda, 0x3e, 0xf9, 0x6d, 0x38, 0x3c, 0x63, 0xb8,
  0xff, 0xbe, 0xbc, 0x9f, 0x72, 0x15, 0xf1, 0xe4, 0xad, 0x3d, 0x05, 0x48,
  0xb1, 0xf7, 0x21, 0xa7, 0xef, 0xe6, 0xe2, 0x8f, 0x5e, 0xee, 0x1f, 0x10,
  0xd7, 0x32, 0x49, 0xe4, 0xfc, 0x02, 0x12, 0xff, 0x15, 0xfd, 0xbe, 0xf6,
  0x06, 0xe1, 0xdf, 0x17, 0xe6, 0x06, 0x07, 0xe3, 0x0f, 0xfb, 0xfd, 0x0b,
  0x03, 0xd4, 0x36, 0xf2, 0x32, 0xd5, 0xca, 0xd5, 0xfd, 0x11, 0x19, 0x01,
  0x22, 0x24, 0x2d, 0x22, 0xf0, 0xf5, 0x0b, 0xfa, 0x07, 0xdd, 0xd2, 0xbf,
  0x1d, 0xfa, 0x06, 0x00, 0x31, 0x0f, 0x22, 0x32, 0x1b, 0x1e, 0x08, 0x12,
  0x22, 0xea, 0xfc, 0xe1, 0xf0, 0x13, 0xf8, 0x22, 0x01, 0x0b, 0x07, 0x13,
  0x00, 0x06, 0x81, 0x18, 0x0c, 0xf9, 0xfd, 0xf3, 0x1e, 0x16, 0x17, 0x10,
  0xe8, 0x13, 0x04, 0x1f, 0x17, 0x0d, 0x96, 0x0c, 0x00, 0xe9, 0xff, 0xeb,
  0xf8, 0x0b, 0x18, 0x07, 0xca, 0xdd, 0xcb, 0x24, 0xf5, 0x26, 0xa9, 0x09,
  0xfe, 0x07, 0x1c, 0x2b, 0x15, 0xf0, 0x03, 0xe7, 0xc3, 0xfc, 0xf6, 0xe9,
  0x0a, 0x00, 0x90, 0xf6, 0xf3, 0x19, 0x1e, 0x24, 0xe9, 0xfc, 0x16, 0xfa,
  0xa3, 0xf2, 0xbf, 0x1e, 0xdf, 0x09, 0xa0, 0x27, 0xd5, 0x19, 0x22, 0x14,
  0xf1, 0xd4, 0xf2, 0xd7, 0xc4, 0xd2, 0xc4, 0xec, 0xb3, 0x17, 0xb1, 0xfb,
  0x17, 0xc3, 0xdc, 0xd9, 0x06, 0x04, 0xe5, 0x62, 0x0b, 0x1d, 0x35, 0xff,
  0x37, 0x29, 0xba, 0x0d, 0xe7, 0xbd, 0xb2, 0xc0, 0x05, 0xe2, 0xef, 0x1a,
  0xfa, 0x07, 0x07, 0xda, 0x7c, 0xff, 0xdd, 0xe9, 0xf9, 0xdd, 0x9c, 0xa2,
  0xca, 0x0b, 0xf0, 0x1a, 0x03, 0xeb, 0x18, 0xfc, 0x7f, 0x16, 0xdf, 0x04,
  0x1b, 0x05, 0xee, 0xfe, 0xe7, 0x2f, 0x04, 0x46, 0xe2, 0x1a, 0x14, 0x1c,
  0xcc, 0xfe, 0xe3, 0xe9, 0x21, 0xe4, 0xd1, 0xf9, 0xad, 0x08, 0xfa, 0xf2,
  0xcb, 0xed, 0xd5, 0xeb, 0x4f, 0x04, 0xf7, 0xe7, 0xe4, 0xd4, 0xc5, 0xc7,
  0xe2, 0x13, 0xea, 0xe4, 0x46, 0x1b, 0x2d, 0x0f, 0x6a, 0x27, 0x0c, 0x15,
  0x48, 0x20, 0x08, 0x19, 0xdf, 0x4b, 0x3d, 0x2c, 0xc2, 0x04, 0x15, 0x04,
  0x87, 0xde, 0x20, 0xe6, 0x03, 0x20, 0xe4, 0x0c, 0xae, 0x0b, 0x39, 0xa3,
  0xcb, 0xd5, 0xd8, 0x1a, 0x10, 0xf6, 0x2b, 0x04, 0xe9, 0xe9, 0xfd, 0xcb,
  0xd2, 0x0b, 0x1a, 0xbd, 0xf5, 0xec, 0xf1, 0x38, 0x7f, 0x26, 0x1d, 0x37,
  0xff, 0x18, 0x18, 0x09, 0x08, 0xfc, 0xce, 0xfe, 0x16, 0x04, 0x0d, 0xb4,
  0xe9, 0xe2, 0x14, 0xd3, 0xfe, 0x25, 0x13, 0x06, 0x14, 0xe9, 0xf5, 0xff,
  0x10, 0x08, 0x01, 0xf7, 0x08, 0xe8, 0x2e, 0xed, 0xf5, 0x10, 0x25, 0x28,
  0xfd, 0xea, 0xf1, 0xe2, 0x18, 0x1c, 0x0c, 0xef, 0xf4, 0xe3, 0x1c, 0xe5,
  0x12, 0x02, 0xff, 0x04, 0x06, 0xea, 0xab, 0x10, 0xfc, 0x23, 0x15, 0x81,
  0xe6, 0xe3, 0x0f, 0xb8, 0xfa, 0x0e, 0xe9, 0xf9, 0x09, 0xf8, 0xf3, 0x07,
  0x1e, 0x11, 0x1d, 0xaf, 0xd6, 0xd9, 0x19, 0xba, 0x08, 0x0c, 0xf8, 0x0c,
  0x0d, 0xf7, 0xdb, 0x09, 0x0b, 0x04, 0x10, 0xb4, 0xd9, 0xc0, 0x1d, 0xa7,
  0xe2, 0xd2, 0xce, 0xcc, 0x0c, 0xe7, 0xda, 0x15, 0x17, 0x0c, 0x0d, 0xd5,
  0x0c, 0xef, 0x3c, 0xff, 0xe6, 0xc9, 0xc4, 0xd3, 0xf0, 0xf2, 0xe2, 0xe8,
  0x15, 0xf8, 0xf9, 0x07, 0x10, 0xe1, 0x2d, 0xf6, 0x0b, 0xd9, 0xb2, 0xd6,
  0xf7, 0x02, 0xf5, 0xed, 0x14, 0xee, 0x0a, 0x00, 0xcc, 0xc0, 0x1a, 0xc8,
  0xdf, 0xf7, 0xfc, 0xe7, 0xf9, 0xf7, 0x0b, 0x21, 0x01, 0xda, 0xd6, 0x08,
  0xbf, 0x00, 0x09, 0xea, 0xf6, 0x0c, 0xf8, 0x19, 0xe4, 0x07, 0xf0, 0x14,
  0xc9, 0x00, 0x08, 0xec, 0xcf, 0xf1, 0xeb, 0xf8, 0x21, 0x01, 0x09, 0x01,
  0xfc, 0x31, 0x02, 0x3f, 0xff, 0x0d, 0x25, 0xec, 0xd0, 0xfc, 0xab, 0xdc,
  0xca, 0xef, 0xe9, 0xf1, 0x03, 0xac, 0xed, 0x1f, 0xdb, 0xcc, 0xd2, 0xd1,
  0xea, 0xd7, 0xee, 0xcb, 0xf2, 0xff, 0xf2, 0x0b, 0xf2, 0x0b, 0xfb, 0x18,
  0xd0, 0xf5, 0x03, 0xfd, 0xf1, 0x05, 0xe7, 0x08, 0x24, 0xfb, 0x10, 0xfd,
  0xfe, 0x25, 0x01, 0x35, 0xfd, 0x10, 0x1e, 0xea, 0xe4, 0xfe, 0xd2, 0xf8,
  0x13, 0xf3, 0xef, 0x0d, 0xdb, 0xf0, 0x03, 0x18, 0xb6, 0x81, 0x91, 0xcd,
  0xa8, 0xd8, 0x0b, 0xcc, 0x06, 0x04, 0xfa, 0x17, 0xeb, 0x2e, 0x1d, 0x2c,
  0xc9, 0xfb, 0xfd, 0x02, 0xd7, 0xf1, 0xfc, 0xf7, 0x2a, 0x0a, 0x0e, 0x04,
  0x03, 0x30, 0x18, 0x3b, 0xfb, 0x25, 0x27, 0x09, 0xc9, 0xed, 0xd2, 0xf7,
  0xdc, 0xdf, 0xd4, 0xcf, 0xd2, 0xe3, 0xef, 0x39, 0xb7, 0xe1, 0xde, 0x0a,
  0xef, 0x02, 0xe4, 0xf3, 0x16, 0xfe, 0xeb, 0xeb, 0x1a, 0x0f, 0x0b, 0x29,
  0x03, 0x2a, 0x39, 0xfc, 0x06, 0x14, 0x01, 0x07, 0x0f, 0xe1, 0xea, 0x0f,
  0x22, 0x07, 0xf4, 0x23, 0x28, 0x1d, 0x21, 0xf3, 0x17, 0x19, 0x06, 0xfb,
  0x08, 0xee, 0xcd, 0xf3, 0xea, 0x17, 0xe6, 0x37, 0xd4, 0xf2, 0xfa, 0x03,
  0xc7, 0xfd, 0xf1, 0xf9, 0x1c, 0xf3, 0xd3, 0x19, 0xfe, 0x0f, 0x18, 0x25,
  0xf8, 0x15, 0x15, 0x08, 0xfd, 0xe9, 0x17, 0xd2, 0xf1, 0xcc, 0xc5, 0xed,
  0xf8, 0xbc, 0xce, 0xdc, 0x16, 0x17, 0x1d, 0xcd, 0x34, 0xbd, 0xf3, 0xd4,
  0xba, 0xbd, 0xaa, 0xe0, 0xc8, 0xbb, 0xb6, 0xf4, 0xf6, 0xbb, 0xc3, 0xda,
  0xce, 0xa5, 0x25, 0xef, 0x9d, 0xaa, 0xb0, 0xa9, 0xdc, 0x81, 0x92, 0xd7,
  0x0a, 0xea, 0xf8, 0xd1, 0x46, 0x21, 0x0e, 0x0d, 0xb7, 0xe5, 0xc8, 0xae,
  0x1c, 0xb6, 0xc8, 0x0c, 0xf5, 0x00, 0x07, 0xe6, 0x2a, 0x14, 0xb2, 0x0a,
  0x04, 0x0c, 0x0a, 0xfb, 0x0f, 0x23, 0x2b, 0xda, 0x07, 0xdc, 0xe5, 0x12,
  0xf4, 0xf3, 0x2a, 0x1a, 0x17, 0x08, 0xf6, 0xf9, 0xd7, 0x33, 0x2a, 0xee,
  0xf6, 0xe4, 0xfa, 0x27, 0xf1, 0xe9, 0x0b, 0x10, 0x08, 0xc7, 0xce, 0xdd,
  0xd2, 0x11, 0x12, 0x02, 0x1c, 0x15, 0x30, 0xfa, 0xff, 0xc2, 0xf0, 0xe4,
  0xdc, 0x10, 0x25, 0x0f, 0x01, 0xeb, 0xfe, 0xe1, 0x08, 0xf2, 0xf4, 0xfc,
  0x0c, 0x22, 0xd9, 0x24, 0x00, 0xe0, 0x0d, 0x11, 0x10, 0x08, 0x07, 0x10,
  0xfe, 0x05, 0x1a, 0x0b, 0xf7, 0x01, 0xdd, 0x01, 0xe9, 0x81, 0xb4, 0xa7,
  0xf4, 0xd6, 0xdf, 0xfd, 0x2a, 0x15, 0x24, 0xca, 0x36, 0xe7, 0xad, 0xe6,
  0x0a, 0xdf, 0x22, 0xf2, 0x2f, 0xfa, 0xdd, 0xef, 0x4b, 0x0a, 0x21, 0xda,
  0x43, 0x41, 0xb8, 0x36, 0xef, 0xbb, 0xec, 0xd2, 0x06, 0xe7, 0xc3, 0xf3,
  0x1f, 0xf2, 0x19, 0xe0, 0x15, 0x1a, 0xd0, 0xf8, 0xdb, 0xb3, 0xc1, 0xc9,
  0xea, 0xdd, 0xef, 0xf9, 0x12, 0xdc, 0x1e, 0xfa, 0x1b, 0x05, 0x01, 0x0c,
  0xf2, 0x32, 0xff, 0xff, 0x04, 0x00, 0x00, 0x00, 0x80, 0x00, 0x00, 0x00,
  0x70, 0xf1, 0xff, 0xff, 0xdf, 0xe5, 0xff, 0xff, 0xe0, 0xda, 0xff, 0xff,
  0x5a, 0xe9, 0xff, 0xff, 0xe6, 0xf3, 0xff, 0xff, 0x82, 0xdd, 0xff, 0xff,
  0x97, 0xeb, 0xff, 0xff, 0xbe, 0xf1, 0xff, 0xff, 0xbc, 0xe3, 0xff, 0xff,
  0x53, 0xf9, 0xff, 0xff, 0x85, 0x06, 0x00, 0x00, 0xa6, 0xc3, 0xff, 0xff,
  0x1e, 0xf8, 0xff, 0xff, 0xa5, 0x1a, 0x00, 0x00, 0x1e, 0xfb, 0xff, 0xff,
  0x4c, 0xee, 0xff, 0xff, 0x38, 0xb2, 0xff, 0xff, 0x96, 0xf3, 0xff, 0xff,
  0x8f, 0xfe, 0xff, 0xff, 0xcc, 0x03, 0x00, 0x00, 0xba, 0xf0, 0xff, 0xff,
  0xee, 0xf5, 0xff, 0xff, 0xcb, 0xf7, 0xff, 0xff, 0x82, 0xdf, 0xff, 0xff,
  0x41, 0xff, 0xff, 0xff, 0x54, 0xca, 0xff, 0xff, 0xd5, 0xfd, 0xff, 0xff,
  0x1c, 0xb7, 0xff, 0xff, 0xa3, 0xfa, 0xff, 0xff, 0x5b, 0x00, 0x00, 0x00,
  0x55, 0xf2, 0xff, 0xff, 0x13, 0xed, 0xff, 0xff, 0x7e, 0x33, 0xff, 0xff,
  0x04, 0x00, 0x00, 0x00, 0x00, 0xc8, 0x00, 0x00, 0xff, 0xf6, 0xff, 0x04,
  0xf9, 0xfa, 0xf8, 0xf9, 0xfb, 0x01, 0xfd, 0x03, 0x02, 0x02, 0xfa, 0xff,
  0xfd, 0x05, 0xf7, 0x03, 0x01, 0xf5, 0xfc, 0xf9, 0x04, 0xff, 0xf8, 0x04,
  0xf9, 0xff, 0x04, 0xf9, 0x04, 0x02, 0xff, 0xf9, 0xfa, 0x01, 0xf7, 0x06,
  0x04, 0xf7, 0xf6, 0xfe, 0xf6, 0xf7, 0x05, 0xfb, 0xf7, 0xfd, 0xfe, 0xf6,
  0xff, 0x09, 0x08, 0xf7, 0xfc, 0xf8, 0xfb, 0x09, 0xff, 0xf4, 0xf7, 0xfa,
  0xf8, 0x03, 0x02, 0xfe, 0x04, 0xfe, 0xfc, 0x04, 0x01, 0xfd, 0xfe, 0x04,
  0x02, 0x05, 0x00, 0x02, 0x05, 0x05, 0xf6, 0x04, 0xfa, 0xf5, 0x05, 0x07,
  0xfb, 0x04, 0xff, 0xf8, 0xfd, 0xf7, 0x02, 0xf6, 0xfa, 0xf7, 0xfb, 0x06,
  0xfe, 0x00, 0xfe, 0xf9, 0x05, 0xf9, 0x06, 0xf7, 0x02, 0x01, 0x03, 0x06,
  0xf7, 0xfb, 0x09, 0xfc, 0xf9, 0xfd, 0xfe, 0x04, 0xfd, 0x02, 0xff, 0xf9,
  0x00, 0xf6, 0xfb, 0x00, 0xf7, 0x01, 0xf7, 0xfe, 0xf8, 0xfd, 0x02, 0x05,
  0x03, 0xfb, 0xfe, 0xf8, 0xf8, 0xfe, 0x02, 0xfc, 0xfd, 0x06, 0x02, 0xf7,
  0xfb, 0x03, 0xf8, 0xff, 0xfe, 0x05, 0xfe, 0xfd, 0x0a, 0xfc, 0x06, 0xfd,
  0x03, 0xf9, 0x08, 0xf9, 0x05, 0x01, 0x03, 0x04, 0xfa, 0xf0, 0xff, 0x03,
  0x05, 0x08, 0xfd, 0xf9, 0xf8, 0x07, 0x00, 0x03, 0xfd, 0x05, 0x00, 0x03,
  0xfa, 0xf9, 0xf5, 0xff, 0xfa, 0x00, 0x02, 0xf5, 0xf4, 0xf7, 0xfe, 0xff,
  0x09, 0x03, 0xfe, 0x0a, 0xfe, 0x02, 0xfb, 0xf7, 0xfc, 0xfb, 0xfb, 0x01,
  0xfe, 0xf9, 0xff, 0x05, 0x03, 0x04, 0xfb, 0xf9, 0xfd, 0xf6, 0x01, 0xf2,
  0xfa, 0xff, 0xf8, 0xf8, 0x03, 0xf9, 0x01, 0xfd, 0x07, 0x01, 0xf6, 0x05,
  0xf7, 0x04, 0x05, 0xf5, 0xf8, 0x03, 0xf9, 0xfd, 0x01, 0x00, 0xf7, 0xf5,
  0xfa, 0xf5, 0x02, 0x03, 0xf3, 0xf8, 0xfa, 0x02, 0xf8, 0x03, 0xf9, 0xfd,
  0x03, 0xf8, 0xff, 0xff, 0xf4, 0x02, 0xf9, 0x05, 0xf7, 0x05, 0x07, 0xf8,
  0xfe, 0x03, 0x08, 0x03, 0xfc, 0x02, 0xfe, 0x02, 0xfc, 0xf8, 0x07, 0xfe,
  0xf8, 0x03, 0xf7, 0x02, 0x06, 0x07, 0xfe, 0xfd, 0xfc, 0x01, 0xf6, 0xfc,
  0xfd, 0x00, 0xfa, 0x01, 0x03, 0x03, 0xf8, 0xf5, 0xf5, 0x01, 0xfe, 0x05,
  0x00, 0xf9, 0x02, 0xf2, 0xfb, 0x06, 0x04, 0xf9, 0xfc, 0xfc, 0xf6, 0xf9,
  0xfc, 0xf9, 0xf7, 0xfd, 0xf5, 0xff, 0xf6, 0x04, 0x02, 0xfa, 0xf8, 0x01,
  0xff, 0xf4, 0x06, 0xfb, 0xfc, 0x04, 0x04, 0x02, 0xfb, 0xfd, 0xf8, 0xff,
  0x04, 0xf8, 0x03, 0xf5, 0xf5, 0xf9, 0xf3, 0xf8, 0xf9, 0xef, 0x05, 0xf8,
  0x00, 0xf5, 0x03, 0xf9, 0xf6, 0xfb, 0x00, 0x01, 0x07, 0x03, 0x07, 0xf5,
  0x01, 0x0a, 0xfd, 0xf9, 0xff, 0xf5, 0x02, 0xf9, 0x00, 0xfb, 0xf1, 0xf7,
  0xf1, 0xfd, 0xf5, 0xf3, 0xf9, 0xf3, 0xfd, 0xf4, 0xf9, 0x06, 0xfd, 0xfa,
  0xf9, 0x04, 0xfe, 0xfe, 0x0a, 0xfe, 0x0a, 0xfe, 0xfa, 0x0a, 0x00, 0x04,
  0xfb, 0xff, 0x00, 0xf9, 0xfb, 0xff, 0xfd, 0x01, 0x00, 0x04, 0xf2, 0xf5,
  0x06, 0x00, 0x04, 0xf9, 0xfa, 0xff, 0x00, 0xfb, 0xff, 0xf7, 0x06, 0xf4,
  0xf7, 0xf7, 0xfd, 0x02, 0xf9, 0xf8, 0xf3, 0xfa, 0x00, 0xf8, 0xff, 0x02,
  0xfc, 0xf7, 0xf6, 0xf3, 0xf8, 0xfa, 0xfe, 0x05, 0x04, 0x09, 0x04, 0xfe,
  0xf7, 0x02, 0x00, 0x07, 0xfd, 0x01, 0xfd, 0xf5, 0xf8, 0x02, 0xf9, 0xf7,
  0xfe, 0xfd, 0xfe, 0x08, 0xf6, 0xfd, 0xfc, 0xfa, 0xf9, 0x01, 0xf9, 0xfa,
  0xf9, 0xfb, 0x07, 0xfe, 0x02, 0x03, 0xf9, 0x04, 0xf8, 0xfa, 0xfd, 0xfa,
  0xfb, 0x01, 0x03, 0xf5, 0xfd, 0xf3, 0xff, 0xf9, 0xfb, 0xfb, 0xff, 0x05,
  0x02, 0xf7, 0xf6, 0x04, 0xf3, 0xf3, 0x02, 0xf8, 0xf5, 0xf1, 0x00, 0xfd,
  0xf6, 0xf2, 0xff, 0x04, 0xff, 0xf8, 0xfa, 0x04, 0xf3, 0xf9, 0xf8, 0xfa,
  0x02, 0xf8, 0xf7, 0xf4, 0xf5, 0x04, 0x08, 0xfb, 0xf3, 0xf1, 0x05, 0xfd,
  0xf4, 0xfd, 0x00, 0xfc, 0xf8, 0x02, 0xfd, 0xf6, 0xff, 0xf9, 0xff, 0xf1,
  0xff, 0xfa, 0xfd, 0x04, 0xfc, 0x01, 0xfe, 0xfc, 0xf9, 0x04, 0xf9, 0xfa,
  0xf7, 0x09, 0x05, 0x00, 0xfb, 0xf4, 0xfd, 0xf7, 0xff, 0xf7, 0xfc, 0x04,
  0x01, 0x06, 0xfc, 0xfe, 0x00, 0xfe, 0xfa, 0xfc, 0x03, 0x05, 0x00, 0xf9,
  0x05, 0x00, 0xf3, 0xfd, 0xff, 0xf5, 0xfd, 0x07, 0xf7, 0x03, 0xfe, 0x06,
  0xfc, 0xf6, 0xff, 0x03, 0xf6, 0xff, 0xfa, 0x05, 0x00, 0xf9, 0x02, 0x08,
  0xf9, 0x00, 0x01, 0xfb, 0x04, 0xf7, 0x07, 0x06, 0xfe, 0x05, 0x03, 0x07,
  0x04, 0xfd, 0xfe, 0xfc, 0xfc, 0xf9, 0x08, 0xfb, 0x01, 0x07, 0xf5, 0xfd,
  0x03, 0xff, 0x06, 0xfe, 0xf7, 0x01, 0x01, 0x0a, 0xff, 0xf7, 0x09, 0xf7,
  0xfc, 0xf3, 0xfc, 0x01, 0xf8, 0xf1, 0xf2, 0x03, 0xfb, 0xfb, 0xfc, 0x05,
  0x00, 0x05, 0x0a, 0xfa, 0xfb, 0xf5, 0xfe, 0xfa, 0xf8, 0xf4, 0x05, 0xfd,
  0xf9, 0xf4, 0x03, 0xfb, 0xf5, 0xf1, 0xfc, 0xf8, 0x00, 0x01, 0xf9, 0xf4,
  0x00, 0x02, 0xfb, 0xf7, 0xf6, 0x05, 0xff, 0xfb, 0xf7, 0x06, 0xfd, 0x02,
  0xf7, 0xfc, 0x04, 0xf8, 0xfe, 0xfe, 0xfd, 0xf9, 0xfa, 0x02, 0xf5, 0x05,
  0xfe, 0x01, 0xf1, 0xf8, 0x05, 0xfe, 0x07, 0xfb, 0xf6, 0x07, 0xfc, 0x09,
  0x02, 0xf8, 0x00, 0x05, 0xf6, 0xfc, 0xf3, 0xff, 0xfe, 0xfe, 0x00, 0x09,
  0xf9, 0xfb, 0x03, 0xfe, 0x02, 0xfe, 0x04, 0xf7, 0xfa, 0xfc, 0xf6, 0x00,
  0x02, 0x07, 0xf7, 0x08, 0xf6, 0xfb, 0xfd, 0x04, 0xfa, 0x05, 0x09, 0x02,
  0x06, 0xf8, 0xf8, 0xfc, 0xfa, 0x00, 0xf9, 0xfe, 0xf8, 0x01, 0xf9, 0x01,
  0x04, 0xf5, 0xfe, 0xf8, 0x03, 0xff, 0xfd, 0x07, 0xfa, 0xff, 0xf4, 0xff,
  0x01, 0xfa, 0x07, 0xfd, 0x02, 0x00, 0xfc, 0x01, 0xf7, 0x02, 0xfb, 0x00,
  0xfc, 0xf7, 0x0a, 0xf7, 0x04, 0x04, 0xfc, 0xfc, 0xf9, 0x0d, 0xf7, 0xfd,
  0xfe, 0x08, 0xfd, 0x00, 0x03, 0xf7, 0x0f, 0x03, 0xff, 0xfd, 0x1e, 0x18,
  0x03, 0xf0, 0xf7, 0x05, 0xf1, 0xf7, 0x02, 0x00, 0x26, 0x18, 0xfa, 0x0d,
  0x1b, 0x12, 0x10, 0x17, 0x01, 0x06, 0x07, 0x03, 0x0a, 0xeb, 0x10, 0x0d,
  0x07, 0x02, 0x09, 0x14, 0xf6, 0x08, 0x09, 0x10, 0x04, 0x0f, 0x13, 0x0e,
  0x03, 0x0b, 0x09, 0x03, 0x12, 0x16, 0x0e, 0x09, 0x10, 0x05, 0x05, 0xf5,
  0x03, 0x00, 0x14, 0xf7, 0x09, 0xe8, 0x2a, 0x0a, 0x11, 0x04, 0xf2, 0x0c,
  0x00, 0x0f, 0xf0, 0xe7, 0x21, 0x0f, 0x12, 0x04, 0x15, 0xfb, 0x0a, 0x20,
  0x12, 0xfc, 0x1f, 0x00, 0x08, 0xf6, 0xf7, 0xeb, 0x0f, 0x0b, 0x0c, 0xfb,
  0x1c, 0x06, 0xfe, 0x1b, 0xfd, 0x07, 0xec, 0x1a, 0xfe, 0x12, 0xf3, 0xd2,
  0x11, 0x09, 0x0d, 0x09, 0x06, 0x00, 0xf5, 0x1e, 0x08, 0xf4, 0xf6, 0xcb,
  0xf4, 0xde, 0xf4, 0xed, 0xf8, 0x07, 0xf2, 0x09, 0x00, 0x19, 0x0c, 0x05,
  0x0d, 0x19, 0xd6, 0xfb, 0xe9, 0x04, 0xc1, 0xde, 0x0b, 0x10, 0x00, 0xfe,
  0x1a, 0xf0, 0xde, 0x0f, 0x00, 0xf0, 0xfc, 0xd4, 0xe9, 0xc4, 0xf3, 0xe7,
  0xf8, 0x0a, 0xbc, 0x1e, 0xcd, 0x38, 0xe1, 0x10, 0xfe, 0xff, 0x0b, 0x0d,
  0xfb, 0x0f, 0x06, 0x0d, 0x04, 0x09, 0xf0, 0x0e, 0xee, 0x08, 0xec, 0xf7,
  0x05, 0x04, 0x03, 0x01, 0x0d, 0xfa, 0x08, 0xfc, 0xf5, 0xfd, 0x01, 0x09,
  0xf5, 0xf9, 0xfc, 0x11, 0x21, 0x0e, 0xf6, 0x10, 0x23, 0x03, 0x04, 0x02,
  0x06, 0x0f, 0x12, 0x0e, 0x0a, 0x0c, 0xe7, 0x13, 0xf6, 0x02, 0x0f, 0xeb,
  0x13, 0x0d, 0x0e, 0x01, 0x10, 0x0b, 0xfe, 0x08, 0x06, 0x00, 0x01, 0x1b,
  0x09, 0x07, 0xee, 0x1a, 0x13, 0x09, 0xe4, 0xd7, 0x11, 0x1a, 0x20, 0x21,
  0x1e, 0x04, 0x0b, 0x15, 0xf4, 0xe9, 0x17, 0xd4, 0x09, 0xeb, 0x01, 0xe9,
  0x19, 0x0e, 0xe0, 0xf5, 0x10, 0x07, 0xf7, 0x20, 0xef, 0x08, 0xe0, 0x02,
  0x1c, 0x1c, 0xdb, 0xcf, 0x0e, 0x10, 0xfe, 0xfa, 0x0c, 0xfe, 0xe8, 0x13,
  0xe8, 0xcd, 0xfe, 0xd4, 0xe3, 0xc9, 0xea, 0xea, 0xf4, 0x0a, 0xce, 0x02,
  0xe2, 0x23, 0x08, 0x02, 0x10, 0x0a, 0xdc, 0xf9, 0xf8, 0xf8, 0xdb, 0xf1,
  0x03, 0x09, 0xfa, 0x14, 0x17, 0xee, 0xc5, 0x10, 0xc7, 0xd8, 0x02, 0xe2,
  0xe7, 0xcc, 0xcd, 0xdb, 0x13, 0x13, 0xc7, 0x15, 0xcb, 0x42, 0xe3, 0x0c,
  0x00, 0x03, 0x05, 0x00, 0xed, 0x00, 0xfa, 0xf2, 0x02, 0xfe, 0x02, 0x04,
  0xf5, 0xf4, 0xe6, 0x02, 0x02, 0x03, 0xf6, 0x07, 0x05, 0xf9, 0x01, 0x04,
  0xff, 0xfa, 0x04, 0x08, 0xf7, 0xf1, 0xed, 0x09, 0x0b, 0x06, 0x05, 0xfc,
  0x0b, 0xf8, 0xec, 0x12, 0x01, 0x15, 0x05, 0x1b, 0xfc, 0x0c, 0xee, 0x01,
  0x05, 0x0d, 0xff, 0xf5, 0x00, 0x03, 0x0f, 0x19, 0xfe, 0x14, 0x04, 0x0a,
  0xee, 0x03, 0xf5, 0x0d, 0x10, 0x15, 0xf2, 0xff, 0x06, 0xfc, 0xfd, 0xfb,
  0x11, 0x18, 0x1d, 0x14, 0x15, 0x08, 0x0f, 0x04, 0xf3, 0xef, 0x06, 0xe8,
  0xf9, 0xf2, 0xf3, 0xf7, 0x0f, 0x10, 0x00, 0xfe, 0x00, 0x09, 0xf9, 0x0e,
  0xfd, 0x05, 0xe1, 0xfc, 0x0d, 0xfd, 0xf5, 0xe1, 0xff, 0x12, 0xfe, 0x05,
  0x0f, 0x1a, 0x0e, 0xf4, 0xe2, 0xdf, 0x02, 0x00, 0xdb, 0xe7, 0xed, 0xea,
  0x15, 0xfe, 0xda, 0xf6, 0xf1, 0x1b, 0xf4, 0xfd, 0x03, 0x05, 0xfc, 0x00,
  0xf1, 0x0d, 0xfa, 0x06, 0xff, 0x02, 0xf7, 0xf9, 0x1e, 0x09, 0xf8, 0x0d,
  0xb3, 0xf9, 0x04, 0x06, 0xeb, 0xe9, 0xe6, 0x01, 0x0d, 0x02, 0xf2, 0xe0,
  0xe9, 0x21, 0x01, 0x03, 0xf8, 0x09, 0x14, 0xf7, 0xff, 0xe6, 0xe9, 0x07,
  0xf9, 0xf5, 0x04, 0x04, 0xf7, 0xfb, 0x0c, 0xef, 0xeb, 0x09, 0xe4, 0x12,
  0xf7, 0x0c, 0x16, 0x1e, 0x07, 0x04, 0x07, 0x0a, 0x10, 0x04, 0x00, 0xf8,
  0xf2, 0x02, 0xfc, 0xfb, 0x0e, 0xf9, 0x0b, 0x1c, 0xfc, 0x0c, 0x06, 0xfa,
  0xf3, 0x1b, 0x27, 0xe7, 0xee, 0x11, 0x01, 0x0c, 0xfa, 0x13, 0xf1, 0x09,
  0xf8, 0xfd, 0x1a, 0x07, 0x24, 0x0d, 0x1d, 0xf7, 0xff, 0x0d, 0xeb, 0x12,
  0x0a, 0x00, 0xff, 0x10, 0x01, 0x17, 0x14, 0xf2, 0xf4, 0xfd, 0x1e, 0xf7,
  0xe8, 0x0a, 0xf6, 0x2c, 0x02, 0x09, 0xf1, 0xfe, 0x10, 0x01, 0x00, 0x01,
  0x27, 0x1b, 0x11, 0x01, 0xfa, 0xfb, 0xf4, 0x0b, 0x10, 0xf9, 0x0d, 0x08,
  0x04, 0x0f, 0xff, 0xff, 0xf5, 0x34, 0x12, 0xea, 0xd2, 0xf9, 0xf0, 0x00,
  0xfb, 0x05, 0xf9, 0x07, 0x0a, 0x0c, 0xf1, 0xf9, 0xfb, 0x27, 0x08, 0xf4,
  0xe6, 0xed, 0x0f, 0x19, 0x1c, 0x1c, 0x1e, 0x21, 0x10, 0x02, 0x04, 0x0d,
  0xed, 0x3b, 0xec, 0x11, 0xd0, 0xf8, 0xee, 0x0f, 0xff, 0x07, 0x18, 0x0a,
  0xff, 0x00, 0x14, 0xea, 0xeb, 0x32, 0x20, 0xf0, 0xf4, 0x01, 0x01, 0x05,
  0x00, 0xf3, 0x19, 0x0b, 0xed, 0xfb, 0x1d, 0xf7, 0x06, 0xf0, 0x38, 0xff,
  0xec, 0x11, 0x00, 0x0e, 0x09, 0x21, 0x07, 0x0b, 0xf7, 0xf8, 0x09, 0xec,
  0x0d, 0xfd, 0x07, 0x07, 0xf8, 0x06, 0xfb, 0x01, 0x12, 0xf3, 0x30, 0x0b,
  0xf3, 0x03, 0x02, 0xdf, 0x00, 0xfd, 0x2c, 0xe1, 0xf2, 0x14, 0x0e, 0x20,
  0x02, 0x0f, 0xf8, 0xfd, 0xf9, 0xf1, 0x23, 0xe9, 0x25, 0xfd, 0x23, 0xdc,
  0xea, 0x0e, 0xf7, 0xfd, 0xfd, 0xf5, 0x1d, 0x0d, 0x00, 0x18, 0xff, 0xd5,
  0xfb, 0x0c, 0x25, 0xe9, 0xef, 0x05, 0x0f, 0x11, 0xfe, 0x10, 0xf0, 0xff,
  0x0d, 0xef, 0xfc, 0xe2, 0x1b, 0x1e, 0x15, 0xf9, 0xf7, 0xf0, 0x0b, 0x15,
  0xfd, 0x15, 0x0b, 0x0b, 0x10, 0x0b, 0x0a, 0xe9, 0xf5, 0x28, 0xf6, 0xf9,
  0xde, 0x02, 0xf1, 0x0d, 0xf6, 0x11, 0xff, 0x0a, 0xf8, 0xfd, 0xfb, 0xd4,
  0xfc, 0x22, 0x10, 0xe9, 0xdc, 0xd3, 0x1a, 0x38, 0x22, 0x23, 0xeb, 0x0f,
  0x22, 0xf8, 0x26, 0x0c, 0xcd, 0x4e, 0x0f, 0x11, 0xf3, 0xe3, 0xda, 0x2d,
  0xf6, 0x19, 0x37, 0xf6, 0xf1, 0xe9, 0x12, 0xe1, 0x07, 0x33, 0x20, 0xea,
  0xfd, 0x1b, 0x19, 0x1c, 0x1b, 0x25, 0x06, 0x1b, 0x23, 0x18, 0x27, 0x06,
  0x02, 0x17, 0x11, 0x18, 0x1f, 0x08, 0xf0, 0x17, 0x13, 0x08, 0x1b, 0x1b,
  0x02, 0xf9, 0x05, 0x15, 0x0b, 0x00, 0x11, 0x16, 0x01, 0x1f, 0xf5, 0x22,
  0x15, 0x0e, 0xfe, 0x0d, 0x2e, 0x12, 0x31, 0xed, 0x01, 0x2a, 0x0b, 0x0b,
  0x0d, 0x08, 0xfe, 0x17, 0x09, 0xfb, 0x0a, 0xfd, 0xf5, 0xf0, 0xf6, 0x03,
  0xf7, 0x0d, 0x17, 0x02, 0x0d, 0x20, 0xf1, 0xff, 0x1a, 0xe6, 0xf0, 0x0e,
  0x0c, 0x0d, 0x1b, 0xf4, 0xfa, 0x23, 0x04, 0x0a, 0x0a, 0xf7, 0x07, 0x09,
  0xe6, 0x04, 0xf9, 0xff, 0xf0, 0x03, 0xef, 0x0f, 0xee, 0x0d, 0x07, 0x0e,
  0x14, 0x19, 0xe7, 0x03, 0x0f, 0xf1, 0xe4, 0xf7, 0xec, 0x10, 0x07, 0xf2,
  0x0d, 0x10, 0x0d, 0xf7, 0xfe, 0xf7, 0x0f, 0x0f, 0x00, 0x03, 0x00, 0xfc,
  0x0d, 0xfe, 0xe6, 0x18, 0xfa, 0x0d, 0xd8, 0x11, 0x0b, 0x11, 0xf0, 0xfe,
  0xff, 0xf6, 0xf1, 0xe9, 0xef, 0x0e, 0x03, 0xf5, 0x16, 0x11, 0x00, 0xfd,
  0xf5, 0xfc, 0x23, 0x20, 0xff, 0x06, 0xf8, 0xf7, 0x34, 0xfc, 0xea, 0x04,
  0xfe, 0xfe, 0x00, 0x1c, 0xfc, 0x1a, 0x0a, 0x0f, 0x07, 0x11, 0x09, 0x04,
  0x09, 0x10, 0x41, 0xf8, 0x0c, 0x19, 0x0c, 0x00, 0x2c, 0x11, 0xf8, 0x02,
  0x07, 0x18, 0x07, 0x10, 0xff, 0xf9, 0xf9, 0x0e, 0x24, 0x03, 0x26, 0x18,
  0x00, 0x0d, 0xff, 0x02, 0x0f, 0xf7, 0x03, 0xf5, 0x0f, 0x03, 0x45, 0x09,
  0x0b, 0x10, 0x13, 0xfc, 0x05, 0x0b, 0x04, 0xfb, 0x0d, 0x07, 0x00, 0xff,
  0x0a, 0xef, 0xfc, 0xf7, 0x02, 0x08, 0x0f, 0x12, 0x10, 0x02, 0xf4, 0x0e,
  0x05, 0x07, 0x08, 0x09, 0xfd, 0x11, 0x0d, 0x00, 0xf3, 0x0a, 0xfa, 0x09,
  0x01, 0x0c, 0x0d, 0x0b, 0x07, 0x02, 0xf6, 0x00, 0x04, 0x06, 0xe9, 0xf2,
  0x01, 0x05, 0x08, 0x12, 0x19, 0x02, 0x03, 0xff, 0x03, 0xf5, 0xfb, 0x0a,
  0xee, 0x07, 0xf2, 0x11, 0xf5, 0x02, 0xf4, 0x0d, 0x0d, 0x0b, 0x16, 0x01,
  0x1e, 0x17, 0xfb, 0x08, 0x07, 0x0a, 0xf6, 0x04, 0x02, 0xfb, 0xf6, 0x1f,
  0x26, 0xfb, 0xf1, 0x03, 0xee, 0x05, 0x02, 0xf3, 0xf5, 0x01, 0x11, 0x05,
  0x0b, 0xf9, 0x09, 0xf2, 0x09, 0x10, 0x28, 0x22, 0x1b, 0x01, 0x06, 0x08,
  0x22, 0x0f, 0x0e, 0x05, 0x1d, 0xfe, 0x03, 0x24, 0xf1, 0x0f, 0x05, 0x11,
  0x12, 0x03, 0x10, 0x01, 0x0c, 0x16, 0x1c, 0x15, 0xfa, 0x1f, 0xfb, 0xf3,
  0x23, 0x07, 0xff, 0x17, 0xf9, 0x06, 0x00, 0xf1, 0xfa, 0xfa, 0x14, 0xf8,
  0x09, 0xfc, 0x2a, 0x00, 0x01, 0x13, 0xf1, 0x0d, 0x01, 0xfd, 0x13, 0xf7,
  0x1b, 0x09, 0x13, 0x15, 0x17, 0x0f, 0xf8, 0x05, 0x11, 0xfd, 0x07, 0xfc,
  0x0d, 0x00, 0xe6, 0xdf, 0x0d, 0x02, 0x06, 0xe9, 0x15, 0x0e, 0x0e, 0x14,
  0x02, 0xf5, 0xf5, 0x02, 0xfa, 0x15, 0x03, 0x05, 0x04, 0x0a, 0xe3, 0x04,
  0x0c, 0x07, 0xe2, 0x1f, 0x04, 0xfb, 0xfe, 0x09, 0x00, 0xf8, 0xf1, 0xec,
  0x05, 0x0f, 0xf5, 0xeb, 0xf6, 0x07, 0x0a, 0xff, 0x11, 0xfc, 0x10, 0x03,
  0x1c, 0x1a, 0x05, 0x02, 0xfc, 0x00, 0xe7, 0x0b, 0xf5, 0x01, 0xd5, 0x19,
  0x13, 0x14, 0x17, 0xf5, 0x15, 0x0a, 0x04, 0x0f, 0x03, 0x0e, 0x06, 0x0a,
  0xfb, 0x04, 0x09, 0x00, 0x1d, 0xf7, 0x00, 0xf3, 0xef, 0x0d, 0x0f, 0xea,
  0x02, 0xfe, 0x09, 0x0f, 0x06, 0xed, 0xe9, 0x06, 0x14, 0x12, 0x14, 0x18,
  0x16, 0x08, 0x05, 0x09, 0x15, 0xfe, 0x09, 0xfe, 0x0a, 0xf5, 0xef, 0x11,
  0xe9, 0xfe, 0xf9, 0x07, 0x13, 0xf3, 0x21, 0xf7, 0xfd, 0x06, 0xfd, 0x02,
  0x06, 0x09, 0x04, 0x0c, 0x14, 0x0a, 0xff, 0x1c, 0xe7, 0xf4, 0xfa, 0xde,
  0xfe, 0xf4, 0x07, 0xfa, 0xed, 0xfb, 0x20, 0xff, 0xf8, 0x0e, 0xfb, 0xfa,
  0x04, 0x02, 0x06, 0xdd, 0x0e, 0x0c, 0x09, 0x03, 0x05, 0x09, 0xeb, 0x11,
  0x11, 0xf2, 0x0c, 0xee, 0xf8, 0x01, 0xf7, 0xda, 0x03, 0x02, 0x02, 0xec,
  0xfd, 0xf9, 0x0d, 0x11, 0x00, 0xfa, 0x00, 0xfb, 0x06, 0x0b, 0xff, 0xf2,
  0x0a, 0xfc, 0xe7, 0x08, 0x1c, 0x04, 0xed, 0x19, 0x08, 0xfe, 0x19, 0xec,
  0xfc, 0xf7, 0xf0, 0xe4, 0xfa, 0xf2, 0x01, 0xfd, 0xe8, 0xfa, 0xef, 0x01,
  0x05, 0x06, 0x0e, 0x06, 0xfd, 0x1a, 0xf9, 0xfb, 0xfc, 0x0d, 0xea, 0x0f,
  0x0b, 0xf3, 0xe4, 0x3a, 0x05, 0x0d, 0x10, 0x0e, 0x0b, 0xff, 0xf9, 0x04,
  0x00, 0x07, 0xfa, 0x1f, 0xe6, 0xf4, 0xf0, 0xfe, 0x0c, 0x00, 0xfc, 0xfa,
  0xf1, 0xfe, 0xee, 0xde, 0xfb, 0x02, 0xfe, 0x19, 0x05, 0xed, 0xdf, 0x1c,
  0x09, 0x02, 0x11, 0x1e, 0x0b, 0xf1, 0x11, 0x12, 0xf9, 0x16, 0x0a, 0x10,
  0xf4, 0xec, 0xf6, 0x03, 0x00, 0x0a, 0x03, 0xf2, 0x0f, 0xf1, 0x1b, 0x04,
  0xe8, 0xfb, 0xf5, 0xfd, 0xfa, 0x0e, 0xfd, 0xf0, 0x17, 0x1b, 0x1e, 0x0d,
  0x04, 0xfa, 0xfc, 0xeb, 0x19, 0xfa, 0x02, 0xed, 0xfa, 0xf1, 0x15, 0x1c,
  0x1d, 0xfa, 0xf9, 0xfb, 0x03, 0xf2, 0x10, 0xf7, 0xed, 0x03, 0xe9, 0x0b,
  0x12, 0x05, 0xf7, 0x02, 0x20, 0x04, 0x27, 0xe5, 0xfa, 0x08, 0x11, 0xf1,
  0x14, 0x0d, 0xec, 0xf6, 0xd8, 0xf4, 0x04, 0x2f, 0x1d, 0xf9, 0x0c, 0xee,
  0xfc, 0xfe, 0xf8, 0x02, 0x06, 0x1e, 0xef, 0x18, 0x33, 0xef, 0xe2, 0x16,
  0x17, 0xf9, 0x11, 0xec, 0xe9, 0xf4, 0xee, 0xe5, 0x03, 0x29, 0xf5, 0xeb,
  0xde, 0xff, 0xfc, 0x1a, 0x0d, 0xf2, 0x11, 0xff, 0x09, 0x17, 0xf1, 0xfa,
  0x1b, 0x18, 0xe0, 0x1d, 0x19, 0xe4, 0xee, 0x3f, 0xf9, 0xf6, 0x0a, 0x0b,
  0xf8, 0xee, 0xe4, 0xd7, 0xf0, 0x31, 0xfe, 0x08, 0xe3, 0x05, 0xfb, 0x17,
  0x00, 0x08, 0x06, 0x0a, 0xf6, 0x09, 0xc0, 0xf0, 0x01, 0x16, 0xfe, 0x20,
  0x07, 0xd6, 0xe0, 0x17, 0xfb, 0xea, 0x07, 0x0b, 0xd1, 0xe2, 0xf8, 0xe7,
  0xec, 0x2b, 0xe8, 0x1d, 0xd7, 0xfe, 0xde, 0x06, 0x03, 0xfb, 0x01, 0xf6,
  0xfc, 0xfd, 0xf9, 0xfc, 0x03, 0x05, 0x07, 0xf8, 0x04, 0x07, 0x07, 0xf9,
  0x07, 0xf8, 0xfa, 0xf4, 0xf7, 0xf6, 0xfb, 0x02, 0xf6, 0xfc, 0x01, 0xf7,
  0x07, 0x00, 0x03, 0xfe, 0xf8, 0xff, 0x03, 0xf6, 0xf4, 0xfa, 0x04, 0x04,
  0x01, 0x05, 0xf7, 0xfd, 0x02, 0x07, 0x06, 0x01, 0xfa, 0xf5, 0xfd, 0xfb,
  0xfb, 0xfa, 0xfc, 0xfc, 0xf8, 0xf9, 0x02, 0xf6, 0x03, 0x00, 0xff, 0xfa,
  0xf7, 0xf6, 0x01, 0xff, 0x01, 0xfa, 0x01, 0xf5, 0xf7, 0xfa, 0xfe, 0xfc,
  0xfe, 0xfa, 0xfd, 0xf8, 0x02, 0xfe, 0xfc, 0x03, 0x05, 0xf8, 0x06, 0xfc,
  0xf7, 0x01, 0x05, 0x04, 0xf9, 0xfc, 0xf8, 0xfb, 0xf7, 0x04, 0x06, 0xfd,
  0x00, 0x03, 0x03, 0xf7, 0xfe, 0xf8, 0x07, 0x00, 0x05, 0xfa, 0x06, 0x04,
  0xff, 0x03, 0x05, 0xfa, 0x04, 0x03, 0xfa, 0x00, 0x00, 0x04, 0x01, 0x06,
  0xfc, 0xf8, 0x00, 0x08, 0xff, 0x02, 0xfc, 0xfa, 0x02, 0xf9, 0xf7, 0xf8,
  0xfb, 0xfb, 0xfa, 0xf9, 0xf8, 0x00, 0x01, 0x07, 0xff, 0x00, 0xfc, 0xfb,
  0x01, 0x03, 0xfc, 0xfa, 0xfa, 0xfa, 0x05, 0xfa, 0xfd, 0x02, 0x01, 0xfe,
  0x01, 0xfd, 0xf8, 0x04, 0x02, 0xfe, 0xfc, 0xfd, 0xf4, 0xfe, 0x04, 0x03,
  0xfe, 0x07, 0x03, 0xfc, 0xff, 0xf9, 0xfd, 0x01, 0x05, 0xf6, 0xf7, 0xfa,
  0xfd, 0xf7, 0x00, 0x06, 0x04, 0xf8, 0x09, 0x02, 0xf5, 0x04, 0x03, 0x00,
  0xfe, 0xf7, 0x02, 0xfd, 0x01, 0x02, 0x08, 0x02, 0xfd, 0xfd, 0xfb, 0xff,
  0xfa, 0x06, 0xfa, 0x07, 0x02, 0xf9, 0xfd, 0x01, 0x06, 0x03, 0xff, 0xf6,
  0x03, 0x01, 0xf5, 0x03, 0xfe, 0xfb, 0xfa, 0x03, 0x00, 0xfe, 0xf8, 0xf6,
  0xfd, 0xfe, 0x06, 0x07, 0xf7, 0xfe, 0x07, 0x01, 0xf7, 0x03, 0xfd, 0xf8,
  0xf9, 0xf9, 0x07, 0xf8, 0xf5, 0xfd, 0xf8, 0xfd, 0xfe, 0xf5, 0x02, 0x06,
  0x06, 0xfb, 0xfc, 0xfd, 0xfe, 0xfe, 0xf7, 0xf8, 0x01, 0x00, 0x05, 0xff,
  0x02, 0x00, 0xf9, 0x08, 0x03, 0x03, 0xf9, 0xf5, 0x04, 0xf8, 0x06, 0x04,
  0x03, 0xfc, 0x06, 0x00, 0xfa, 0xfc, 0xfc, 0xfc, 0xfc, 0x04, 0xf7, 0x01,
  0xfc, 0x03, 0x05, 0x00, 0xfa, 0x00, 0x05, 0xf7, 0x03, 0xfe, 0xff, 0x00,
  0x05, 0x02, 0xfb, 0xff, 0x08, 0xfc, 0x03, 0xfc, 0x01, 0x01, 0x06, 0xfc,
  0x05, 0x04, 0xfa, 0xfc, 0x01, 0xfa, 0x01, 0x06, 0x00, 0x05, 0xf7, 0x05,
  0xff, 0xfe, 0x04, 0x04, 0x03, 0xff, 0x04, 0xf4, 0xff, 0xf7, 0xf7, 0xf8,
  0xfd, 0x01, 0x03, 0xf9, 0x06, 0xf9, 0x00, 0xfe, 0xf8, 0xfe, 0x00, 0xfa,
  0x01, 0x03, 0xf9, 0xf3, 0xfe, 0xfc, 0x02, 0xf8, 0xf8, 0xf4, 0xff, 0x02,
  0x05, 0x04, 0xf7, 0xf9, 0xfb, 0x05, 0xfa, 0x05, 0xf6, 0xf5, 0xfe, 0xf9,
  0xf6, 0x01, 0xfd, 0x00, 0xf7, 0x01, 0x01, 0x05, 0xff, 0xfb, 0x00, 0xfe,
  0x00, 0xfa, 0x01, 0xfc, 0x05, 0xf9, 0x05, 0xfa, 0x05, 0x00, 0xfd, 0x00,
  0xf9, 0xf9, 0x03, 0xff, 0xfc, 0xf3, 0xf5, 0x04, 0x00, 0xf8, 0x00, 0xfb,
  0x04, 0x00, 0xf9, 0xf5, 0x05, 0xff, 0x07, 0x03, 0x06, 0x04, 0x07, 0x05,
  0xf6, 0xfc, 0xfb, 0xf7, 0x07, 0x06, 0xff, 0xfb, 0xff, 0xfe, 0x05, 0xf9,
  0x04, 0xfe, 0xfc, 0x01, 0xfa, 0xf4, 0xfb, 0xfe, 0xfc, 0x00, 0x05, 0xfb,
  0xf7, 0x04, 0xfb, 0x05, 0x00, 0xfa, 0x08, 0x00, 0xfd, 0xfa, 0xf8, 0xff,
  0xfc, 0xf8, 0x04, 0x06, 0x04, 0x02, 0xfd, 0x00, 0xfb, 0xf9, 0xfe, 0xfa,
  0x08, 0xf8, 0xfa, 0x00, 0x03, 0x01, 0x02, 0x03, 0xfa, 0x03, 0x02, 0xfb,
  0xfc, 0xfd, 0xf9, 0x04, 0x00, 0xfb, 0x04, 0x00, 0xf9, 0x02, 0x04, 0xfc,
  0x05, 0x03, 0x00, 0x04, 0xf9, 0xf9, 0x07, 0xfc, 0x04, 0x08, 0xf5, 0xf6,
  0x04, 0xf8, 0x05, 0xfa, 0xf4, 0xfb, 0xfd, 0xff, 0xff, 0x07, 0xf8, 0x05,
  0x04, 0xfb, 0xfb, 0x04, 0xf9, 0x02, 0x08, 0x01, 0x02, 0x03, 0x00, 0x04,
  0xf8, 0xfd, 0xf9, 0xfa, 0xff, 0x04, 0xff, 0xfd, 0x01, 0x03, 0xfe, 0x05,
  0xf4, 0xf7, 0x00, 0x02, 0xf7, 0xfa, 0xfa, 0x07, 0xfb, 0x01, 0xfd, 0xf7,
  0x02, 0xff, 0xf9, 0x02, 0x05, 0x03, 0x05, 0xf9, 0xff, 0x04, 0xfa, 0x01,
  0xf7, 0xfc, 0x06, 0x05, 0xf7, 0xff, 0x08, 0xfc, 0x00, 0xfc, 0xf4, 0x07,
  0xf9, 0xf5, 0xfe, 0xfd, 0xf5, 0x01, 0x01, 0xff, 0xff, 0xfc, 0x03, 0x03,
  0xf8, 0xfa, 0xf9, 0xfb, 0xf7, 0xf5, 0x06, 0xfa, 0xfa, 0xfe, 0x07, 0xfb,
  0xf7, 0xff, 0xfb, 0x02, 0xf7, 0xfb, 0x04, 0x07, 0x02, 0xfe, 0x05, 0xf8,
  0xf9, 0xfb, 0x06, 0x06, 0xfd, 0xfd, 0x07, 0xfe, 0xf9, 0x04, 0xff, 0xf6,
  0xf8, 0x07, 0x02, 0xfc, 0x03, 0xf8, 0xfb, 0xf8, 0xfb, 0x03, 0xfd, 0xf7,
  0x01, 0xfa, 0x07, 0xfa, 0xff, 0xf8, 0x02, 0x07, 0x00, 0x05, 0xf9, 0xfa,
  0x00, 0xf7, 0xfa, 0x01, 0xff, 0xfb, 0xfd, 0x01, 0x00, 0xfe, 0x04, 0xff,
  0x05, 0x04, 0x06, 0xfa, 0xff, 0xf9, 0xf8, 0x06, 0xf6, 0xfb, 0xf7, 0xf8,
  0xf6, 0xfe, 0xfc, 0x04, 0xf8, 0xf8, 0xfa, 0xf7, 0xf6, 0xfd, 0x02, 0xf9,
  0xfe, 0xf7, 0x03, 0x01, 0x02, 0x02, 0x02, 0xf8, 0xfe, 0x01, 0xf5, 0x05,
  0xff, 0xf8, 0xfe, 0xff, 0xf5, 0x00, 0xf7, 0xf6, 0x05, 0x01, 0x05, 0xfe,
  0xfc, 0xf7, 0x01, 0xf8, 0xf7, 0x00, 0xfa, 0xf4, 0xfc, 0xfe, 0x03, 0xf7,
  0xfb, 0x06, 0xfe, 0xf9, 0xf8, 0xfe, 0xfc, 0xff, 0xff, 0x00, 0x03, 0xf7,
  0x04, 0xf8, 0xf6, 0xfc, 0xfa, 0x02, 0x01, 0xfd, 0x00, 0xfd, 0x05, 0xfa,
  0xfc, 0xf8, 0xfe, 0xfd, 0xf5, 0x05, 0xf3, 0x02, 0xf6, 0xf7, 0x00, 0x02,
  0x06, 0x02, 0xfe, 0x03, 0xfd, 0x00, 0x05, 0x04, 0xfd, 0xf7, 0xfc, 0x00,
  0xfc, 0x06, 0xfb, 0xfd, 0xfd, 0x02, 0xfc, 0x06, 0x07, 0x08, 0xf8, 0x04,
  0x04, 0x00, 0x05, 0x00, 0xfe, 0xfa, 0xf5, 0xfc, 0xf6, 0xf7, 0xfc, 0xfd,
  0x03, 0xfa, 0x01, 0xf8, 0xfa, 0xf2, 0x04, 0xec, 0x0c, 0xf4, 0xf1, 0x06,
  0xfa, 0xed, 0x08, 0xe7, 0xd1, 0xf3, 0xf9, 0xe9, 0xf4, 0x00, 0xf4, 0x01,
  0xf7, 0x05, 0xf7, 0xf9, 0xff, 0xeb, 0xdc, 0xfe, 0xe5, 0xe8, 0xee, 0xd5,
  0xf5, 0xf2, 0x0b, 0xf2, 0x15, 0xf2, 0xf5, 0xf8, 0xf9, 0xe0, 0x1d, 0xf6,
  0xd5, 0x0d, 0x03, 0xc0, 0x20, 0xfa, 0xe5, 0x0f, 0xec, 0x0e, 0x0e, 0x12,
  0xfd, 0xe2, 0xd0, 0xdd, 0xe6, 0xeb, 0x02, 0xec, 0xe1, 0xdc, 0xf0, 0x0d,
  0x07, 0x0d, 0xf7, 0xf8, 0xf7, 0xe8, 0x1a, 0xfc, 0xe7, 0x06, 0x05, 0xd0,
  0x0e, 0xfb, 0xe3, 0x0a, 0xf2, 0x05, 0x07, 0xf7, 0xf5, 0xe8, 0xd5, 0xd9,
  0xde, 0x05, 0x21, 0x07, 0xdf, 0xeb, 0xeb, 0xfa, 0xec, 0xf8, 0x04, 0xf6,
  0xed, 0xfc, 0x13, 0xf7, 0xf3, 0x0c, 0xfa, 0xdf, 0x0a, 0xe4, 0xed, 0x0e,
  0xe6, 0x0d, 0xfe, 0xf3, 0xf7, 0xe9, 0xe6, 0xe3, 0xe8, 0x05, 0x10, 0xfd,
  0xdb, 0xd7, 0xf3, 0xf6, 0xff, 0xfb, 0xfb, 0xec, 0xf6, 0x01, 0xff, 0xdd,
  0xdb, 0x1d, 0x09, 0xed, 0xed, 0xe3, 0xf5, 0x01, 0xea, 0x0d, 0x00, 0xf1,
  0xfd, 0xfc, 0xd7, 0xe6, 0xf5, 0xf6, 0x05, 0xe4, 0xf0, 0xfe, 0xe1, 0xe3,
  0x0e, 0xf2, 0x08, 0xe3, 0x03, 0xf0, 0x14, 0xea, 0xe4, 0x01, 0x0c, 0xea,
  0xe2, 0xf1, 0xfe, 0xfd, 0xf1, 0xf5, 0x12, 0xe3, 0xea, 0xf2, 0x11, 0xed,
  0xff, 0xf1, 0x0e, 0xef, 0xe2, 0xf3, 0xec, 0xe4, 0x08, 0xd8, 0x01, 0xf1,
  0xfa, 0x03, 0x1e, 0xe5, 0xe5, 0x10, 0x22, 0xc7, 0x0b, 0xf3, 0x0a, 0xff,
  0xf3, 0xf4, 0x0c, 0xee, 0x0a, 0xed, 0xff, 0xdf, 0xeb, 0xef, 0x32, 0xec,
  0xf3, 0x0f, 0xe2, 0xe7, 0xdc, 0xdd, 0x0d, 0xec, 0xed, 0x06, 0x2c, 0xd4,
  0xec, 0xf2, 0x1f, 0xce, 0xf8, 0xec, 0x07, 0x11, 0x00, 0x04, 0xfd, 0xe4,
  0x0e, 0x01, 0x09, 0xe3, 0xea, 0x06, 0x1b, 0x11, 0xfc, 0x15, 0xe6, 0xea,
  0xf9, 0xe4, 0x03, 0x04, 0xf3, 0x00, 0x05, 0xee, 0xef, 0x10, 0x18, 0xe1,
  0xfb, 0xeb, 0xea, 0x1e, 0xf7, 0x06, 0xff, 0xf3, 0x25, 0x07, 0x0d, 0xf2,
  0xff, 0x1a, 0xff, 0x09, 0xfe, 0xf6, 0xe4, 0x03, 0xff, 0xe8, 0xf9, 0xee,
  0xf9, 0xf7, 0x08, 0xdc, 0xdf, 0x16, 0x2b, 0xf6, 0xf5, 0xef, 0xf9, 0x0e,
  0xf9, 0x03, 0x0e, 0xf5, 0x0c, 0x16, 0xfc, 0xf9, 0xe1, 0x0f, 0x1d, 0xef,
  0xf7, 0x01, 0xc9, 0xcf, 0xe1, 0xdc, 0xfc, 0xbe, 0xf4, 0x0c, 0x05, 0xd5,
  0x0e, 0xcf, 0x0d, 0xf9, 0xcf, 0x0d, 0x29, 0xe4, 0x0a, 0xb1, 0xd2, 0xcb,
  0x17, 0x0e, 0xfd, 0xeb, 0x0c, 0xfe, 0xce, 0x10, 0x04, 0x13, 0xd7, 0xc7,
  0xde, 0xde, 0x04, 0xdf, 0xf1, 0x06, 0xf9, 0xe1, 0x18, 0xaa, 0xfb, 0xe7,
  0xda, 0x05, 0x1e, 0xe2, 0x07, 0xbf, 0xc8, 0xe3, 0x16, 0xff, 0xec, 0xd0,
  0x09, 0x0e, 0xf2, 0x0c, 0x0f, 0x1a, 0xdb, 0xe2, 0xe4, 0xe9, 0xfe, 0xd4,
  0xfd, 0x0b, 0x1a, 0xdd, 0xf7, 0xb0, 0x00, 0xfb, 0xd9, 0x01, 0x04, 0x19,
  0x09, 0xeb, 0xe0, 0xea, 0x11, 0x0b, 0xd7, 0xf8, 0xf4, 0x0d, 0xe8, 0xf7,
  0x0c, 0xfc, 0xf9, 0x06, 0xf8, 0xfe, 0xfb, 0xff, 0x00, 0xfb, 0x20, 0xfe,
  0xe0, 0xf1, 0x1c, 0x09, 0xed, 0x09, 0xe8, 0xff, 0x15, 0xf8, 0x03, 0xf7,
  0x17, 0x17, 0xe8, 0x11, 0xeb, 0x0f, 0x06, 0xf9, 0x02, 0x05, 0xef, 0x08,
  0xec, 0x01, 0xdc, 0x18, 0x0e, 0x08, 0x0e, 0xf5, 0xe3, 0x0b, 0x30, 0xfc,
  0xfc, 0xf5, 0xf9, 0xff, 0x0c, 0x07, 0x1b, 0x02, 0x0c, 0x0d, 0xe7, 0x16,
  0xf9, 0x0d, 0xfe, 0xfd, 0x1e, 0x26, 0x06, 0x04, 0xe4, 0x14, 0xe7, 0x00,
  0x0d, 0x2e, 0xe7, 0x15, 0x26, 0xf0, 0xab, 0x33, 0xe0, 0x01, 0x19, 0xd6,
  0x27, 0xfa, 0x13, 0x2e, 0x20, 0x1e, 0xda, 0x0d, 0x09, 0x0d, 0xc2, 0x2f,
  0x13, 0x18, 0xee, 0x05, 0xe9, 0x06, 0xf3, 0x10, 0x1b, 0x14, 0xd6, 0x18,
  0x34, 0xe6, 0xb6, 0x2e, 0xdd, 0x06, 0x14, 0xe2, 0x0d, 0xf8, 0x0a, 0x18,
  0xf6, 0x07, 0xe8, 0x03, 0xf6, 0x1c, 0xcd, 0x0e, 0x04, 0x05, 0x0b, 0x0a,
  0xe4, 0x0f, 0xeb, 0xf4, 0x10, 0xf5, 0xee, 0x00, 0x06, 0xed, 0xea, 0x31,
  0xf2, 0x17, 0xd4, 0xe6, 0x10, 0x0e, 0x0a, 0x21, 0xe6, 0x05, 0xe9, 0x1f,
  0xf1, 0xf0, 0xf0, 0xfe, 0x0a, 0xfc, 0x14, 0x04, 0xf9, 0x0f, 0xf7, 0x10,
  0x14, 0xff, 0x0d, 0x0e, 0x15, 0xc9, 0x08, 0x05, 0x01, 0x0b, 0xfc, 0xde,
  0x10, 0x0b, 0x01, 0x10, 0xee, 0x06, 0x01, 0x1e, 0xe2, 0xdf, 0xf8, 0x08,
  0x1a, 0x0b, 0x13, 0xfc, 0x1b, 0x01, 0xf4, 0x1b, 0x28, 0x04, 0xef, 0x1c,
  0x0e, 0xe5, 0x04, 0xfd, 0x13, 0x0a, 0x0c, 0xdf, 0x03, 0x13, 0xf9, 0x0c,
  0x07, 0x0e, 0xf9, 0x1b, 0x08, 0x0d, 0xd6, 0x09, 0xf2, 0x06, 0x11, 0x12,
  0x01, 0x0d, 0xe3, 0x08, 0x11, 0xf6, 0x14, 0x33, 0x0c, 0xf9, 0xce, 0x21,
  0x29, 0xef, 0xea, 0x0c, 0x05, 0xee, 0x20, 0x2d, 0xd7, 0xf3, 0x08, 0x3d,
  0x11, 0x12, 0xf1, 0x04, 0xf7, 0xfe, 0x0c, 0x15, 0xff, 0x06, 0xff, 0x05,
  0x1d, 0xe4, 0xf2, 0x28, 0xfa, 0xfa, 0xdb, 0x16, 0x18, 0x10, 0xdb, 0x0e,
  0x0e, 0xfa, 0x07, 0x21, 0x00, 0xdf, 0x0b, 0x3e, 0x0b, 0x00, 0xe6, 0xf0,
  0x0a, 0x05, 0x09, 0x0b, 0xfc, 0x0a, 0x09, 0x05, 0x11, 0xdc, 0xf6, 0x1d,
  0xec, 0x07, 0xe9, 0xf3, 0x32, 0x13, 0xf0, 0xe8, 0x07, 0xf9, 0x03, 0x13,
  0x0a, 0xf3, 0x22, 0x31, 0x26, 0xe5, 0xfd, 0xfd, 0x1d, 0x03, 0x0c, 0xfe,
  0x0a, 0xf5, 0xf0, 0x0c, 0x0d, 0x10, 0xee, 0x32, 0x1c, 0xfd, 0x0b, 0xf4,
  0x17, 0x0f, 0x0a, 0xd1, 0xfb, 0x0a, 0x07, 0x03, 0x1f, 0x14, 0x08, 0x2a,
  0x2b, 0xfe, 0xed, 0x16, 0x1e, 0xfb, 0x1f, 0x24, 0x2d, 0x22, 0x08, 0x08,
  0x27, 0x25, 0xeb, 0x28, 0x28, 0x0b, 0x11, 0x16, 0x05, 0x0a, 0xf5, 0xea,
  0xfd, 0x1e, 0x10, 0x15, 0x01, 0x34, 0x2b, 0x18, 0x2c, 0x28, 0x01, 0x04,
  0x03, 0x02, 0x13, 0xfe, 0x0f, 0x0d, 0x03, 0x07, 0x07, 0xf9, 0xfe, 0x08,
  0xfa, 0xfc, 0x08, 0xef, 0x07, 0xfb, 0xff, 0xfa, 0xf2, 0xf7, 0x17, 0x03,
  0xfe, 0xfc, 0xf5, 0x07, 0xfd, 0x01, 0x02, 0xea, 0xee, 0xf7, 0x05, 0x02,
  0x0e, 0x03, 0xe9, 0x05, 0x05, 0xff, 0x0d, 0x0e, 0x05, 0xfa, 0x0a, 0xfa,
  0x03, 0xf5, 0xf6, 0xf6, 0xf9, 0xfa, 0xfc, 0xf9, 0xfc, 0x00, 0xf4, 0x0b,
  0xfc, 0x07, 0x07, 0x04, 0xed, 0xf4, 0xf6, 0xfd, 0xf9, 0xfd, 0xf2, 0xfa,
  0x04, 0x06, 0x11, 0x01, 0x00, 0xfa, 0x0d, 0x04, 0x01, 0xfa, 0xef, 0xfa,
  0xf1, 0xf1, 0x03, 0xf4, 0xfe, 0xf6, 0xf6, 0xfe, 0xf7, 0x07, 0xfd, 0xeb,
  0xff, 0xfc, 0xfa, 0x0a, 0xfd, 0x00, 0xf4, 0x05, 0xf8, 0x0d, 0x06, 0xf6,
  0xf1, 0xf6, 0xfe, 0xfb, 0xff, 0x01, 0xf7, 0xf8, 0xf0, 0xf9, 0x0a, 0xf8,
  0xfe, 0xf8, 0xf5, 0x09, 0xff, 0xf2, 0xf5, 0xfe, 0xf5, 0xf0, 0xf9, 0xff,
  0x06, 0xf6, 0x00, 0xff, 0xfb, 0xf4, 0xf5, 0xfe, 0xf9, 0x01, 0xf6, 0xf5,
  0xff, 0x00, 0xf7, 0xf3, 0xfd, 0xf8, 0xfe, 0xf8, 0x07, 0xf0, 0xfb, 0xf3,
  0xff, 0xfe, 0xf4, 0xf6, 0x01, 0x01, 0xf5, 0xfb, 0xf3, 0xef, 0x01, 0xfa,
  0x0b, 0xfc, 0x02, 0xfc, 0x01, 0xfd, 0xfb, 0xea, 0x06, 0xfc, 0xf2, 0x04,
  0xef, 0x05, 0x02, 0xf5, 0x06, 0xf7, 0xfa, 0x05, 0x0f, 0xfe, 0x00, 0xf5,
  0x00, 0x05, 0x03, 0xff, 0x00, 0x0a, 0xfc, 0xfe, 0x0a, 0x01, 0x09, 0x02,
  0x00, 0x0a, 0xf5, 0xff, 0xf9, 0x01, 0xec, 0xf8, 0xfb, 0xfc, 0x08, 0xfb,
  0xfb, 0xff, 0xfc, 0x04, 0x12, 0xfc, 0xfb, 0xfa, 0xfb, 0x07, 0x00, 0xf0,
  0xf5, 0xf5, 0x0b, 0xf2, 0x01, 0x00, 0x03, 0xfe, 0x02, 0x04, 0xf5, 0xfc,
  0x04, 0xfe, 0xfe, 0xfa, 0x00, 0xf2, 0xf9, 0xe9, 0xf9, 0xf1, 0xfc, 0xf2,
  0x05, 0x06, 0xfb, 0xf7, 0xf5, 0xff, 0xf3, 0x05, 0xf0, 0xff, 0xf9, 0xf7,
  0xfb, 0x09, 0xf5, 0x02, 0xf9, 0xf8, 0xf1, 0xfd, 0xf3, 0xf0, 0xfc, 0xfa,
  0xec, 0xfe, 0xff, 0xf7, 0x08, 0xf0, 0x04, 0xf9, 0xfd, 0x05, 0xed, 0xf6,
  0xfd, 0xf7, 0xf7, 0x04, 0xf1, 0xf9, 0xfb, 0xf2, 0xfd, 0x00, 0xff, 0xf8,
  0x0a, 0x05, 0xf2, 0x02, 0xfc, 0x0a, 0x00, 0xfc, 0x05, 0xf1, 0xfe, 0xed,
  0x00, 0x01, 0x04, 0xf0, 0xf8, 0xf5, 0xf8, 0x04, 0xf9, 0x04, 0xf4, 0x02,
  0x01, 0x05, 0x0a, 0xfb, 0xfc, 0xec, 0xfc, 0x05, 0x0a, 0xf9, 0x0a, 0xf6,
  0xf7, 0x0c, 0x00, 0xef, 0x02, 0x01, 0x02, 0xef, 0xfe, 0x01, 0xfb, 0xf9,
  0xff, 0x07, 0x02, 0x02, 0xf9, 0xf9, 0x0a, 0xfb, 0x00, 0xf2, 0x00, 0x01,
  0xfc, 0xfc, 0xfd, 0xf4, 0xf4, 0xfe, 0x0b, 0xff, 0x00, 0xf4, 0xfe, 0xf8,
  0x10, 0xff, 0xfd, 0xf9, 0xeb, 0xf6, 0x06, 0x10, 0x00, 0xf1, 0xf5, 0x03,
  0xfe, 0xf9, 0xf1, 0xf3, 0xe9, 0xf6, 0xf6, 0xfc, 0xfe, 0xfa, 0xe9, 0xfb,
  0xfa, 0xfd, 0xf5, 0xf8, 0xfd, 0x03, 0xf9, 0xf7, 0xff, 0xfb, 0xeb, 0xed,
  0xf8, 0xfe, 0xfb, 0xf7, 0xf6, 0x01, 0xf6, 0xfd, 0xfc, 0xf3, 0xfb, 0xfb,
  0xf6, 0xf3, 0x01, 0xf3, 0xef, 0x02, 0xef, 0xf5, 0x07, 0xf8, 0xff, 0x06,
  0xf3, 0xf3, 0xf1, 0xf2, 0xf9, 0xec, 0xf7, 0xed, 0xf8, 0xf8, 0xfa, 0xf2,
  0xf7, 0x04, 0x02, 0xfb, 0x09, 0xf8, 0xf9, 0x02, 0xf8, 0xfe, 0x0b, 0xfd,
  0xf7, 0xf6, 0xf7, 0xf0, 0x00, 0xff, 0xff, 0xf6, 0xeb, 0x04, 0xfc, 0x02,
  0x02, 0xf5, 0xee, 0xf5, 0xfe, 0x02, 0xf7, 0xf6, 0x02, 0x03, 0x03, 0x01,
  0x07, 0xff, 0x0f, 0x02, 0xfa, 0x0c, 0x05, 0xf1, 0xf5, 0x03, 0xf9, 0xed,
  0xff, 0x01, 0x04, 0xf8, 0x0f, 0xfa, 0xf5, 0x01, 0x06, 0x03, 0x05, 0x00,
  0xfd, 0x03, 0x09, 0x02, 0xfd, 0x07, 0xf8, 0xfa, 0xf8, 0xf1, 0x0a, 0xfc,
  0xf3, 0x03, 0xfc, 0x08, 0x01, 0xfa, 0xf7, 0x00, 0xfc, 0xfc, 0x0c, 0xf9,
  0x06, 0x09, 0xf8, 0xff, 0x02, 0x03, 0xff, 0x05, 0xf5, 0xf9, 0x07, 0x07,
  0xf4, 0xf8, 0xff, 0xef, 0xeb, 0xf9, 0xff, 0xf7, 0xf5, 0xfa, 0xf3, 0xfa,
  0xf7, 0x02, 0xfb, 0xfd, 0xfd, 0xea, 0xfb, 0xfa, 0xfc, 0x01, 0xf4, 0xeb,
  0x08, 0xfa, 0xf8, 0xf6, 0x05, 0xf1, 0xfc, 0xfe, 0xf2, 0x03, 0xfc, 0x03,
  0xfb, 0xfe, 0xf8, 0xf9, 0xf7, 0xfc, 0xfc, 0xef, 0xf8, 0xfb, 0xf8, 0xf5,
  0xfe, 0x01, 0xf8, 0x07, 0xfc, 0x03, 0x05, 0xf9, 0xf4, 0x03, 0xf4, 0x02,
  0x03, 0xfa, 0x01, 0x02, 0x00, 0xef, 0xfb, 0xf7, 0xf6, 0xf5, 0x09, 0xf9,
  0x02, 0xf4, 0xfa, 0x03, 0xf9, 0xf6, 0xfb, 0x00, 0x03, 0x02, 0xf9, 0xf7,
  0xfa, 0x02, 0xf1, 0xf8, 0xf9, 0x02, 0xfb, 0xfe, 0x0b, 0x05, 0xf9, 0x02,
  0x0c, 0xff, 0xfa, 0xf8, 0xf0, 0xfa, 0xfe, 0xf9, 0x00, 0xfc, 0xfa, 0x00,
  0x06, 0xf9, 0xf1, 0xf8, 0xf7, 0xfd, 0x09, 0x05, 0x05, 0xf8, 0x08, 0x01,
  0xf0, 0x01, 0x04, 0x07, 0xfe, 0xfb, 0xfb, 0xfd, 0xfd, 0xf8, 0xf9, 0xf8,
  0x00, 0xf7, 0xfe, 0xfe, 0xfd, 0xfe, 0xf9, 0xff, 0xfc, 0xfb, 0xf0, 0xf4,
  0xfa, 0x07, 0xf9, 0xf9, 0x07, 0xfe, 0xe8, 0xfe, 0xf5, 0xf0, 0xf6, 0xf1,
  0x09, 0xff, 0xf8, 0xf9, 0xfd, 0xfb, 0xfa, 0xfe, 0xfa, 0x02, 0xff, 0xf7,
  0x06, 0xf7, 0xf3, 0x07, 0x06, 0x06, 0xfa, 0x04, 0xfb, 0xfa, 0xfc, 0xfb,
  0xfd, 0xfc, 0xf9, 0xff, 0x06, 0xed, 0x01, 0xfd, 0xf8, 0xfb, 0x01, 0xf3,
  0xfb, 0xf7, 0x07, 0xff, 0xfe, 0xec, 0xf5, 0xfd, 0x07, 0xfe, 0x03, 0x05,
  0xf1, 0xfc, 0xf7, 0x00, 0xeb, 0x04, 0x03, 0xf3, 0xf8, 0x01, 0x07, 0xfd,
  0xfb, 0x03, 0x01, 0x03, 0xfb, 0xf8, 0x07, 0x00, 0xf4, 0xf7, 0x01, 0x00,
  0xfc, 0xff, 0xec, 0xf8, 0xff, 0xfa, 0xee, 0xf7, 0xee, 0xfb, 0x00, 0xfc,
  0xf3, 0xff, 0xf8, 0xf8, 0xfe, 0x03, 0xf1, 0xfc, 0xfa, 0x0f, 0x09, 0xf5,
  0x06, 0x04, 0xfb, 0x05, 0x01, 0xfb, 0xfd, 0x01, 0x04, 0xf7, 0xef, 0xe2,
  0x08, 0xe9, 0x14, 0xf7, 0xda, 0xe2, 0x19, 0xfa, 0xf4, 0x15, 0x1b, 0xde,
  0x1e, 0x04, 0x06, 0xf7, 0x0b, 0x06, 0x01, 0xf2, 0xfd, 0xcb, 0xee, 0xf6,
  0x04, 0xf0, 0x26, 0xff, 0x0f, 0xfc, 0xe7, 0xfe, 0x05, 0xdc, 0x17, 0x00,
  0xed, 0x0a, 0x0f, 0x0c, 0xf9, 0x0b, 0x0f, 0xe2, 0x14, 0x0b, 0x0f, 0xed,
  0x0a, 0xfe, 0x03, 0xf2, 0x03, 0xf4, 0x08, 0xe3, 0x15, 0xed, 0x27, 0x1b,
  0x1c, 0x14, 0xf0, 0xfd, 0x1f, 0xe6, 0x13, 0x11, 0x0c, 0x22, 0x0d, 0x00,
  0xfd, 0xfa, 0x13, 0xea, 0x0c, 0x13, 0x20, 0xfd, 0x0f, 0xfa, 0xfb, 0xf9,
  0x0d, 0xf6, 0x17, 0xe8, 0x14, 0xe5, 0x11, 0x2c, 0x07, 0x17, 0xf1, 0x04,
  0x11, 0xf5, 0x0b, 0xfa, 0x18, 0x0e, 0x00, 0x01, 0xfc, 0xe5, 0x05, 0x0b,
  0x0a, 0xf8, 0x21, 0xf7, 0xfa, 0x05, 0xf5, 0xfa, 0x05, 0x01, 0xff, 0xef,
  0x17, 0xf1, 0x08, 0x24, 0xfc, 0xfb, 0xe8, 0x02, 0xf8, 0x02, 0xfd, 0xe1,
  0xfe, 0x0e, 0x03, 0x14, 0xf0, 0xf0, 0x09, 0x09, 0x13, 0xe4, 0xef, 0xe8,
  0xe7, 0xf5, 0xfd, 0xf0, 0xec, 0xfc, 0xfa, 0x13, 0x02, 0xfb, 0xf9, 0x06,
  0x05, 0xf6, 0xf7, 0xe6, 0x0f, 0xe4, 0x16, 0x21, 0xe5, 0xf9, 0x0e, 0xf1,
  0xee, 0x0c, 0x34, 0xdf, 0xfe, 0x09, 0x11, 0xf9, 0xf5, 0x0c, 0xf0, 0xe4,
  0x08, 0xf9, 0x07, 0xd2, 0xfd, 0xf2, 0x26, 0x06, 0x0d, 0x00, 0xf1, 0xea,
  0x02, 0xe7, 0x13, 0x16, 0xde, 0xfc, 0xf2, 0xe6, 0xfe, 0xf3, 0x0f, 0xec,
  0xef, 0x09, 0x15, 0xfd, 0x05, 0x01, 0xea, 0xea, 0x07, 0x04, 0x0e, 0xf6,
  0x16, 0xdf, 0x19, 0x11, 0x0f, 0x04, 0xf7, 0xe8, 0x06, 0xee, 0x01, 0x05,
  0xf2, 0x09, 0xee, 0x09, 0x02, 0xf5, 0x00, 0xf7, 0xfd, 0x0f, 0x10, 0x01,
  0x12, 0x0b, 0xef, 0xfc, 0xfd, 0xf9, 0x06, 0xff, 0x15, 0xdf, 0xfd, 0x0e,
  0x0e, 0x02, 0xf8, 0x00, 0xfa, 0xeb, 0x01, 0xed, 0xfc, 0x07, 0x0d, 0x0b,
  0x0a, 0xf2, 0x03, 0x04, 0x0c, 0xfd, 0xf9, 0x04, 0x07, 0x0a, 0xfc, 0xfa,
  0xf2, 0x02, 0xff, 0xfe, 0x20, 0x04, 0xff, 0x14, 0xf9, 0xfa, 0xf1, 0xfa,
  0x12, 0xf3, 0xf5, 0xe0, 0x0b, 0x06, 0x04, 0x08, 0xf6, 0x00, 0xfe, 0x13,
  0x04, 0xd9, 0xf7, 0xec, 0xf2, 0xff, 0xf4, 0xf5, 0xe0, 0xf7, 0xe1, 0x0a,
  0x0a, 0xf7, 0xfb, 0xfd, 0x10, 0xfe, 0xeb, 0xe7, 0x07, 0xd9, 0x03, 0x01,
  0xed, 0xfd, 0x03, 0x01, 0x09, 0x0f, 0xf5, 0xee, 0xcc, 0x05, 0x08, 0xec,
  0x07, 0xea, 0xf1, 0xca, 0x07, 0xfc, 0x09, 0xd6, 0xf2, 0x00, 0xfe, 0x0b,
  0xfd, 0xfc, 0xeb, 0xdc, 0xf6, 0xef, 0xfe, 0x06, 0xee, 0xfa, 0xeb, 0xee,
  0xfb, 0x02, 0xe5, 0xfe, 0xd8, 0x06, 0xfc, 0x00, 0xf7, 0xdb, 0xea, 0xd8,
  0x01, 0xfd, 0x11, 0xed, 0x00, 0xeb, 0x1d, 0x02, 0x0d, 0xf4, 0xf9, 0x05,
  0x00, 0x01, 0x05, 0x01, 0x06, 0xf8, 0xf6, 0x04, 0xf2, 0xf1, 0x0f, 0x06,
  0xf5, 0xf9, 0x0d, 0xef, 0x07, 0x00, 0x0c, 0xf3, 0xf0, 0xff, 0x07, 0x0c,
  0x09, 0xe6, 0xff, 0x07, 0xff, 0xf2, 0xf7, 0x17, 0xf9, 0x08, 0xf4, 0xef,
  0x0d, 0xfb, 0x1e, 0xfe, 0xf8, 0xfc, 0x0e, 0x10, 0x02, 0xf2, 0xf1, 0xe4,
  0xfb, 0x00, 0x15, 0x01, 0xe2, 0xfb, 0x00, 0x1c, 0x07, 0xee, 0x01, 0x16,
  0xef, 0xff, 0xf0, 0x08, 0x13, 0xfb, 0x00, 0xe0, 0x04, 0xfe, 0x15, 0x0e,
  0x00, 0xe1, 0x05, 0x11, 0x16, 0xed, 0x00, 0xcc, 0xf7, 0xf3, 0x04, 0xfc,
  0xf4, 0xf2, 0xd7, 0x17, 0x09, 0xf3, 0xe4, 0xf7, 0xfc, 0x13, 0xec, 0x0b,
  0xe3, 0x00, 0xe6, 0xeb, 0x04, 0x0a, 0x15, 0xfd, 0x16, 0xfc, 0x07, 0x18,
  0xae, 0xe7, 0x0c, 0xe8, 0xf2, 0xec, 0x18, 0xf9, 0x04, 0xfe, 0xe1, 0x08,
  0xee, 0x03, 0xe3, 0x15, 0xfa, 0xfc, 0xee, 0x00, 0xed, 0xfe, 0xf4, 0xe4,
  0x09, 0xfd, 0x17, 0x07, 0x06, 0xfa, 0xec, 0x0c, 0xbb, 0xea, 0x09, 0xed,
  0xfe, 0x01, 0xfb, 0xfb, 0xf9, 0x03, 0xe8, 0xfa, 0xe4, 0x0c, 0x0e, 0xef,
  0x09, 0x02, 0xf4, 0x00, 0x0b, 0xf5, 0x01, 0xfa, 0x07, 0xff, 0xfd, 0x17,
  0xff, 0x0b, 0xf8, 0x16, 0xeb, 0xfe, 0x15, 0xef, 0xf7, 0xfe, 0x04, 0xec,
  0x08, 0x0e, 0x04, 0xfe, 0xf3, 0x04, 0xf5, 0x14, 0x09, 0x0c, 0xf8, 0x1b,
  0xf4, 0x15, 0xfe, 0xf1, 0x0b, 0xfb, 0x1f, 0xf6, 0x0c, 0xe7, 0x0a, 0x1e,
  0x02, 0xfc, 0xfe, 0x0c, 0xfb, 0xfa, 0x07, 0xf7, 0x01, 0xf7, 0xfd, 0xfe,
  0xfe, 0x01, 0x0e, 0x0c, 0x04, 0xf2, 0xfd, 0x0b, 0x16, 0x0b, 0x27, 0x10,
  0x01, 0xfd, 0x09, 0xf0, 0xf9, 0xdb, 0xf2, 0x09, 0x08, 0x07, 0x08, 0xf8,
  0xf4, 0xfe, 0xf3, 0xef, 0x08, 0xf5, 0xe6, 0xfc, 0xe8, 0x00, 0x11, 0x00,
  0x03, 0x10, 0x1a, 0x08, 0x02, 0x14, 0xdd, 0x03, 0x1f, 0x1c, 0x23, 0x26,
  0x1b, 0xe1, 0x1b, 0x27, 0x03, 0x0a, 0x05, 0xf2, 0x03, 0x2c, 0x04, 0x41,
  0x0c, 0x1c, 0xfc, 0x1d, 0x18, 0x0c, 0xd7, 0x08, 0xfb, 0x05, 0xfc, 0x11,
  0x0f, 0x02, 0xf5, 0x0f, 0x12, 0x01, 0x21, 0x22, 0x17, 0xf1, 0x28, 0x1c,
  0xdf, 0xfb, 0xe6, 0x18, 0x04, 0x0f, 0x01, 0x1a, 0x05, 0x00, 0x12, 0x08,
  0x12, 0x1e, 0xfa, 0xdf, 0xf9, 0x0c, 0xf5, 0x0a, 0x02, 0x06, 0x02, 0xfd,
  0xf8, 0xf5, 0x36, 0xf6, 0xf2, 0x0a, 0x05, 0x3d, 0xd2, 0x0e, 0xea, 0x31,
  0x18, 0x0e, 0x23, 0x2b, 0x0b, 0xf5, 0x26, 0x0f, 0x27, 0x0b, 0x15, 0xf3,
  0x02, 0x18, 0x01, 0xfe, 0x0c, 0xf5, 0x16, 0x03, 0xca, 0xd0, 0xf8, 0xda,
  0x05, 0x0b, 0x06, 0xf7, 0xec, 0x16, 0x01, 0x37, 0x17, 0x11, 0x29, 0x34,
  0x12, 0xc7, 0x08, 0x09, 0x21, 0xe6, 0x0c, 0x01, 0x02, 0x14, 0x10, 0xc0,
  0x02, 0xce, 0x3c, 0x25, 0xb6, 0xe6, 0xdd, 0xdd, 0xef, 0xf9, 0x19, 0xe3,
  0x0b, 0x2e, 0x03, 0x17, 0x1d, 0x14, 0x18, 0x34, 0x1a, 0xcf, 0x1e, 0x02,
  0x19, 0xca, 0x04, 0xff, 0xd1, 0xe4, 0xe5, 0xe6, 0x07, 0xe7, 0xe0, 0xcb,
  0xe2, 0xe0, 0x0f, 0xf8, 0xe7, 0xfd, 0xf2, 0xf2, 0xdd, 0xc4, 0xe7, 0x02,
  0xcd, 0xd8, 0xe9, 0xeb, 0xf2, 0xe7, 0xd0, 0x07, 0xe0, 0xea, 0xf0, 0xe9,
  0xf0, 0xfc, 0xcf, 0xf1, 0xf2, 0xcb, 0xe4, 0xbc, 0xd8, 0xe9, 0xff, 0xec,
  0x01, 0xe5, 0xf6, 0xf2, 0xce, 0xdd, 0x0f, 0x09, 0xd6, 0xf4, 0xff, 0x07,
  0xfc, 0xd5, 0xee, 0xf0, 0x12, 0xfa, 0xe3, 0xff, 0x05, 0x13, 0xe2, 0xd9,
  0xd8, 0xe4, 0xff, 0xc8, 0xf1, 0xf4, 0xde, 0xde, 0x13, 0xeb, 0xf0, 0xee,
  0xcc, 0xee, 0x14, 0x0e, 0xf9, 0xf3, 0xe7, 0xfd, 0x1c, 0xfc, 0x06, 0xe5,
  0x0a, 0x0f, 0xc9, 0xfd, 0x05, 0xd3, 0xfd, 0xf3, 0xea, 0x05, 0x23, 0xdd,
  0xf0, 0xd9, 0xea, 0xf8, 0xef, 0x01, 0x0b, 0xfa, 0xf5, 0x08, 0x12, 0x02,
  0x1c, 0x05, 0xfc, 0x06, 0x28, 0x13, 0x11, 0xe8, 0x10, 0xe6, 0x16, 0xe6,
  0xf8, 0xda, 0x15, 0x01, 0x05, 0x01, 0x23, 0x25, 0xfa, 0xef, 0xfc, 0xf2,
  0xdd, 0x21, 0x10, 0x00, 0xf0, 0x0c, 0xf9, 0x22, 0x16, 0x0d, 0x0c, 0x06,
  0xeb, 0x05, 0x0d, 0xec, 0xed, 0xe0, 0x18, 0xf3, 0xf1, 0xf4, 0xea, 0xe4,
  0xf2, 0xeb, 0xf3, 0xf4, 0xe4, 0xf4, 0xe9, 0x14, 0xfd, 0x07, 0x03, 0xe0,
  0xde, 0xeb, 0x01, 0x0a, 0xf2, 0xee, 0xf0, 0xeb, 0xfc, 0xd9, 0xeb, 0x00,
  0xeb, 0xf5, 0x0c, 0xf9, 0x03, 0x07, 0xd5, 0xda, 0xc3, 0xe5, 0x01, 0xde,
  0xf0, 0x14, 0xc9, 0xf6, 0x0c, 0xea, 0xf2, 0xfb, 0xec, 0xee, 0x1e, 0x04,
  0x01, 0xd7, 0xe0, 0xf2, 0x00, 0x10, 0x0a, 0xda, 0xf9, 0x04, 0xd9, 0x07,
  0x0a, 0x13, 0xe0, 0xe6, 0xc0, 0xef, 0x0c, 0xf5, 0x01, 0x13, 0xd7, 0xe7,
  0x0f, 0xcd, 0xf3, 0xfa, 0x03, 0xf2, 0x1a, 0x17, 0x0b, 0xf1, 0xf9, 0x05,
  0x27, 0x12, 0x2d, 0xf7, 0xfc, 0x2a, 0xd7, 0x0b, 0x0e, 0xfe, 0x02, 0x06,
  0xf1, 0x10, 0x22, 0xfb, 0xfb, 0x03, 0xfd, 0xf2, 0x00, 0xf1, 0x04, 0x0c,
  0x00, 0x12, 0x0e, 0x09, 0x0e, 0x01, 0xfc, 0x06, 0x17, 0x17, 0x12, 0x14,
  0x0b, 0x14, 0x10, 0xf7, 0xdb, 0xe7, 0x1c, 0x14, 0x1f, 0xff, 0x25, 0x10,
  0x00, 0xf2, 0xfd, 0xdc, 0x0c, 0x2f, 0x10, 0x0e, 0xf6, 0xfd, 0xf3, 0x2d,
  0x12, 0x1f, 0x16, 0x15, 0xf4, 0xf2, 0x10, 0xea, 0xf3, 0xe9, 0x17, 0xf3,
  0xfe, 0x08, 0xda, 0xd2, 0xfd, 0xef, 0xef, 0xf7, 0xe4, 0x02, 0xf8, 0xee,
  0x03, 0x1f, 0x11, 0xf9, 0xd8, 0xf3, 0x15, 0x05, 0xf0, 0xf0, 0xf6, 0xdf,
  0x0b, 0xe9, 0xe3, 0xe9, 0xe8, 0xf9, 0x0b, 0x00, 0x0b, 0x1d, 0xe7, 0x05,
  0xea, 0xff, 0xdb, 0xd9, 0x0f, 0x21, 0xe2, 0xf0, 0x26, 0xf5, 0xee, 0x0e,
  0xd9, 0xea, 0x19, 0xf5, 0x01, 0xde, 0xf8, 0x0e, 0x19, 0x13, 0xf0, 0x00,
  0x04, 0x17, 0xc9, 0x07, 0x06, 0x06, 0x09, 0x12, 0x03, 0x12, 0x0a, 0x04,
  0x06, 0x16, 0xf6, 0x10, 0x0d, 0x19, 0xd6, 0x22, 0x24, 0xfb, 0x0b, 0x29,
  0x06, 0x09, 0x0a, 0x31, 0xf6, 0x0b, 0x01, 0x19, 0x17, 0x18, 0xe7, 0xf7,
  0x00, 0x0a, 0x11, 0x08, 0x0b, 0x02, 0xfa, 0x00, 0x03, 0xfc, 0xfa, 0x03,
  0x12, 0x17, 0xee, 0x11, 0x11, 0x0c, 0x10, 0x1c, 0xfd, 0x18, 0x06, 0x13,
  0x08, 0xfb, 0xf6, 0x0f, 0x06, 0xfe, 0x09, 0xfb, 0xda, 0xf8, 0x16, 0xfb,
  0x04, 0xfb, 0xec, 0x1f, 0x0a, 0xfe, 0x01, 0xf9, 0x0e, 0x3b, 0x22, 0x0e,
  0xf9, 0xf1, 0xf4, 0x28, 0xe6, 0x13, 0x12, 0x05, 0xed, 0xe8, 0x19, 0xfe,
  0x00, 0xe6, 0x13, 0xf5, 0xf6, 0x03, 0xf0, 0xf3, 0x05, 0xf1, 0xd3, 0xf8,
  0xe9, 0x00, 0xf7, 0xf8, 0x00, 0x06, 0x06, 0xf1, 0xf8, 0xd4, 0xf6, 0x05,
  0xe3, 0xf7, 0xf8, 0xf3, 0x09, 0x01, 0xdf, 0xe7, 0xea, 0xf4, 0xe4, 0x09,
  0xf5, 0x06, 0x01, 0x10, 0x0c, 0xfc, 0xd0, 0xf9, 0x07, 0x08, 0x16, 0x13,
  0xfd, 0x13, 0x0e, 0xff, 0x0b, 0xd4, 0x04, 0xfa, 0xe9, 0xfa, 0x16, 0x00,
  0xe6, 0xf9, 0xe5, 0x10, 0xe4, 0x03, 0xd7, 0x04, 0x00, 0xf3, 0x1b, 0x0f,
  0x17, 0xf4, 0x05, 0x18, 0xf2, 0xfd, 0x19, 0x23, 0xf5, 0x1d, 0x04, 0xfe,
  0x24, 0x08, 0x0a, 0x0f, 0xf1, 0x1e, 0x10, 0x2e, 0x03, 0xe7, 0x13, 0x21,
  0xfa, 0x11, 0xf5, 0x06, 0x07, 0x01, 0x03, 0xef, 0xfe, 0xd5, 0xfa, 0xf9,
  0xf5, 0x01, 0x0f, 0x17, 0x14, 0xfe, 0xff, 0xef, 0x18, 0x00, 0x07, 0x08,
  0xfb, 0x06, 0x03, 0xf7, 0x14, 0xf8, 0x1e, 0xe3, 0x26, 0x0f, 0x07, 0x11,
  0xff, 0x00, 0xe6, 0xe2, 0xf0, 0xe5, 0xf6, 0xf7, 0xf0, 0x01, 0x08, 0xf9,
  0x03, 0x17, 0x15, 0x06, 0x07, 0xe2, 0xf0, 0x10, 0xe1, 0xe7, 0xe2, 0xcc,
  0xf4, 0xe1, 0x03, 0xfb, 0x19, 0xf3, 0x17, 0x00, 0xf8, 0x14, 0x01, 0x08,
  0xff, 0x07, 0xf9, 0xe9, 0xfe, 0xf5, 0x00, 0xfe, 0xec, 0x0a, 0x0e, 0xf8,
  0x03, 0xeb, 0xf5, 0xe0, 0xeb, 0xf2, 0x00, 0xfb, 0xe5, 0xf8, 0xde, 0x03,
  0xde, 0xfd, 0xfd, 0x01, 0xfd, 0x17, 0xfe, 0xfb, 0x05, 0x09, 0x0e, 0xf6,
  0xf8, 0x0a, 0x0b, 0x0b, 0xf1, 0xfc, 0x10, 0xdf, 0x07, 0xfc, 0xfc, 0xef,
  0xfb, 0x0a, 0x09, 0x04, 0xff, 0x07, 0xfb, 0x01, 0xdb, 0xf7, 0x03, 0x09,
  0x04, 0xfb, 0xfb, 0x02, 0x12, 0xfb, 0xfa, 0x00, 0x05, 0x19, 0x31, 0x08,
  0xfa, 0x12, 0x10, 0xfe, 0x12, 0xf1, 0x17, 0x04, 0x06, 0x16, 0x0c, 0x0f,
  0x0f, 0x04, 0xfe, 0xf9, 0xff, 0x0b, 0x19, 0xff, 0xfd, 0xfe, 0xf0, 0xf0,
  0x06, 0xdc, 0xf8, 0xfb, 0xf1, 0x0b, 0x16, 0x03, 0x07, 0x0f, 0x01, 0xf7,
  0x00, 0xff, 0x06, 0x06, 0xfe, 0xf5, 0x06, 0x0a, 0x05, 0x07, 0xf3, 0x00,
  0x09, 0x04, 0x09, 0x00, 0xe0, 0xee, 0xd2, 0xea, 0x0d, 0xe2, 0x00, 0xec,
  0xf8, 0x01, 0x1f, 0xfa, 0xf3, 0x26, 0xf9, 0x01, 0xe3, 0xfb, 0xe7, 0xe6,
  0xf5, 0xee, 0xf8, 0xef, 0xfd, 0xdd, 0xf2, 0xef, 0x0a, 0xf0, 0x06, 0xf1,
  0xff, 0x05, 0x0f, 0x07, 0x0b, 0x29, 0xfa, 0x1e, 0x19, 0x07, 0xed, 0x08,
  0xe9, 0x04, 0xf4, 0xff, 0x0d, 0xf7, 0x14, 0xf9, 0xe5, 0xf4, 0x09, 0xfd,
  0xdc, 0x0b, 0x05, 0xef, 0xed, 0xf5, 0x0a, 0xe0, 0x0a, 0x05, 0xfd, 0x00,
  0x09, 0x07, 0x00, 0x0c, 0x11, 0x03, 0xe7, 0x05, 0x03, 0x01, 0xea, 0xf8,
  0xfe, 0xfb, 0x11, 0xef, 0xfe, 0xe2, 0xe5, 0xf6, 0xf2, 0x11, 0x02, 0x07,
  0xd2, 0xff, 0x12, 0x05, 0x15, 0x08, 0x0d, 0x08, 0x28, 0xf8, 0xfd, 0x15,
  0xfd, 0x0c, 0xd6, 0x18, 0x1c, 0xfb, 0xea, 0x19, 0xfb, 0x0c, 0x0f, 0xef,
  0x0e, 0xfb, 0xef, 0x08, 0xe2, 0xfd, 0x08, 0x01, 0xf0, 0x11, 0xfc, 0x00,
  0x11, 0x0c, 0x23, 0xf4, 0x1d, 0xfa, 0x00, 0x11, 0x06, 0x07, 0xdf, 0x20,
  0x28, 0xf9, 0xf0, 0x1f, 0x09, 0x10, 0x00, 0x0e, 0x09, 0x05, 0xf8, 0x14,
  0xe3, 0x0d, 0x16, 0x0b, 0x02, 0x06, 0xf2, 0x20, 0x28, 0x25, 0x28, 0x07,
  0x19, 0x0e, 0x06, 0x28, 0x08, 0x14, 0xee, 0x29, 0x36, 0xe9, 0xf3, 0x0d,
  0x29, 0x28, 0x20, 0x26, 0x26, 0x11, 0x0b, 0x2c, 0x0b, 0x1f, 0x2d, 0xff,
  0x1c, 0xf9, 0x04, 0x2a, 0xeb, 0xde, 0xf6, 0xf2, 0xfe, 0xfe, 0xf4, 0x10,
  0x0f, 0xeb, 0x0c, 0xf1, 0xcb, 0x01, 0x12, 0xd2, 0x12, 0xdf, 0xec, 0xfd,
  0xd6, 0x02, 0xfc, 0xf9, 0xdf, 0xee, 0xff, 0xe8, 0xed, 0xf1, 0x12, 0xbb,
  0xec, 0xf2, 0x06, 0xf2, 0xfe, 0xfa, 0xee, 0x05, 0xf9, 0xec, 0x0c, 0xf4,
  0xe4, 0x19, 0xf7, 0xdc, 0xe8, 0xf0, 0xf7, 0xe5, 0xe7, 0x00, 0xf7, 0xfe,
  0xd9, 0xee, 0xd9, 0xff, 0xc4, 0xe5, 0x16, 0xde, 0xf1, 0xf3, 0xfc, 0x0b,
  0x17, 0xec, 0xf8, 0xf8, 0xf3, 0xff, 0xff, 0x22, 0x17, 0xff, 0xef, 0x0e,
  0xd6, 0x07, 0xfc, 0xe3, 0xed, 0xf0, 0xe7, 0xf2, 0xeb, 0xf1, 0xf6, 0xe7,
  0xea, 0x07, 0x03, 0x06, 0xfe, 0xfe, 0x11, 0x19, 0x18, 0x14, 0x02, 0xfd,
  0x04, 0x09, 0xf9, 0x10, 0x06, 0xfb, 0xfa, 0x10, 0x03, 0x04, 0xf3, 0xf3,
  0xfe, 0x02, 0x0d, 0x02, 0xee, 0x01, 0x00, 0x09, 0xe8, 0x06, 0xe8, 0xfd,
  0x1b, 0xed, 0x2e, 0x14, 0x02, 0x22, 0x1a, 0x14, 0xf3, 0xf2, 0xe4, 0x0f,
  0x19, 0x0d, 0xf0, 0x09, 0x08, 0x1b, 0x09, 0x00, 0x1b, 0x0e, 0x1e, 0x13,
  0xfc, 0x09, 0x27, 0x09, 0xfe, 0xdf, 0x08, 0x13, 0xe8, 0xc7, 0x02, 0xf3,
  0x02, 0x09, 0x05, 0x03, 0x11, 0xe0, 0x23, 0xbc, 0xe0, 0x15, 0x18, 0xeb,
  0xfb, 0xed, 0xd9, 0xf4, 0xe4, 0x1e, 0xf5, 0xf6, 0xf1, 0xee, 0xe9, 0xd0,
  0x14, 0xeb, 0x2d, 0xc0, 0xe4, 0xdd, 0xfa, 0x05, 0x2a, 0x0d, 0xfb, 0x05,
  0x03, 0xd5, 0x32, 0xde, 0xc4, 0x0b, 0x27, 0xdd, 0xfd, 0xf3, 0xe4, 0xfd,
  0xe4, 0x1d, 0xf0, 0xf2, 0xe5, 0xd0, 0xdc, 0xe9, 0xfc, 0xcc, 0x21, 0xc4,
  0xe6, 0xf7, 0xee, 0x08, 0x06, 0x11, 0xf6, 0xfa, 0x19, 0xf3, 0x25, 0x11,
  0x15, 0x02, 0xfc, 0xf9, 0xf3, 0xef, 0xff, 0xec, 0xee, 0xfa, 0xee, 0xf0,
  0xfb, 0xe2, 0xf6, 0xea, 0xff, 0x1a, 0x10, 0xfb, 0xf3, 0x05, 0x0c, 0x21,
  0x0f, 0x20, 0xf5, 0xf7, 0x1e, 0x1e, 0x13, 0xf8, 0x06, 0xf2, 0xf8, 0x0f,
  0x04, 0xf3, 0x01, 0xee, 0xf5, 0xe5, 0xec, 0x00, 0xea, 0x13, 0xfa, 0x05,
  0xea, 0x13, 0xd9, 0xf4, 0xee, 0x04, 0x1e, 0x2b, 0xff, 0x29, 0xe9, 0x08,
  0x02, 0x02, 0x12, 0x11, 0x0f, 0xf2, 0xf9, 0x2b, 0x09, 0x0b, 0x0c, 0x0f,
  0x09, 0xe8, 0x10, 0x01, 0xd5, 0x0e, 0x01, 0x0f, 0xf4, 0x10, 0x01, 0x08,
  0x05, 0xe7, 0xe4, 0x03, 0x05, 0x07, 0xfa, 0xee, 0x03, 0x13, 0x01, 0xe3,
  0xfa, 0x02, 0xfb, 0x0e, 0xee, 0xec, 0xf6, 0xdf, 0xf0, 0xee, 0x06, 0xf4,
  0xdc, 0x18, 0xf4, 0xff, 0xf8, 0x0a, 0x09, 0xd9, 0xf3, 0xe3, 0xfc, 0x03,
  0x0f, 0xf7, 0xf6, 0x10, 0xec, 0xf1, 0x01, 0xe1, 0xde, 0xf9, 0x0e, 0xfe,
  0x03, 0xfa, 0xe8, 0x14, 0xec, 0x0d, 0x0d, 0x0a, 0xe2, 0x0a, 0xff, 0xfe,
  0xe2, 0xe3, 0xf3, 0xde, 0xf6, 0xf6, 0x02, 0xe6, 0x1e, 0xf1, 0xf7, 0x03,
  0xf7, 0x00, 0x05, 0x07, 0x0d, 0x0b, 0x09, 0xd5, 0xec, 0xf5, 0x02, 0x04,
  0xf9, 0x0d, 0x06, 0xf6, 0xfc, 0xee, 0x0c, 0xf0, 0xf6, 0xf4, 0x02, 0xfb,
  0xfd, 0x1e, 0xfe, 0x18, 0x01, 0xfb, 0x07, 0x08, 0x15, 0x12, 0xe2, 0x07,
  0x1f, 0x0c, 0xf5, 0x1f, 0xf2, 0xf7, 0x20, 0x04, 0xf3, 0xf2, 0xe4, 0x01,
  0xf0, 0xfb, 0x0c, 0xf7, 0xf4, 0x15, 0x0f, 0x0a, 0xf9, 0x1c, 0xf2, 0x0f,
  0xfe, 0xfc, 0xff, 0xf4, 0xfb, 0x0a, 0x03, 0x15, 0x12, 0xe4, 0xdd, 0x23,
  0x00, 0x01, 0x13, 0x12, 0xfb, 0xf1, 0xfb, 0xf2, 0xfd, 0xf8, 0xfd, 0x00,
  0xff, 0x0c, 0x17, 0x07, 0xfa, 0x00, 0xf7, 0x05, 0xf0, 0x0c, 0xe4, 0xe7,
  0x0e, 0x22, 0x10, 0xf8, 0xe8, 0x12, 0x10, 0xf8, 0x06, 0xd5, 0x05, 0x04,
  0xc6, 0x10, 0xfb, 0xea, 0xca, 0x03, 0xfa, 0xfc, 0xea, 0x08, 0xf4, 0xe8,
  0x03, 0xf8, 0x01, 0x14, 0x04, 0x02, 0x05, 0xff, 0xef, 0xf2, 0x10, 0xf9,
  0xd3, 0x06, 0x15, 0x0d, 0x08, 0xdc, 0xee, 0x19, 0xe9, 0x24, 0x17, 0x03,
  0xd8, 0x17, 0xf4, 0x12, 0xf7, 0x07, 0xeb, 0xe0, 0xf6, 0xe2, 0x10, 0x05,
  0xfe, 0xff, 0x13, 0x07, 0xeb, 0xd8, 0x02, 0xf8, 0xf1, 0x07, 0x11, 0xf0,
  0xfc, 0xf0, 0x04, 0x2b, 0x02, 0x15, 0x14, 0x0b, 0xee, 0xfd, 0x0f, 0x06,
  0xfa, 0xf3, 0xf6, 0xd8, 0xf7, 0xfe, 0x0f, 0xf6, 0xf1, 0xf7, 0x13, 0x04,
  0xe8, 0xfe, 0xe6, 0x07, 0x21, 0xf8, 0xf6, 0x29, 0xf9, 0xf2, 0x13, 0x27,
  0xfb, 0x05, 0x01, 0x07, 0xf6, 0xe4, 0x22, 0xf7, 0x08, 0x02, 0xfb, 0xec,
  0xee, 0xfd, 0xdf, 0xfb, 0xe5, 0xe6, 0x11, 0x07, 0xd6, 0xfb, 0x0d, 0x04,
  0xf9, 0xeb, 0xfa, 0x13, 0x08, 0xf4, 0x0a, 0x18, 0x01, 0xf8, 0xf3, 0xec,
  0xff, 0xd0, 0xf5, 0x09, 0xfb, 0xd5, 0x04, 0x01, 0xfc, 0x07, 0xfe, 0xf4,
  0x03, 0xff, 0x08, 0x07, 0xec, 0xf2, 0x13, 0x03, 0x09, 0x0f, 0x02, 0x0d,
  0x08, 0xf1, 0x04, 0x19, 0xfa, 0xfd, 0x14, 0x17, 0x05, 0x05, 0xf9, 0xfc,
  0x1c, 0x03, 0x04, 0x0a, 0xf7, 0x07, 0x05, 0xeb, 0x01, 0x08, 0x0e, 0x05,
  0xdb, 0xe5, 0xe7, 0x0e, 0xff, 0x04, 0xec, 0x0e, 0xfb, 0xf6, 0xfe, 0x02,
  0xfd, 0x00, 0xfe, 0x03, 0xfc, 0x09, 0x13, 0x00, 0x13, 0xe8, 0xf2, 0xee,
  0xf6, 0xd4, 0x23, 0x00, 0x12, 0x12, 0x0e, 0x03, 0x07, 0xde, 0xf8, 0x1b,
  0x12, 0xf8, 0xfe, 0x2f, 0x1a, 0x0f, 0x00, 0xf1, 0x05, 0x0f, 0x1c, 0x0a,
  0x02, 0x09, 0x15, 0xfe, 0x23, 0xe7, 0xe7, 0xf5, 0x0b, 0xe6, 0x28, 0x0d,
  0xf9, 0x25, 0x0d, 0x08, 0x0c, 0xf8, 0xf7, 0x19, 0x00, 0xed, 0x05, 0x28,
  0x27, 0x13, 0x11, 0xed, 0x0e, 0x0e, 0x1f, 0x1f, 0xf4, 0x02, 0x0e, 0x05,
  0x1e, 0xda, 0xdd, 0x06, 0x01, 0xfd, 0x24, 0x17, 0xf1, 0x19, 0x06, 0x14,
  0x1d, 0x01, 0x07, 0x24, 0x10, 0xf1, 0xef, 0x1c, 0x17, 0x15, 0xfb, 0x0c,
  0x09, 0x05, 0x12, 0x03, 0xf3, 0xfa, 0x23, 0x18, 0x14, 0xe2, 0xfb, 0x1d,
  0xf9, 0x05, 0xfd, 0xf2, 0x02, 0x0a, 0xe9, 0xf3, 0x0f, 0x02, 0x08, 0x02,
  0xee, 0x0d, 0xe8, 0x0b, 0x11, 0xf3, 0xee, 0x06, 0xfd, 0xe6, 0x0e, 0xf7,
  0x04, 0x01, 0xef, 0xfe, 0xe2, 0x02, 0x0e, 0xf5, 0xfd, 0xfd, 0xf4, 0xf4,
  0xff, 0x0e, 0xfa, 0xe7, 0x0d, 0xee, 0xde, 0x1b, 0xf7, 0x10, 0xeb, 0xfd,
  0x0a, 0xfc, 0xf7, 0xf2, 0x05, 0xe2, 0xfd, 0xfb, 0x03, 0x02, 0xef, 0xf2,
  0xea, 0x0f, 0xe7, 0x03, 0xff, 0xf6, 0x0d, 0x0e, 0x0b, 0x1b, 0x02, 0xf1,
  0x16, 0xf1, 0xed, 0x0b, 0x14, 0xf3, 0xe3, 0x1d, 0xf9, 0x11, 0x06, 0xe9,
  0x0c, 0xf4, 0x08, 0x01, 0x08, 0xff, 0xe4, 0xf8, 0xfb, 0x0e, 0xe3, 0x00,
  0xfe, 0xff, 0x02, 0x21, 0xf9, 0x30, 0xfb, 0xdf, 0x08, 0x03, 0xfd, 0x14,
  0x11, 0xfc, 0xed, 0x2a, 0x00, 0x0f, 0x1a, 0xef, 0x04, 0xf4, 0x1b, 0x09,
  0x0d, 0xff, 0xdb, 0xfa, 0xe8, 0xe7, 0x07, 0x1d, 0x04, 0x04, 0xfa, 0xf7,
  0xc1, 0x1e, 0xf8, 0xd6, 0x0f, 0xfe, 0xfb, 0x00, 0x1e, 0x00, 0xe0, 0x0e,
  0x0b, 0xef, 0x0a, 0xf3, 0xf0, 0xc6, 0xf1, 0xc8, 0x08, 0x05, 0xda, 0xdb,
  0xdf, 0xf3, 0x0d, 0x09, 0x06, 0x14, 0xf4, 0xfd, 0x07, 0x03, 0xdf, 0xdd,
  0x04, 0x01, 0xfb, 0xfe, 0xf9, 0x14, 0x0c, 0x05, 0xf5, 0xea, 0xfc, 0x03,
  0xeb, 0x02, 0x01, 0x02, 0x00, 0xf6, 0xef, 0x06, 0xe3, 0x03, 0xfe, 0xff,
  0xfa, 0x0d, 0xf6, 0x01, 0xfd, 0x0a, 0xfa, 0xf8, 0x06, 0x01, 0xec, 0x1d,
  0xff, 0x06, 0xec, 0x11, 0xda, 0x04, 0x07, 0xfc, 0x04, 0xeb, 0xe2, 0x06,
  0xfe, 0x02, 0xe4, 0x08, 0xd6, 0x14, 0xe2, 0x00, 0x09, 0x0d, 0xe6, 0x14,
  0x02, 0xfe, 0x16, 0xf4, 0x09, 0x19, 0x00, 0x0c, 0x13, 0x06, 0x01, 0x16,
  0xde, 0x25, 0x14, 0x07, 0x10, 0xdb, 0xd4, 0xf0, 0x0a, 0x1b, 0xf8, 0x00,
  0xd0, 0x0f, 0xec, 0x17, 0x0e, 0xf5, 0xe5, 0x0b, 0xf9, 0x11, 0x12, 0xf5,
  0x0a, 0x0a, 0x04, 0x0d, 0x15, 0xdc, 0x05, 0x1f, 0xe6, 0x13, 0x16, 0x0e,
  0x0a, 0xb4, 0xc4, 0xec, 0x07, 0x05, 0xef, 0xf8, 0xe7, 0x17, 0x07, 0x0a,
  0x0d, 0x0e, 0x91, 0xe4, 0xd5, 0xf7, 0x0e, 0xc4, 0xfb, 0x13, 0x02, 0xdf,
  0x0e, 0xf6, 0xc4, 0x0c, 0xe2, 0xea, 0x0b, 0xf1, 0xfd, 0x85, 0xa1, 0x9c,
  0x20, 0x06, 0xd1, 0xed, 0x04, 0x1a, 0x08, 0x0c, 0xfd, 0xfe, 0xfc, 0x0e,
  0xf0, 0xf4, 0x00, 0x05, 0xe6, 0x0b, 0x08, 0xf7, 0xfe, 0x0a, 0x09, 0x01,
  0xe8, 0xfe, 0xfe, 0x08, 0xf6, 0x06, 0x19, 0x0a, 0x06, 0xfe, 0xff, 0x07,
  0xee, 0x03, 0xf4, 0xfe, 0xfe, 0x16, 0xfb, 0xfe, 0xfb, 0xfe, 0x0e, 0x0c,
  0x02, 0x04, 0xf2, 0x0d, 0x02, 0x00, 0xcd, 0xfe, 0xdd, 0x07, 0x13, 0xfd,
  0x08, 0xe3, 0xe3, 0xff, 0x08, 0xfd, 0xf1, 0xfe, 0xe0, 0x16, 0x00, 0x07,
  0x0e, 0x18, 0xe1, 0x06, 0x17, 0xf4, 0x1a, 0x00, 0x16, 0x16, 0xea, 0x06,
  0x19, 0x0d, 0xe3, 0x0f, 0xcf, 0x0e, 0x0a, 0x0c, 0x13, 0xe2, 0xdc, 0x03,
  0x0d, 0x17, 0xf0, 0xf1, 0xec, 0x11, 0x0c, 0x11, 0x08, 0x05, 0xda, 0xff,
  0x05, 0xf9, 0x19, 0x02, 0x0e, 0x0a, 0x04, 0x08, 0x07, 0x0d, 0xbf, 0x11,
  0xe5, 0x0b, 0xfd, 0x0f, 0x04, 0xb1, 0xda, 0xf6, 0x03, 0xfa, 0xf3, 0xf6,
  0x01, 0x10, 0x06, 0x01, 0xfc, 0x13, 0x9a, 0xce, 0xfd, 0xe4, 0xf7, 0xbc,
  0xee, 0x0b, 0xf1, 0xe0, 0x0a, 0x12, 0xc8, 0x0d, 0xbc, 0xe9, 0x00, 0xfa,
  0xfe, 0x81, 0xc3, 0xc0, 0x14, 0xff, 0xe9, 0xf2, 0xf8, 0x1c, 0x0c, 0x08,
  0xff, 0xf4, 0x04, 0x09, 0x14, 0x0f, 0xe9, 0x08, 0xfb, 0x15, 0x26, 0x0a,
  0xef, 0x0d, 0x14, 0xfe, 0x04, 0xff, 0x02, 0x0b, 0xff, 0x01, 0x18, 0x1f,
  0x01, 0x11, 0x02, 0x12, 0x0a, 0x07, 0x04, 0xf2, 0x01, 0x15, 0xf3, 0x0d,
  0x0d, 0xf4, 0x08, 0x00, 0xfb, 0x01, 0xed, 0x09, 0x02, 0xfe, 0xe7, 0xff,
  0xdd, 0xff, 0x07, 0x0b, 0x17, 0xef, 0x10, 0x04, 0x11, 0x03, 0xf1, 0x0a,
  0xe7, 0x0b, 0x00, 0x0f, 0x01, 0x16, 0xe8, 0xfd, 0x0f, 0xf2, 0x14, 0x02,
  0xf6, 0x0d, 0xf0, 0xf8, 0x0e, 0xf4, 0xe0, 0x09, 0xeb, 0x0c, 0x05, 0x21,
  0x0f, 0xd6, 0xed, 0xf1, 0x11, 0x01, 0xf0, 0xe5, 0xef, 0x16, 0x0e, 0x06,
  0x06, 0x0e, 0xba, 0xde, 0xf2, 0xd6, 0x0f, 0xd9, 0xfb, 0x0b, 0xeb, 0xeb,
  0xf3, 0x03, 0xb9, 0xfb, 0xe8, 0xff, 0x01, 0xf8, 0xf8, 0x8d, 0x9a, 0xad,
  0x13, 0xf7, 0xe0, 0xd3, 0xdd, 0x22, 0x09, 0x01, 0xeb, 0xff, 0xaa, 0xdd,
  0xf4, 0xee, 0xd2, 0xb3, 0xeb, 0x0e, 0xda, 0xd7, 0x02, 0xfd, 0xb5, 0xff,
  0xc7, 0xa9, 0xf8, 0xeb, 0xed, 0xb3, 0xa0, 0x92, 0xec, 0x05, 0xd8, 0xde,
  0xeb, 0x0b, 0x02, 0x0b, 0xfa, 0x1b, 0xf5, 0x0a, 0x05, 0x16, 0xe7, 0x07,
  0x1d, 0x27, 0x18, 0xf8, 0x07, 0xf3, 0x04, 0x14, 0x01, 0xf3, 0xfa, 0x02,
  0xee, 0xfd, 0xf7, 0xf6, 0xf0, 0x19, 0xe5, 0x0e, 0xf2, 0x11, 0xef, 0x0e,
  0x0b, 0x2c, 0xf2, 0x18, 0x26, 0xf0, 0xf5, 0xf8, 0x25, 0x2a, 0x1d, 0xfa,
  0x0b, 0xfe, 0x10, 0x04, 0xee, 0x03, 0x0a, 0x0c, 0xea, 0xf2, 0xf1, 0xf7,
  0x02, 0x04, 0xe7, 0x0c, 0xe3, 0x35, 0xfc, 0x13, 0x15, 0x31, 0xf1, 0xf7,
  0x19, 0xe4, 0xe6, 0xf4, 0xea, 0x4e, 0x0b, 0xe0, 0x13, 0xfe, 0xfb, 0x08,
  0xda, 0xec, 0x20, 0x20, 0xe7, 0xed, 0xf2, 0xfa, 0x14, 0x03, 0xe8, 0x14,
  0xde, 0x3a, 0xf6, 0x27, 0x08, 0x1f, 0xe9, 0xd7, 0xfc, 0xde, 0xee, 0xe0,
  0xc5, 0x0b, 0xf6, 0xe6, 0x29, 0x1c, 0x03, 0xea, 0xb7, 0xef, 0x18, 0x32,
  0x09, 0x05, 0xfe, 0xeb, 0x31, 0x0e, 0xfc, 0xfc, 0xed, 0x21, 0xf8, 0x1c,
  0x06, 0xfb, 0xc6, 0xe8, 0xf4, 0xda, 0x09, 0xea, 0xc4, 0x01, 0xf0, 0xdd,
  0x0f, 0x23, 0x09, 0xe9, 0xad, 0xfc, 0x23, 0x34, 0x0d, 0xfc, 0xed, 0xef,
  0x3b, 0x03, 0x01, 0xda, 0x04, 0x0f, 0x39, 0x0f, 0x06, 0x24, 0xf8, 0x11,
  0x0c, 0x0a, 0x01, 0x01, 0x0e, 0x20, 0x28, 0x03, 0x1b, 0x0c, 0x0b, 0x14,
  0x0f, 0xfa, 0x0e, 0x00, 0xfd, 0x06, 0xf2, 0xeb, 0x07, 0x03, 0xf5, 0x0d,
  0x18, 0x00, 0x05, 0x13, 0x0f, 0x27, 0xfd, 0x0b, 0x0d, 0xea, 0xfb, 0xf0,
  0x02, 0x1d, 0x28, 0x02, 0x17, 0x00, 0xfc, 0xfc, 0xed, 0x0a, 0x13, 0xfa,
  0xff, 0xf5, 0xed, 0xfc, 0xff, 0xff, 0xf4, 0x0f, 0xf1, 0x02, 0xfa, 0x1b,
  0xfe, 0x0c, 0xff, 0xec, 0xfe, 0xe5, 0xfc, 0xff, 0xfa, 0x1c, 0x04, 0x00,
  0x14, 0xf8, 0xf4, 0x0f, 0xf9, 0xf8, 0x09, 0x15, 0xf7, 0xff, 0x08, 0x09,
  0xfa, 0x03, 0x00, 0x08, 0xf7, 0x0f, 0xdc, 0x0f, 0xfa, 0xec, 0x0c, 0xf9,
  0xee, 0x03, 0xfd, 0xf1, 0xf4, 0xfc, 0x02, 0x08, 0xfc, 0x13, 0x04, 0x07,
  0xfc, 0xfe, 0x16, 0x1a, 0x05, 0x0e, 0x12, 0x0a, 0x14, 0xf2, 0xff, 0x05,
  0x0a, 0x10, 0xfb, 0xf9, 0xf6, 0xe0, 0xfa, 0xf6, 0xfa, 0x00, 0x15, 0x01,
  0xe4, 0xf3, 0x03, 0xe0, 0x16, 0x2a, 0x08, 0x09, 0xe0, 0x08, 0x10, 0x2b,
  0x12, 0xff, 0xf4, 0x0a, 0x13, 0x01, 0x21, 0xe5, 0x1b, 0x11, 0x03, 0x00,
  0xfa, 0x17, 0x06, 0x03, 0x0b, 0x03, 0x16, 0x1d, 0x01, 0x0b, 0x2d, 0x13,
  0x03, 0x12, 0x0b, 0xf3, 0x05, 0x05, 0x06, 0xf8, 0x06, 0x0d, 0xfa, 0xfe,
  0xed, 0xe4, 0xfe, 0x0a, 0x05, 0xf0, 0x18, 0xf2, 0x0c, 0x1f, 0x0b, 0x04,
  0x0e, 0xeb, 0x0d, 0x0e, 0xfd, 0x10, 0x17, 0x19, 0x14, 0x02, 0xfb, 0xf4,
  0x05, 0x0e, 0xf6, 0xfa, 0x04, 0x05, 0xe9, 0xf7, 0x01, 0xf1, 0xfd, 0x05,
  0xfb, 0x0f, 0x04, 0x08, 0x08, 0x06, 0x1b, 0xef, 0x06, 0xee, 0x02, 0xfe,
  0x06, 0x13, 0x0f, 0x0d, 0x0f, 0xe6, 0xf3, 0x10, 0x14, 0x13, 0xf2, 0x09,
  0x0d, 0x0b, 0xfa, 0x12, 0x0e, 0xf8, 0xf1, 0x05, 0x05, 0x0c, 0xfa, 0x09,
  0x00, 0x04, 0x19, 0xf7, 0x05, 0xf4, 0xf3, 0x0f, 0x03, 0x14, 0x05, 0x09,
  0x07, 0x09, 0xf4, 0x00, 0x08, 0x05, 0x10, 0x01, 0x09, 0x05, 0x01, 0x04,
  0x11, 0xff, 0x08, 0xeb, 0x14, 0x1a, 0x03, 0x15, 0xdc, 0xf6, 0x0c, 0xf9,
  0xf1, 0xf7, 0xf6, 0x00, 0x0b, 0x0a, 0x0d, 0x00, 0x0f, 0x09, 0xec, 0x06,
  0xfd, 0xf7, 0xfa, 0x15, 0xfc, 0x11, 0x04, 0xff, 0xf2, 0x08, 0x19, 0xf8,
  0x26, 0x0e, 0xfb, 0x00, 0xeb, 0xea, 0x08, 0x05, 0x1d, 0xff, 0x15, 0x1b,
  0x00, 0xfd, 0x28, 0x07, 0xf9, 0x18, 0x18, 0xf6, 0x18, 0xfd, 0xe8, 0x1a,
  0xe5, 0x1b, 0x12, 0x0f, 0xe5, 0xd9, 0x02, 0xfc, 0xfc, 0xf4, 0x38, 0xf6,
  0xfa, 0x04, 0x02, 0x08, 0x16, 0xf9, 0x16, 0x1e, 0x09, 0x0b, 0x1e, 0x0e,
  0xfd, 0x0b, 0xf7, 0xf7, 0x14, 0xff, 0xeb, 0x0e, 0xfb, 0x0c, 0x02, 0xe6,
  0x0b, 0xf3, 0x0c, 0xf3, 0x08, 0x00, 0x29, 0x05, 0x08, 0x13, 0x09, 0x07,
  0x08, 0x11, 0x09, 0x01, 0x12, 0x1b, 0x0f, 0x09, 0x14, 0xff, 0xf6, 0x0c,
  0x1a, 0x06, 0x11, 0xfd, 0x0e, 0x00, 0x08, 0x03, 0x1a, 0x11, 0x0c, 0x00,
  0x09, 0x06, 0x17, 0x10, 0x07, 0xfe, 0x15, 0xfb, 0xfa, 0xf8, 0xf8, 0xff,
  0xf7, 0x08, 0xfd, 0xf8, 0x10, 0x0f, 0xef, 0x21, 0x0a, 0xfc, 0x0c, 0x17,
  0x11, 0xff, 0x0d, 0x07, 0x05, 0xfe, 0x04, 0x0b, 0x10, 0xff, 0x0d, 0x02,
  0xf1, 0x05, 0x00, 0xec, 0xf3, 0xf3, 0xe5, 0xdb, 0x04, 0xf3, 0xf5, 0x0d,
  0x07, 0x03, 0xe0, 0x04, 0x16, 0xee, 0x04, 0xfc, 0xe7, 0x00, 0x01, 0x00,
  0xf3, 0xf1, 0xe8, 0xfe, 0x01, 0xf6, 0xf7, 0xf8, 0xd4, 0xf1, 0x06, 0x05,
  0x15, 0xfb, 0x18, 0x1a, 0xeb, 0xec, 0x45, 0x06, 0xd6, 0x0a, 0x50, 0xd8,
  0x1c, 0x05, 0xdf, 0x1f, 0xe3, 0x16, 0x0f, 0xf0, 0xe8, 0xcb, 0x11, 0xdf,
  0xf5, 0xe4, 0x28, 0xfa, 0xfe, 0xfc, 0x07, 0xf6, 0x1b, 0xf9, 0x1d, 0x0e,
  0xe4, 0x05, 0x18, 0x02, 0xdf, 0x09, 0x19, 0xd9, 0x20, 0x10, 0x08, 0x04,
  0x02, 0x18, 0x0c, 0xe7, 0x0f, 0xf2, 0x09, 0xd6, 0xfa, 0xd2, 0x2c, 0x0d,
  0x03, 0x16, 0xfe, 0xe8, 0x22, 0xf2, 0x11, 0x10, 0x00, 0x29, 0x0b, 0x1e,
  0x16, 0xf6, 0x11, 0xf2, 0x27, 0xfb, 0x37, 0x07, 0xfc, 0x0e, 0xf1, 0xec,
  0x1a, 0xf5, 0x10, 0xd9, 0xfe, 0xf9, 0x26, 0x13, 0xec, 0xf5, 0xfc, 0xed,
  0xf7, 0xfb, 0x01, 0xf8, 0xfa, 0x1c, 0xfb, 0x20, 0x16, 0xff, 0x0d, 0x03,
  0x10, 0xfd, 0x1b, 0x03, 0xfc, 0xf8, 0xe5, 0xf1, 0x08, 0x00, 0x02, 0xe6,
  0x09, 0x10, 0x02, 0x1d, 0xfd, 0xef, 0xe5, 0x10, 0xf9, 0xfd, 0x06, 0xdf,
  0x0f, 0x03, 0x0c, 0xfc, 0xfc, 0xd5, 0x15, 0xf2, 0x17, 0xf8, 0x19, 0xe9,
  0xf5, 0xe8, 0xed, 0xee, 0xfc, 0xfb, 0xe5, 0xfd, 0xed, 0x0c, 0xe7, 0xfc,
  0xd6, 0xe5, 0x13, 0x19, 0x26, 0x19, 0xea, 0x01, 0x0a, 0xe9, 0x19, 0xf9,
  0xf4, 0x04, 0xfe, 0x08, 0x01, 0xf0, 0xe7, 0x0e, 0x02, 0xff, 0x0d, 0xfa,
  0xe6, 0xce, 0xeb, 0xe2, 0x14, 0xf3, 0x0c, 0xef, 0xd4, 0xea, 0xfd, 0x32,
  0x0a, 0x0c, 0xfa, 0xeb, 0x0d, 0xf9, 0x1f, 0xed, 0xfc, 0xfd, 0x05, 0xf6,
  0xfa, 0xe5, 0xf1, 0x15, 0xe6, 0x00, 0x03, 0xf7, 0xf3, 0xd4, 0xf2, 0xf4,
  0xfd, 0xef, 0xf4, 0xf3, 0xf8, 0x00, 0xee, 0x27, 0x03, 0xfc, 0x0f, 0x07,
  0x15, 0x0b, 0xef, 0xf3, 0x20, 0x01, 0xfc, 0xdf, 0xf7, 0xf6, 0xe8, 0xfa,
  0x02, 0xfd, 0xf1, 0xf6, 0xf7, 0xde, 0xf4, 0xfe, 0x0c, 0x1d, 0x01, 0xe7,
  0x22, 0x13, 0xef, 0x04, 0x02, 0x1d, 0x18, 0x1f, 0x1d, 0x06, 0xf9, 0xee,
  0x0c, 0xf1, 0x0b, 0xf9, 0xef, 0x0a, 0x09, 0xf2, 0x12, 0xf8, 0xf2, 0xf3,
  0xfc, 0x16, 0x0b, 0x07, 0x19, 0x23, 0x01, 0xed, 0x1a, 0x1c, 0xf6, 0x10,
  0x0a, 0x13, 0xff, 0xfc, 0x13, 0x23, 0x08, 0xfb, 0x09, 0xd9, 0x0e, 0x08,
  0x07, 0x11, 0x1c, 0xe5, 0x0f, 0xfa, 0xf8, 0x00, 0x1e, 0x1a, 0xe3, 0x14,
  0x0e, 0x22, 0xd9, 0x09, 0xdb, 0xee, 0x0d, 0x1c, 0x18, 0x12, 0x04, 0x08,
  0x13, 0xf6, 0x48, 0x0c, 0x05, 0x01, 0x23, 0xf2, 0x1a, 0xf5, 0x06, 0xfc,
  0xf9, 0x24, 0x07, 0x03, 0xee, 0xe1, 0x05, 0x08, 0x15, 0xea, 0xff, 0xef,
  0xe8, 0x04, 0xfc, 0x25, 0xff, 0x0f, 0x11, 0xfe, 0xfc, 0xfb, 0x3f, 0x00,
  0xf7, 0x06, 0x21, 0xea, 0xeb, 0xfd, 0x05, 0x04, 0x03, 0xfb, 0x13, 0x02,
  0xfa, 0xdf, 0x12, 0xfe, 0xfd, 0xef, 0x01, 0x04, 0xfd, 0x03, 0xf1, 0x1d,
  0x01, 0x06, 0x15, 0x0b, 0x13, 0x02, 0xea, 0x05, 0x07, 0x05, 0x01, 0xe9,
  0xeb, 0xfd, 0xe5, 0x0a, 0x00, 0xf2, 0x05, 0xfd, 0x03, 0xfb, 0x02, 0xf5,
  0xec, 0x0b, 0xf8, 0xf9, 0x03, 0x06, 0xf8, 0x0d, 0xfb, 0x1c, 0x09, 0x0e,
  0x28, 0x0f, 0xf4, 0xfb, 0xff, 0x01, 0xf1, 0xf7, 0xf6, 0xf5, 0xf0, 0x04,
  0x07, 0xf8, 0xe8, 0x03, 0xdf, 0x1a, 0x13, 0xfe, 0xf3, 0x18, 0xfd, 0xe9,
  0x1f, 0x1b, 0x0f, 0x0e, 0xfa, 0x15, 0xf9, 0xf6, 0x17, 0x22, 0xeb, 0x03,
  0x11, 0xdc, 0xf8, 0xff, 0x0e, 0x00, 0xef, 0xca, 0x02, 0x0e, 0xf2, 0x21,
  0x06, 0x25, 0xf4, 0x1a, 0x04, 0x32, 0xeb, 0x0e, 0xf4, 0xfb, 0x09, 0x03,
  0x08, 0xf6, 0x1e, 0x05, 0xf5, 0x0b, 0x16, 0x09, 0x0e, 0xf9, 0x21, 0xe2,
  0x22, 0x07, 0x18, 0x09, 0xf2, 0x15, 0xf8, 0xf4, 0xfd, 0xea, 0x14, 0xf8,
  0x02, 0xf2, 0xf2, 0x02, 0x07, 0x0c, 0x0e, 0xff, 0x01, 0x04, 0x1f, 0x0a,
  0x0a, 0x0b, 0x22, 0x15, 0x0e, 0xf6, 0x17, 0xf6, 0x19, 0x0e, 0x03, 0x0e,
  0x0c, 0x20, 0xfd, 0xfe, 0x0f, 0x06, 0x12, 0xfb, 0x11, 0x02, 0xf5, 0x10,
  0xee, 0x05, 0x03, 0x18, 0x04, 0x0a, 0xed, 0x03, 0x1e, 0x07, 0x02, 0x09,
  0x03, 0xef, 0x11, 0xfd, 0x13, 0xe4, 0xf9, 0x07, 0xf8, 0x1b, 0x1e, 0x07,
  0x0a, 0xfc, 0x00, 0xf0, 0xf6, 0x01, 0xe1, 0xf3, 0xe2, 0xe9, 0x0b, 0x19,
  0x17, 0x1e, 0xd6, 0x0a, 0x22, 0x0a, 0xff, 0xf9, 0x0c, 0x24, 0xfc, 0xf6,
  0x04, 0xdf, 0xf6, 0x0d, 0xcf, 0x08, 0x0a, 0x02, 0xda, 0xf1, 0x10, 0x04,
  0x00, 0x0f, 0x01, 0xe3, 0x0c, 0x09, 0x3b, 0x05, 0x19, 0x2d, 0x10, 0x31,
  0x25, 0x0e, 0xf2, 0x1c, 0xf8, 0xe9, 0xe8, 0xf3, 0x02, 0x07, 0xed, 0xee,
  0xf3, 0x21, 0x00, 0x33, 0xe2, 0x0f, 0x12, 0x12, 0xfa, 0x23, 0xf7, 0x05,
  0x19, 0x04, 0xf3, 0xff, 0x00, 0xf0, 0x22, 0x07, 0x09, 0x19, 0x00, 0xff,
  0xfe, 0xfd, 0xd5, 0xf5, 0xed, 0x01, 0x17, 0x05, 0x0b, 0xee, 0xe6, 0xe0,
  0x12, 0x0d, 0x15, 0xf8, 0xef, 0x0b, 0x14, 0x11, 0x0f, 0x18, 0x04, 0xfb,
  0xfd, 0xfb, 0x13, 0xfd, 0x11, 0x2f, 0xf5, 0x07, 0x0e, 0x02, 0xd2, 0x02,
  0x0b, 0x01, 0x07, 0x07, 0xf4, 0xf2, 0xef, 0xfa, 0x09, 0x1a, 0x06, 0xf4,
  0x06, 0x0c, 0x24, 0x0d, 0xec, 0x08, 0x0d, 0xf0, 0x00, 0xf0, 0xf0, 0xf0,
  0x14, 0x1e, 0x00, 0x08, 0x0c, 0xf7, 0xea, 0x05, 0x2e, 0xf3, 0x0a, 0x08,
  0xf1, 0x12, 0xfa, 0xff, 0xfe, 0x09, 0xf4, 0xeb, 0xf6, 0x0b, 0xf6, 0x0c,
  0xe9, 0xec, 0xff, 0x04, 0x07, 0x10, 0xd8, 0xfa, 0x05, 0x17, 0xed, 0xfe,
  0x10, 0xf5, 0x02, 0xff, 0x16, 0xde, 0x01, 0x01, 0xd0, 0xf8, 0xe7, 0xe1,
  0xf9, 0xf8, 0xf5, 0xf1, 0x04, 0x02, 0xd9, 0x0b, 0x04, 0xfd, 0x32, 0x04,
  0x2d, 0x1a, 0x1b, 0x16, 0x24, 0x0f, 0xdf, 0x17, 0x09, 0x1e, 0xef, 0xf8,
  0xf1, 0x07, 0xfa, 0x06, 0xee, 0x23, 0xfb, 0x13, 0x04, 0x14, 0x1d, 0x03,
  0x07, 0x21, 0xd4, 0x00, 0xf4, 0xfe, 0xef, 0xf9, 0x03, 0xfb, 0xf3, 0xf3,
  0xf5, 0xfc, 0xfa, 0xf7, 0xe4, 0x06, 0xc8, 0xe3, 0xef, 0xf0, 0xe4, 0x06,
  0x04, 0xe5, 0xfd, 0xde, 0xe8, 0xe9, 0xf3, 0xf8, 0xf7, 0xf6, 0x13, 0xf3,
  0xf2, 0x06, 0x06, 0xea, 0xf9, 0xf9, 0xfd, 0x09, 0xf4, 0x26, 0xf9, 0xfb,
  0xf5, 0x10, 0xc5, 0xf1, 0xf1, 0xea, 0xe9, 0x13, 0xf2, 0x02, 0x00, 0xf9,
  0xf3, 0xf9, 0x05, 0xe0, 0xf4, 0x04, 0x23, 0xfc, 0x02, 0xf7, 0x06, 0xf3,
  0xe8, 0xe9, 0x06, 0xee, 0xf5, 0x08, 0xe7, 0xf8, 0xf3, 0x0a, 0xcf, 0xfa,
  0xfb, 0xe0, 0xef, 0x0c, 0xdb, 0xf9, 0xf5, 0xe9, 0xfa, 0x02, 0x04, 0xf0,
  0xee, 0x0c, 0x19, 0xf3, 0x12, 0xf5, 0xe3, 0xff, 0xf9, 0x0d, 0xfe, 0xd4,
  0x04, 0xff, 0x07, 0xf5, 0xf9, 0xe5, 0x0b, 0xf9, 0xf0, 0xec, 0x07, 0xd6,
  0xea, 0x01, 0xef, 0xda, 0xff, 0xff, 0x1c, 0x03, 0x05, 0x20, 0x21, 0xf9,
  0x19, 0x0f, 0x0f, 0x18, 0x0c, 0x24, 0xe9, 0xe6, 0x17, 0x0c, 0xf5, 0xf3,
  0x1e, 0xef, 0xfa, 0x0a, 0xe4, 0xfc, 0x1e, 0xf8, 0xed, 0x05, 0x06, 0xe9,
  0x14, 0x22, 0x21, 0xf1, 0x04, 0x1b, 0x01, 0x07, 0xda, 0xcd, 0xe9, 0xf9,
  0x15, 0xf0, 0xff, 0xf0, 0xeb, 0xd4, 0x0b, 0xfe, 0xea, 0x06, 0xe9, 0xc6,
  0x04, 0xe1, 0xe6, 0x04, 0xe9, 0xfc, 0xf5, 0xec, 0xf1, 0xc4, 0xe7, 0xdd,
  0x01, 0xe7, 0x0e, 0xba, 0xcd, 0xc1, 0xe5, 0xf6, 0xf1, 0xe6, 0xe3, 0xdc,
  0xeb, 0xc6, 0x18, 0xf2, 0xde, 0x1c, 0x02, 0xe2, 0xf9, 0xcd, 0xd6, 0x11,
  0xe2, 0xf8, 0x03, 0xf1, 0xe3, 0xc6, 0xec, 0xdf, 0xee, 0xcd, 0x0d, 0xb3,
  0xc3, 0xbf, 0xe1, 0xf6, 0x07, 0x00, 0xf8, 0x02, 0x00, 0xc4, 0x00, 0xed,
  0xd0, 0x22, 0xfd, 0xd6, 0x02, 0xd2, 0xea, 0x1b, 0xd6, 0x0a, 0x10, 0xf1,
  0xe4, 0xc5, 0xfe, 0xe5, 0xeb, 0xe8, 0x27, 0xa7, 0xdc, 0xec, 0xe9, 0x1b,
  0x08, 0xfb, 0xfc, 0x11, 0xf4, 0xd9, 0xfd, 0xdf, 0xd4, 0x0a, 0x10, 0x03,
  0xfd, 0xf3, 0xe6, 0x01, 0xe8, 0x06, 0x16, 0x06, 0x09, 0xdc, 0xfa, 0xfb,
  0x08, 0xb7, 0xff, 0xa4, 0xd3, 0xda, 0x09, 0x11, 0x0e, 0xeb, 0xfd, 0x00,
  0xfe, 0xd8, 0x03, 0xfb, 0xe9, 0xf6, 0x12, 0x01, 0x1b, 0xe9, 0xc9, 0xf0,
  0xed, 0x22, 0x04, 0x03, 0xd9, 0xca, 0x14, 0x09, 0x05, 0xd7, 0xd1, 0xc0,
  0xf4, 0xed, 0xf7, 0xf3, 0xff, 0xfb, 0x01, 0xfc, 0xe9, 0xe3, 0x10, 0xf2,
  0xfb, 0x07, 0x12, 0xf3, 0xf1, 0xf8, 0xe8, 0x01, 0x05, 0x09, 0x0b, 0xfc,
  0x08, 0x00, 0x0a, 0xf1, 0x0f, 0xe7, 0x0f, 0xe9, 0xe1, 0xf0, 0xf1, 0xe5,
  0xd2, 0x0c, 0xfd, 0xef, 0xf5, 0xe8, 0x0c, 0xee, 0xf3, 0x07, 0x0d, 0xed,
  0xef, 0xe7, 0xe6, 0x24, 0xf4, 0xff, 0x19, 0x0d, 0x05, 0xf6, 0xfd, 0xed,
  0x02, 0xe5, 0x12, 0xe9, 0xf2, 0xd7, 0x04, 0xff, 0x09, 0x0e, 0x11, 0x0e,
  0x06, 0xca, 0x05, 0xf5, 0xfc, 0x10, 0x1c, 0xdf, 0x19, 0x0a, 0xeb, 0x21,
  0xf1, 0x2e, 0x23, 0x06, 0x0b, 0xf1, 0x1a, 0xf6, 0x14, 0xf1, 0x20, 0xcc,
  0xfc, 0xd8, 0x0d, 0x23, 0x2c, 0x0a, 0x1e, 0x1e, 0x08, 0xe5, 0x22, 0x0a,
  0xe8, 0x1f, 0x24, 0x0f, 0x2c, 0x09, 0x02, 0x22, 0x00, 0x1d, 0x28, 0x15,
  0xef, 0xf1, 0x1c, 0x06, 0x1c, 0xe5, 0x17, 0xda, 0xee, 0xf6, 0x08, 0x0a,
  0x21, 0xf8, 0xf6, 0x14, 0x18, 0xf5, 0x1d, 0x1d, 0xe4, 0xe7, 0x13, 0x04,
  0x35, 0x03, 0xe0, 0xef, 0xf5, 0x32, 0x1b, 0x1a, 0xe7, 0xd6, 0x06, 0x27,
  0x08, 0xe4, 0xd9, 0xeb, 0xfb, 0xf4, 0xf2, 0x07, 0xfe, 0x02, 0xf5, 0xf8,
  0x03, 0x09, 0xdf, 0xf3, 0xf9, 0xf2, 0x02, 0x09, 0xf9, 0xed, 0xf1, 0x0c,
  0x07, 0x07, 0x08, 0x0a, 0x08, 0x13, 0xfd, 0xfb, 0xfb, 0x06, 0xfd, 0xfc,
  0xf0, 0xec, 0x01, 0x01, 0xf1, 0x13, 0x01, 0xe9, 0x00, 0x06, 0xf2, 0xfa,
  0x07, 0x02, 0xfa, 0xf5, 0xf5, 0xf1, 0xf4, 0x0d, 0xf9, 0x0f, 0x18, 0x0e,
  0x0e, 0x12, 0x01, 0xea, 0x01, 0x16, 0x13, 0xea, 0xeb, 0xd8, 0x05, 0x09,
  0x1c, 0x0b, 0xfe, 0x09, 0x09, 0xfb, 0xf6, 0x0a, 0x00, 0x22, 0x0a, 0xfb,
  0x1c, 0xf8, 0x04, 0x12, 0xf6, 0x16, 0x12, 0xfc, 0xed, 0x01, 0x05, 0xe7,
  0xff, 0x01, 0x14, 0xeb, 0x06, 0xf1, 0x01, 0x07, 0x2e, 0x02, 0x15, 0x17,
  0x0a, 0x08, 0x13, 0x07, 0x06, 0x10, 0x1d, 0xfb, 0x0b, 0x05, 0x07, 0x0f,
  0xfe, 0x14, 0x08, 0x03, 0xff, 0x0d, 0x02, 0xff, 0x1a, 0x0c, 0x0a, 0xff,
  0x1e, 0xe7, 0x07, 0xf4, 0x1f, 0x02, 0xf8, 0x1c, 0xff, 0x01, 0xf9, 0x0a,
  0xf9, 0x0b, 0x00, 0xf0, 0x16, 0xfd, 0x09, 0x02, 0x0b, 0x03, 0xff, 0xf7,
  0xfc, 0xf2, 0xe9, 0x04, 0x06, 0xf1, 0xf8, 0x0b, 0xf8, 0xfc, 0xfd, 0xed,
  0xf5, 0xf7, 0xf7, 0x03, 0x09, 0x0b, 0xd8, 0xf7, 0xf7, 0x03, 0xf7, 0xfc,
  0xf5, 0xfa, 0xfc, 0x15, 0x0d, 0xd8, 0xdf, 0x03, 0xf9, 0x0a, 0x0e, 0x04,
  0x13, 0x0b, 0xfa, 0xe9, 0xfb, 0x02, 0x0a, 0xf9, 0xef, 0x00, 0x05, 0xe4,
  0xeb, 0xf2, 0xd6, 0xe4, 0xfc, 0x0f, 0x00, 0x09, 0xf7, 0x0a, 0xf1, 0x07,
  0xfb, 0xe6, 0xfb, 0x12, 0x0d, 0x06, 0x06, 0xfc, 0xfe, 0x05, 0xf9, 0xfc,
  0xfe, 0x0b, 0xfe, 0xef, 0x0e, 0xf3, 0x12, 0xe5, 0xed, 0xef, 0xe7, 0x05,
  0x01, 0x11, 0xf6, 0x04, 0x03, 0x16, 0x0f, 0xfc, 0x03, 0xf9, 0xf5, 0x00,
  0x0d, 0xf6, 0x01, 0xfb, 0x01, 0xf6, 0xf9, 0x0b, 0x07, 0x12, 0xfd, 0xd4,
  0x03, 0xd2, 0xf5, 0xf3, 0xf3, 0x18, 0xda, 0x0d, 0x29, 0xf9, 0xff, 0xe4,
  0xeb, 0xfe, 0x1a, 0xf2, 0x04, 0xff, 0xef, 0x05, 0x0f, 0x16, 0xfb, 0xee,
  0x1b, 0xfd, 0xe5, 0x0a, 0x15, 0x0a, 0xfd, 0xe6, 0x06, 0xf4, 0x06, 0x0b,
  0x06, 0x06, 0xdb, 0xf9, 0x0c, 0x03, 0x07, 0xf6, 0xed, 0x12, 0x18, 0xf3,
  0xfe, 0xff, 0xec, 0xf8, 0x22, 0x0b, 0xe5, 0x01, 0x0c, 0xfd, 0xd5, 0x0f,
  0xfd, 0xea, 0xf7, 0xe2, 0xfc, 0xfa, 0x05, 0xfa, 0xf7, 0xf5, 0xbf, 0xfa,
  0xea, 0x0d, 0xd4, 0xd7, 0xfa, 0x0a, 0x07, 0x0b, 0xfe, 0xea, 0xe1, 0xf3,
  0x11, 0xf6, 0x05, 0xfe, 0xfa, 0xfd, 0x04, 0xe6, 0x00, 0x00, 0x03, 0xfa,
  0xf5, 0x01, 0x05, 0xfd, 0xe8, 0xef, 0xea, 0xfe, 0x0a, 0x00, 0xea, 0xef,
  0xfa, 0x0d, 0x06, 0x05, 0x08, 0xdd, 0xf9, 0xfe, 0x1f, 0x03, 0x14, 0xfd,
  0x04, 0xf8, 0x08, 0x16, 0x15, 0x10, 0x09, 0xe3, 0x01, 0xe7, 0xf4, 0xff,
  0xec, 0x06, 0xda, 0x2d, 0x07, 0x0a, 0xd3, 0xec, 0x0e, 0x0b, 0x1e, 0xfc,
  0x0b, 0xee, 0xf1, 0xfe, 0x26, 0x10, 0xff, 0xf4, 0xfe, 0x04, 0xfd, 0x20,
  0x21, 0xf4, 0xfc, 0xc7, 0xe6, 0xd8, 0xf6, 0x00, 0xfc, 0x16, 0xbf, 0x0e,
  0x0d, 0xfa, 0xeb, 0xfe, 0xf6, 0xf7, 0x01, 0xe6, 0xf3, 0x01, 0xf7, 0xe2,
  0x12, 0x2e, 0xff, 0xe5, 0x09, 0x1b, 0xe3, 0x07, 0x21, 0x06, 0x12, 0xf1,
  0x10, 0x01, 0xfa, 0x0d, 0x08, 0x07, 0xd1, 0xec, 0x15, 0x28, 0xec, 0x06,
  0xd7, 0xf1, 0x05, 0xf5, 0xfe, 0x0b, 0x02, 0xf8, 0x0a, 0x2c, 0x0f, 0xf4,
  0x11, 0x15, 0xfb, 0x05, 0x03, 0x10, 0x19, 0xfb, 0x0a, 0x0e, 0xfd, 0x10,
  0x10, 0x05, 0x03, 0x1c, 0xf7, 0x08, 0x0e, 0xe9, 0x30, 0x01, 0x0d, 0x0c,
  0x06, 0x13, 0x14, 0xfa, 0xfe, 0x0d, 0x16, 0x09, 0x13, 0x0b, 0x0f, 0x14,
  0xf7, 0xfd, 0x00, 0x21, 0x1d, 0x25, 0x04, 0x09, 0x2d, 0x11, 0x2c, 0x1d,
  0x00, 0xe3, 0x18, 0x0e, 0x1a, 0xf7, 0x06, 0x0f, 0x02, 0x0b, 0x1a, 0xef,
  0xfb, 0x03, 0xea, 0x01, 0xff, 0x21, 0x01, 0x0e, 0xeb, 0xf7, 0xea, 0x13,
  0xfa, 0x13, 0x0d, 0xf1, 0xf6, 0xf7, 0x30, 0xfc, 0xff, 0x02, 0xf9, 0x26,
  0xf9, 0xe1, 0x0a, 0xfe, 0xfb, 0xe4, 0x0c, 0xef, 0x02, 0xef, 0xf4, 0xf0,
  0xef, 0x0f, 0x14, 0xf5, 0xf5, 0xf3, 0xd7, 0xe8, 0xd9, 0xd2, 0xf7, 0xe1,
  0xc9, 0xec, 0xf1, 0xe3, 0xdf, 0xfb, 0xf2, 0x00, 0xe9, 0xf3, 0xf1, 0x02,
  0xef, 0xe2, 0xea, 0xcd, 0xfe, 0xe7, 0xf5, 0xf5, 0xd8, 0xde, 0x1a, 0x08,
  0xf6, 0xe8, 0xdd, 0xe7, 0xf8, 0xdc, 0x01, 0xd8, 0xed, 0xe0, 0xee, 0xe8,
  0xdb, 0xfa, 0xe7, 0xde, 0xe3, 0xf6, 0xf3, 0xf4, 0x04, 0xf3, 0xe3, 0xe7,
  0x00, 0xec, 0xce, 0xce, 0xda, 0xd2, 0x12, 0xf2, 0x05, 0x07, 0x04, 0xfe,
  0xf6, 0xff, 0x0b, 0xfa, 0xfc, 0xfe, 0x01, 0x0c, 0xf5, 0x03, 0x05, 0xea,
  0x1e, 0x0d, 0xf5, 0xf1, 0x01, 0x12, 0x11, 0xfb, 0x0e, 0x11, 0x0e, 0x05,
  0x07, 0x04, 0xfc, 0x0c, 0xff, 0xfd, 0x07, 0x23, 0x19, 0x19, 0xfd, 0xf7,
  0x26, 0x15, 0x2e, 0x11, 0x0a, 0x0a, 0x08, 0x0f, 0x1b, 0xfe, 0x0b, 0xf0,
  0xff, 0x1d, 0x1b, 0x09, 0x04, 0x0d, 0x01, 0x00, 0xfd, 0x11, 0x1a, 0x18,
  0xf4, 0x07, 0xec, 0x25, 0xdf, 0x14, 0xf2, 0xf2, 0x11, 0xfe, 0x31, 0x0d,
  0x09, 0xd4, 0xfb, 0x1e, 0x04, 0xf3, 0x12, 0xf4, 0xe7, 0xea, 0xf4, 0x07,
  0xfe, 0xf4, 0xf6, 0x0b, 0xeb, 0x10, 0x06, 0xfe, 0xfc, 0xee, 0xdf, 0xd9,
  0xee, 0xe9, 0xff, 0xff, 0xd3, 0xe7, 0xec, 0xdb, 0xfd, 0xe8, 0xf3, 0x09,
  0xd4, 0xfd, 0xee, 0x05, 0xf0, 0xc9, 0xdc, 0xf1, 0x03, 0xee, 0xe7, 0x0b,
