unsigned char __digit_model_int8_tflite[] = {
  0x20, 0x00, 0x00, 0x00, 0x54, 0x46, 0x4c, 0x33, 0x00, 0x00, 0x00, 0x00,
  0x14, 0x00, 0x20, 0x00, 0x1c, 0x00, 0x18, 0x00, 0x14, 0x00, 0x10, 0x00,
  0x0c, 0x00, 0x00, 0x00, 0x08, 0x00, 0x04, 0x00, 0x14, 0x00, 0x00, 0x00,
  0x1c, 0x00, 0x00, 0x00, 0x88, 0x00, 0x00, 0x00, 0xe0, 0x00, 0x00, 0x00,
  0xec, 0x07, 0x00, 0x00, 0xfc, 0x07, 0x00, 0x00, 0x08, 0x0f, 0x00, 0x00,
  0x03, 0x00, 0x00, 0x00, 0x01, 0x00, 0x00, 0x00, 0x04, 0x00, 0x00, 0x00,
  0x4a, 0xf7, 0xff, 0xff, 0x0c, 0x00, 0x00, 0x00, 0x1c, 0x00, 0x00, 0x00,
  0x38, 0x00, 0x00, 0x00, 0x0f, 0x00, 0x00, 0x00, 0x73, 0x65, 0x72, 0x76,
  0x69, 0x6e, 0x67, 0x5f, 0x64, 0x65, 0x66, 0x61, 0x75, 0x6c, 0x74, 0x00,
  0x01, 0x00, 0x00, 0x00, 0x04, 0x00, 0x00, 0x00, 0x94, 0xff, 0xff, 0xff,
  0x09, 0x00, 0x00, 0x00, 0x04, 0x00, 0x00, 0x00, 0x05, 0x00, 0x00, 0x00,
  0x64, 0x65, 0x6e, 0x73, 0x65, 0x00, 0x00, 0x00, 0x01, 0x00, 0x00, 0x00,
  0x04, 0x00, 0x00, 0x00, 0xfa, 0xf7, 0xff, 0xff, 0x04, 0x00, 0x00, 0x00,
  0x0c, 0x00, 0x00, 0x00, 0x63, 0x6f, 0x6e, 0x76, 0x32, 0x64, 0x5f, 0x69,
  0x6e, 0x70, 0x75, 0x74, 0x00, 0x00, 0x00, 0x00, 0x02, 0x00, 0x00, 0x00,
  0x34, 0x00, 0x00, 0x00, 0x04, 0x00, 0x00, 0x00, 0xdc, 0xff, 0xff, 0xff,
  0x0c, 0x00, 0x00, 0x00, 0x04, 0x00, 0x00, 0x00, 0x13, 0x00, 0x00, 0x00,
  0x43, 0x4f, 0x4e, 0x56, 0x45, 0x52, 0x53, 0x49, 0x4f, 0x4e, 0x5f, 0x4d,
  0x45, 0x54, 0x41, 0x44, 0x41, 0x54, 0x41, 0x00, 0x08, 0x00, 0x0c, 0x00,
  0x08, 0x00, 0x04, 0x00, 0x08, 0x00, 0x00, 0x00, 0x0b, 0x00, 0x00, 0x00,
  0x04, 0x00, 0x00, 0x00, 0x13, 0x00, 0x00, 0x00, 0x6d, 0x69, 0x6e, 0x5f,
  0x72, 0x75, 0x6e, 0x74, 0x69, 0x6d, 0x65, 0x5f, 0x76, 0x65, 0x72, 0x73,
  0x69, 0x6f, 0x6e, 0x00, 0x0d, 0x00, 0x00, 0x00, 0x08, 0x07, 0x00, 0x00,
  0x00, 0x07, 0x00, 0x00, 0xe8, 0x06, 0x00, 0x00, 0xb0, 0x06, 0x00, 0x00,
  0x00, 0x01, 0x00, 0x00, 0xe0, 0x00, 0x00, 0x00, 0xac, 0x00, 0x00, 0x00,
  0xa4, 0x00, 0x00, 0x00, 0x9c, 0x00, 0x00, 0x00, 0x94, 0x00, 0x00, 0x00,
  0x8c, 0x00, 0x00, 0x00, 0x6c, 0x00, 0x00, 0x00, 0x04, 0x00, 0x00, 0x00,
  0xaa, 0xf8, 0xff, 0xff, 0x04, 0x00, 0x00, 0x00, 0x58, 0x00, 0x00, 0x00,
  0x0c, 0x00, 0x00, 0x00, 0x08, 0x00, 0x0e, 0x00, 0x08, 0x00, 0x04, 0x00,
  0x08, 0x00, 0x00, 0x00, 0x10, 0x00, 0x00, 0x00, 0x28, 0x00, 0x00, 0x00,
  0x00, 0x00, 0x06, 0x00, 0x08, 0x00, 0x04, 0x00, 0x06, 0x00, 0x00, 0x00,
  0x04, 0x00, 0x00, 0x00, 0x01, 0x00, 0x00, 0x00, 0xeb, 0x03, 0x00, 0x00,
  0x00, 0x00, 0x0a, 0x00, 0x10, 0x00, 0x0c, 0x00, 0x08, 0x00, 0x04, 0x00,
  0x0a, 0x00, 0x00, 0x00, 0x02, 0x00, 0x00, 0x00, 0x02, 0x00, 0x00, 0x00,
  0x04, 0x00, 0x00, 0x00, 0x06, 0x00, 0x00, 0x00, 0x32, 0x2e, 0x31, 0x30,
  0x2e, 0x31, 0x00, 0x00, 0x0e, 0xf9, 0xff, 0xff, 0x04, 0x00, 0x00, 0x00,
  0x10, 0x00, 0x00, 0x00, 0x31, 0x2e, 0x31, 0x34, 0x2e, 0x30, 0x00, 0x00,
  0x00, 0x00, 0x00, 0x00, 0x00, 0x00, 0x00, 0x00, 0x64, 0xf3, 0xff, 0xff,
  0x68, 0xf3, 0xff, 0xff, 0x6c, 0xf3, 0xff, 0xff, 0x70, 0xf3, 0xff, 0xff,
  0x3a, 0xf9, 0xff, 0xff, 0x04, 0x00, 0x00, 0x00, 0x24, 0x00, 0x00, 0x00,
  0x7e, 0x68, 0x5b, 0x5d, 0x00, 0xf6, 0x67, 0x68, 0x81, 0x7f, 0x30, 0x72,
  0x0e, 0x3a, 0x39, 0x63, 0x85, 0x92, 0x64, 0xbc, 0x81, 0x7d, 0xc9, 0x08,
  0x73, 0x61, 0x69, 0x9a, 0x96, 0x67, 0x5c, 0x23, 0x4d, 0x7b, 0x7f, 0xe9,
  0x6a, 0xf9, 0xff, 0xff, 0x04, 0x00, 0x00, 0x00, 0x10, 0x00, 0x00, 0x00,
  0x2e, 0x20, 0x00, 0x00, 0x11, 0x29, 0x00, 0x00, 0x05, 0x32, 0x00, 0x00,
  0x80, 0x29, 0x00, 0x00, 0x86, 0xf9, 0xff, 0xff, 0x04, 0x00, 0x00, 0x00,
  0xa0, 0x05, 0x00, 0x00, 0xc2, 0x9a, 0x08, 0xf7, 0x1d, 0xf3, 0xe9, 0x25,
  0x16, 0x00, 0xbd, 0x01, 0xf6, 0x00, 0x3e, 0xc3, 0xfb, 0xbd, 0x2b, 0x25,
  0x3f, 0xff, 0x2c, 0x3d, 0xf0, 0xdf, 0xe4, 0x21, 0x55, 0x33, 0xee, 0x48,
  0x2d, 0x05, 0xf9, 0xea, 0xf7, 0x08, 0xeb, 0xce, 0xe2, 0xbe, 0xa4, 0xc9,
  0x05, 0x30, 0x17, 0x03, 0xdd, 0xc1, 0xca, 0x12, 0x00, 0xfa, 0x15, 0x0c,
  0x07, 0x29, 0xeb, 0xa8, 0xc0, 0x32, 0xa1, 0xb7, 0xc7, 0xab, 0xb6, 0xa0,
  0x13, 0x2a, 0xef, 0x03, 0xb4, 0xe0, 0xb0, 0x47, 0x4a, 0xe2, 0x4a, 0xe5,
  0x3d, 0x02, 0x08, 0x0f, 0xea, 0xb5, 0xba, 0x0a, 0xf2, 0xaf, 0xd2, 0xfc,
  0xfa, 0xf9, 0x26, 0xff, 0xe9, 0xf6, 0x9b, 0x22, 0x13, 0x88, 0x0e, 0xbb,
  0x10, 0xdf, 0x20, 0xe7, 0xce, 0xa6, 0x30, 0xf6, 0x00, 0xc6, 0xb1, 0x0a,
  0x37, 0x07, 0x1f, 0xe7, 0x41, 0x16, 0x9f, 0x3d, 0xc8, 0xe9, 0xad, 0xb6,
  0x29, 0xd3, 0x05, 0x1d, 0xd7, 0x1a, 0x0a, 0x34, 0xf9, 0x2f, 0xb0, 0x10,
  0x09, 0xfe, 0xe7, 0xdb, 0xd2, 0xae, 0x0b, 0xa9, 0xaf, 0xa6, 0x01, 0xd8,
  0xdb, 0xd5, 0xf2, 0xda, 0xf6, 0xd8, 0x1d, 0x37, 0xea, 0x2e, 0x29, 0x39,
  0x12, 0xed, 0xdf, 0x04, 0xae, 0xd8, 0x0f, 0xda, 0xd3, 0xff, 0x38, 0xf9,
  0xff, 0xdb, 0xbd, 0x06, 0x1a, 0x2e, 0x41, 0x34, 0x3a, 0xf5, 0x47, 0x0d,
  0xec, 0x03, 0x0b, 0xb7, 0xbd, 0x03, 0xf0, 0xd8, 0x1f, 0x03, 0x9e, 0x31,
  0x14, 0x28, 0xe3, 0xff, 0x22, 0x04, 0xfa, 0xdf, 0x41, 0x17, 0x27, 0xe8,
  0xe2, 0xe8, 0xe3, 0xbb, 0x2c, 0x30, 0xb3, 0x27, 0xc8, 0x15, 0x9d, 0x1e,
  0xf3, 0xbc, 0xfc, 0xd5, 0x45, 0xf5, 0x03, 0xe7, 0x20, 0x23, 0x29, 0x20,
  0xb6, 0xd0, 0xf0, 0xc0, 0x08, 0xc7, 0xd8, 0xcf, 0xea, 0xcd, 0xae, 0xeb,
  0xe9, 0xe4, 0xe9, 0x21, 0x1e, 0xe3, 0xec, 0x00, 0x43, 0x08, 0x22, 0xfa,
  0x0b, 0xd2, 0xfc, 0xfc, 0xaa, 0x0e, 0xdf, 0xf6, 0xc8, 0x43, 0xcc, 0xeb,
  0xd0, 0x16, 0xf0, 0xed, 0x0c, 0xce, 0xf6, 0xda, 0xf2, 0xd1, 0x34, 0x22,
  0x13, 0x05, 0x05, 0x4c, 0x1b, 0x50, 0xa5, 0x1c, 0xfa, 0x20, 0xcf, 0x1b,
  0xd6, 0x2f, 0x33, 0xb0, 0xeb, 0xe6, 0xea, 0x0c, 0xf0, 0xd6, 0xf9, 0x0f,
  0xfd, 0xd7, 0x10, 0x28, 0x48, 0x43, 0xd8, 0xeb, 0x1e, 0x38, 0x9d, 0xc5,
  0xc1, 0x45, 0xfa, 0xbe, 0x00, 0x0b, 0xd1, 0xb8, 0x2e, 0xf8, 0xf5, 0x2c,
  0x0a, 0xdb, 0x0c, 0xdf, 0xfe, 0x23, 0xb8, 0xe7, 0xf5, 0xff, 0xe7, 0xc3,
  0xe7, 0x04, 0xe2, 0xf7, 0xe9, 0x04, 0xeb, 0xf5, 0x04, 0x26, 0xe9, 0xe6,
  0xf7, 0xef, 0xbf, 0xbb, 0xf6, 0xa8, 0x4b, 0xd0, 0xba, 0xd7, 0x71, 0xc6,
  0xea, 0xde, 0xd5, 0x5a, 0x2a, 0xee, 0x02, 0x20, 0xec, 0x42, 0x2b, 0xac,
  0xbc, 0xee, 0xdc, 0xd2, 0xeb, 0x95, 0x47, 0xd0, 0xed, 0xbb, 0x5c, 0x47,
  0xec, 0x9d, 0xda, 0x02, 0xe3, 0xe4, 0x04, 0x3a, 0xfe, 0xea, 0x34, 0x06,
  0x15, 0xad, 0x23, 0x26, 0xf9, 0x03, 0x28, 0x2f, 0x2c, 0x25, 0xfd, 0x13,
  0xf4, 0x23, 0x29, 0xff, 0x03, 0xff, 0x4b, 0xe3, 0x0f, 0xa8, 0x0b, 0x5a,
  0x18, 0xa5, 0x2d, 0x4d, 0x29, 0x5a, 0xd9, 0x27, 0xf4, 0x2b, 0xf2, 0x12,
  0xed, 0xff, 0xd5, 0xd7, 0xe7, 0xfe, 0xdc, 0xc2, 0x2d, 0x24, 0xec, 0x0b,
  0x35, 0x27, 0xe8, 0x27, 0x36, 0x14, 0xef, 0xc4, 0xe2, 0xfc, 0xff, 0x9f,
  0xd1, 0xd6, 0xd6, 0xb3, 0x0c, 0x16, 0xd9, 0xfd, 0x2f, 0x26, 0x16, 0x0e,
  0x08, 0xed, 0x21, 0x89, 0x0d, 0xaa, 0x0a, 0xc3, 0xf7, 0x21, 0x0b, 0xcf,
  0xc1, 0xcf, 0xcd, 0x38, 0x05, 0xe9, 0xcf, 0xe8, 0x3f, 0x16, 0x2c, 0x28,
  0xf6, 0x3b, 0xef, 0xf7, 0xc8, 0x9c, 0x28, 0xfa, 0xef, 0x47, 0xa7, 0x43,
  0xf2, 0xed, 0xd8, 0xd9, 0xb8, 0xd8, 0xbb, 0xd1, 0xfb, 0xac, 0x56, 0x0d,
  0x02, 0xd1, 0x3b, 0x1e, 0xae, 0xbc, 0x52, 0xd4, 0xcc, 0xc4, 0xfd, 0xf8,
  0x0e, 0xe1, 0xe8, 0x1f, 0x0d, 0x07, 0xfe, 0xf7, 0x20, 0xf4, 0x30, 0xe7,
  0x11, 0x3a, 0x20, 0x08, 0xbe, 0xc7, 0x3d, 0x02, 0xd4, 0xc1, 0x15, 0xf4,
  0xdf, 0x99, 0x24, 0x2c, 0xf9, 0xcf, 0xf0, 0x2f, 0xfe, 0xeb, 0xf1, 0x3f,
  0x2d, 0x1e, 0xe2, 0xbb, 0xb8, 0xbf, 0x2e, 0xc0, 0xcb, 0xaf, 0x53, 0x0f,
  0xe2, 0xd3, 0xd8, 0x03, 0xcf, 0xcf, 0x17, 0xcd, 0xc7, 0xd1, 0x1c, 0x03,
  0x9e, 0xef, 0xf6, 0xf7, 0xa8, 0xe1, 0x0c, 0xc0, 0xde, 0x09, 0x36, 0x29,
  0xed, 0x1d, 0x05, 0x24, 0xef, 0xdd, 0x25, 0xb6, 0xfa, 0xa6, 0x08, 0x2a,
  0xf9, 0xd1, 0xd1, 0x2d, 0xe4, 0xf2, 0x02, 0x1c, 0x43, 0x25, 0x26, 0x39,
  0xfb, 0xdd, 0x16, 0x0b, 0x11, 0xfe, 0x06, 0xfd, 0x09, 0xd4, 0x29, 0x01,
  0xec, 0xfa, 0xda, 0x02, 0x0b, 0x26, 0xdb, 0x39, 0x0f, 0xe4, 0x40, 0x2b,
  0xee, 0xdf, 0xfe, 0xf2, 0xd1, 0xe7, 0xe1, 0x3f, 0x33, 0x4a, 0xfa, 0x24,
  0xed, 0xff, 0x0d, 0xce, 0x5f, 0xff, 0xd8, 0x47, 0x15, 0x25, 0x17, 0xc0,
  0xcf, 0x41, 0xe8, 0xd6, 0x42, 0xf0, 0xbd, 0xf8, 0xf7, 0x34, 0xeb, 0xe8,
  0x33, 0x3c, 0x1b, 0xbd, 0x2d, 0x15, 0xd2, 0xca, 0x2f, 0x2d, 0xa9, 0xdf,
  0x08, 0x5b, 0xac, 0xc7, 0x14, 0x3f, 0xcd, 0xe9, 0xeb, 0x2f, 0x38, 0xd5,
  0xd3, 0xe7, 0xf6, 0x88, 0xf2, 0x1d, 0xc6, 0x1b, 0x26, 0x22, 0xa9, 0x1e,
  0x27, 0x17, 0x3a, 0x36, 0x12, 0x42, 0xa2, 0xe0, 0xf8, 0x0b, 0xcb, 0xb0,
  0xe7, 0x0f, 0xb1, 0xb8, 0xab, 0xd7, 0xb4, 0x1f, 0x3b, 0x07, 0x43, 0xeb,
  0x3f, 0x05, 0x36, 0xda, 0xea, 0xea, 0x13, 0x14, 0x04, 0xe8, 0xf6, 0x11,
  0xd5, 0x01, 0xcd, 0xc2, 0xf0, 0x2b, 0x9f, 0xff, 0x09, 0x3b, 0xf5, 0x05,
  0x02, 0xf0, 0x38, 0xd2, 0xe1, 0xba, 0x2d, 0xd9, 0xeb, 0xd8, 0x18, 0x34,
  0xae, 0xde, 0xe2, 0xf7, 0x4f, 0x37, 0xb1, 0x0e, 0x0e, 0x32, 0xee, 0xc5,
  0x35, 0x38, 0xf6, 0xcf, 0x18, 0xf7, 0xf9, 0xce, 0xe0, 0xc6, 0xf6, 0x14,
  0xc7, 0xf8, 0xec, 0xf9, 0x2e, 0xfd, 0x07, 0xe8, 0x35, 0xc7, 0x1d, 0x02,
  0xe1, 0x08, 0xdf, 0xdf, 0x0e, 0xeb, 0xdc, 0x08, 0x04, 0x0b, 0xbe, 0x25,
  0xd2, 0x09, 0xcf, 0xcd, 0xd0, 0x98, 0x13, 0xd9, 0xde, 0xd7, 0x59, 0x30,
  0xf8, 0xf7, 0xf9, 0x3a, 0xe3, 0x2f, 0xaf, 0x1e, 0x13, 0x0e, 0xb3, 0xf8,
  0x0b, 0xfb, 0xfb, 0xd4, 0x81, 0x96, 0x04, 0xc6, 0xac, 0xcb, 0x01, 0x14,
  0x18, 0xd2, 0xf7, 0x09, 0xea, 0xf4, 0xf9, 0xca, 0xbd, 0xd7, 0x0a, 0x98,
  0xc8, 0xc0, 0xc1, 0xc8, 0xd7, 0xa1, 0x33, 0xc1, 0xf8, 0xed, 0xab, 0x42,
  0x12, 0x0f, 0x0d, 0x03, 0xed, 0x31, 0xf8, 0xc1, 0xaf, 0xc0, 0xe9, 0xbd,
  0xf6, 0xd3, 0xb2, 0xfa, 0xdc, 0xb9, 0xf7, 0xe1, 0x11, 0xe7, 0xf8, 0x08,
  0x2b, 0x13, 0x3f, 0x2d, 0xf6, 0xbd, 0x1d, 0xd5, 0xff, 0xd9, 0x2a, 0x1c,
  0xd8, 0xf3, 0xca, 0x28, 0x9f, 0xf0, 0xc3, 0xe0, 0xdc, 0xd1, 0xe2, 0xee,
  0x11, 0x2d, 0x21, 0x4b, 0xe8, 0xec, 0x07, 0x08, 0xf0, 0x98, 0x37, 0xeb,
  0x17, 0xde, 0xf1, 0x4d, 0xa7, 0x04, 0xe9, 0x1d, 0xea, 0xe8, 0xc3, 0xfa,
  0x2e, 0x2a, 0xfc, 0x1b, 0x07, 0x3c, 0xf4, 0xdb, 0xd3, 0xe7, 0x01, 0xf2,
  0x37, 0x0c, 0x3a, 0x49, 0x45, 0x34, 0x93, 0x20, 0xdd, 0x22, 0xca, 0xb9,
  0xee, 0x0e, 0x3b, 0xb3, 0x0d, 0x08, 0x02, 0xdf, 0xe3, 0xe6, 0xfd, 0x54,
  0x20, 0x33, 0x08, 0x29, 0xff, 0x32, 0xfc, 0xee, 0xfc, 0x42, 0x88, 0xf3,
  0x0e, 0x08, 0xda, 0x06, 0x09, 0xf6, 0xc3, 0x03, 0x2e, 0x36, 0xe2, 0xec,
  0x54, 0x36, 0x33, 0xf4, 0x29, 0x1e, 0xd9, 0xfc, 0xdc, 0xed, 0xf3, 0xfc,
  0xde, 0x1c, 0xbe, 0xdf, 0xc7, 0xee, 0xe8, 0xde, 0x1c, 0xec, 0x0a, 0x0e,
  0x2c, 0xf0, 0xf0, 0x12, 0xa8, 0xf4, 0x03, 0xbb, 0xea, 0xd0, 0x3c, 0x1c,
  0xb8, 0xc8, 0x29, 0xf2, 0xf7, 0xf5, 0x15, 0x23, 0x0f, 0xee, 0xe4, 0x3e,
  0x14, 0x2a, 0x34, 0x43, 0xba, 0x18, 0x0d, 0xd4, 0xa7, 0xd4, 0xfb, 0x09,
  0xc7, 0xe5, 0xe4, 0x3a, 0x1d, 0x04, 0xd2, 0x20, 0x24, 0x32, 0xe9, 0xdb,
  0xeb, 0xf2, 0x0b, 0xe9, 0x02, 0xf1, 0xd5, 0x45, 0xdb, 0x1d, 0xe6, 0x00,
  0x30, 0xff, 0xc1, 0xf3, 0xfe, 0x0f, 0xf7, 0xd6, 0x34, 0x32, 0xb5, 0xb8,
  0xc9, 0x1a, 0xf9, 0xe2, 0xe6, 0xc8, 0x1e, 0xc9, 0x40, 0x13, 0xf1, 0x4f,
  0xfc, 0x14, 0xd6, 0xeb, 0x23, 0x3f, 0xe0, 0xe9, 0xb7, 0xda, 0xdb, 0xd4,
  0x98, 0xad, 0xea, 0xb9, 0xcd, 0xc3, 0x11, 0xda, 0xe8, 0xe4, 0xcf, 0xf5,
  0x0b, 0x2b, 0x23, 0x0b, 0x0d, 0xf5, 0x1e, 0xda, 0x1f, 0xb2, 0xe5, 0xc7,
  0xe1, 0x18, 0xe8, 0x4d, 0xe3, 0x27, 0xa9, 0xeb, 0xe7, 0xc3, 0xea, 0xd9,
  0xf4, 0xbf, 0x24, 0xf0, 0xdd, 0x01, 0xe6, 0x1c, 0x22, 0x22, 0xe3, 0x1b,
  0x30, 0x31, 0x2f, 0xb3, 0xf9, 0x52, 0xc4, 0xdc, 0xea, 0xdd, 0xd3, 0xd8,
  0xe3, 0xef, 0xf5, 0xe0, 0x46, 0xf8, 0xee, 0x0c, 0xe1, 0x25, 0xfd, 0x01,
  0x1d, 0x22, 0xcd, 0xa0, 0xe4, 0xe7, 0x44, 0xd9, 0xf1, 0xee, 0xcd, 0x4c,
  0x27, 0x4a, 0xb9, 0x1b, 0x17, 0xf0, 0x18, 0xba, 0x1a, 0x15, 0x0f, 0x0d,
  0xd6, 0x0b, 0xcd, 0xca, 0xa9, 0xd3, 0x2f, 0x15, 0x1d, 0xf8, 0xb8, 0xfe,
  0x2e, 0x04, 0x10, 0x0f, 0x1e, 0xd6, 0x2d, 0xac, 0xef, 0xfd, 0xfc, 0x06,
  0xdc, 0xcc, 0x14, 0x17, 0x28, 0x2f, 0x83, 0x00, 0xd8, 0xba, 0xb6, 0xaa,
  0x12, 0xf0, 0xee, 0xca, 0x32, 0x0f, 0xeb, 0x1d, 0x24, 0xfb, 0xfd, 0xfc,
  0x23, 0x05, 0x23, 0xea, 0xba, 0xc9, 0x22, 0xfc, 0x1e, 0x0c, 0x03, 0x2b,
  0xf2, 0x0f, 0x2d, 0xec, 0xd6, 0xec, 0x20, 0xe3, 0x31, 0xb6, 0x05, 0x49,
  0x2e, 0xea, 0x17, 0x08, 0xe1, 0xdf, 0xd4, 0xf6, 0xe2, 0xed, 0x18, 0xfc,
  0x05, 0xe2, 0xfd, 0x13, 0x25, 0xc1, 0x05, 0x3a, 0x3d, 0x0d, 0x2a, 0x2a,
  0x47, 0x43, 0x1d, 0x07, 0x21, 0x30, 0x9b, 0xf7, 0xd2, 0x2d, 0xfe, 0xcd,
  0x0a, 0x0f, 0xf7, 0x05, 0x02, 0x41, 0xb9, 0x05, 0xfb, 0xe7, 0xb3, 0xf1,
  0x04, 0x2e, 0x38, 0xde, 0x53, 0x17, 0xcb, 0x30, 0xfd, 0x13, 0xd3, 0xe8,
  0xf0, 0x23, 0x8b, 0x9f, 0x03, 0x0c, 0xe3, 0xca, 0xd7, 0xf4, 0xca, 0xd9,
  0x1d, 0x48, 0xff, 0xff, 0xe6, 0xbe, 0x07, 0xd2, 0x1a, 0x26, 0xce, 0x06,
  0xf3, 0xe5, 0xec, 0xdd, 0x00, 0x22, 0xc5, 0x0c, 0xcc, 0xc5, 0xd4, 0xe8,
  0x09, 0xf6, 0x0f, 0xcc, 0xc9, 0xdd, 0x40, 0xd8, 0xe2, 0x84, 0x38, 0xe3,
  0xe1, 0xbb, 0xe8, 0x14, 0x03, 0x9b, 0x19, 0x1e, 0xc8, 0xdf, 0xda, 0x04,
  0x29, 0xf0, 0xfb, 0xd0, 0x32, 0xff, 0xff, 0xff, 0x04, 0x00, 0x00, 0x00,
  0x28, 0x00, 0x00, 0x00, 0x32, 0x03, 0x00, 0x00, 0x32, 0xff, 0xff, 0xff,
  0x8e, 0xff, 0xff, 0xff, 0xa8, 0x00, 0x00, 0x00, 0xcc, 0xff, 0xff, 0xff,
  0xae, 0xfe, 0xff, 0xff, 0xf1, 0x00, 0x00, 0x00, 0x1c, 0x00, 0x00, 0x00,
  0x72, 0xfd, 0xff, 0xff, 0x4a, 0x00, 0x00, 0x00, 0x66, 0xff, 0xff, 0xff,
  0x04, 0x00, 0x00, 0x00, 0x08, 0x00, 0x00, 0x00, 0xff, 0xff, 0xff, 0xff,
  0x90, 0x00, 0x00, 0x00, 0xb4, 0xf9, 0xff, 0xff, 0xb8, 0xf9, 0xff, 0xff,
  0x0f, 0x00, 0x00, 0x00, 0x4d, 0x4c, 0x49, 0x52, 0x20, 0x43, 0x6f, 0x6e,
  0x76, 0x65, 0x72, 0x74, 0x65, 0x64, 0x2e, 0x00, 0x01, 0x00, 0x00, 0x00,
  0x14, 0x00, 0x00, 0x00, 0x00, 0x00, 0x0e, 0x00, 0x18, 0x00, 0x14, 0x00,
  0x10, 0x00, 0x0c, 0x00, 0x08, 0x00, 0x04, 0x00, 0x0e, 0x00, 0x00, 0x00,
  0x14, 0x00, 0x00, 0x00, 0x1c, 0x00, 0x00, 0x00, 0x34, 0x01, 0x00, 0x00,
  0x38, 0x01, 0x00, 0x00, 0x3c, 0x01, 0x00, 0x00, 0x04, 0x00, 0x00, 0x00,
  0x6d, 0x61, 0x69, 0x6e, 0x00, 0x00, 0x00, 0x00, 0x04, 0x00, 0x00, 0x00,
  0xcc, 0x00, 0x00, 0x00, 0x94, 0x00, 0x00, 0x00, 0x50, 0x00, 0x00, 0x00,
  0x04, 0x00, 0x00, 0x00, 0xc6, 0xff, 0xff, 0xff, 0x1c, 0x00, 0x00, 0x00,
  0x00, 0x00, 0x00, 0x09, 0x1c, 0x00, 0x00, 0x00, 0x20, 0x00, 0x00, 0x00,
  0x03, 0x00, 0x00, 0x00, 0x00, 0x00, 0x06, 0x00, 0x08, 0x00, 0x04, 0x00,
  0x06, 0x00, 0x00, 0x00, 0x00, 0x00, 0x80, 0x3f, 0x01, 0x00, 0x00, 0x00,
  0x09, 0x00, 0x00, 0x00, 0x01, 0x00, 0x00, 0x00, 0x08, 0x00, 0x00, 0x00,
  0x00, 0x00, 0x0e, 0x00, 0x18, 0x00, 0x14, 0x00, 0x10, 0x00, 0x0c, 0x00,
  0x0b, 0x00, 0x04, 0x00, 0x0e, 0x00, 0x00, 0x00, 0x14, 0x00, 0x00, 0x00,
  0x00, 0x00, 0x00, 0x08, 0x10, 0x00, 0x00, 0x00, 0x14, 0x00, 0x00, 0x00,
  0x02, 0x00, 0x00, 0x00, 0x80, 0xfa, 0xff, 0xff, 0x01, 0x00, 0x00, 0x00,
  0x08, 0x00, 0x00, 0x00, 0x03, 0x00, 0x00, 0x00, 0x07, 0x00, 0x00, 0x00,
  0x03, 0x00, 0x00, 0x00, 0x02, 0x00, 0x00, 0x00, 0x00, 0x00, 0x0a, 0x00,
  0x10, 0x00, 0x0c, 0x00, 0x08, 0x00, 0x04, 0x00, 0x0a, 0x00, 0x00, 0x00,
  0x0c, 0x00, 0x00, 0x00, 0x10, 0x00, 0x00, 0x00, 0x01, 0x00, 0x00, 0x00,
  0x01, 0x00, 0x00, 0x00, 0x07, 0x00, 0x00, 0x00, 0x02, 0x00, 0x00, 0x00,
  0x06, 0x00, 0x00, 0x00, 0x01, 0x00, 0x00, 0x00, 0x00, 0x00, 0x0e, 0x00,
  0x14, 0x00, 0x00, 0x00, 0x10, 0x00, 0x0c, 0x00, 0x0b, 0x00, 0x04, 0x00,
  0x0e, 0x00, 0x00, 0x00, 0x1c, 0x00, 0x00, 0x00, 0x00, 0x00, 0x00, 0x01,
  0x28, 0x00, 0x00, 0x00, 0x2c, 0x00, 0x00, 0x00, 0x0c, 0x00, 0x14, 0x00,
  0x13, 0x00, 0x0c, 0x00, 0x08, 0x00, 0x07, 0x00, 0x0c, 0x00, 0x00, 0x00,
  0x00, 0x00, 0x00, 0x01, 0x01, 0x00, 0x00, 0x00, 0x01, 0x00, 0x00, 0x00,
  0x00, 0x00, 0x00, 0x01, 0x01, 0x00, 0x00, 0x00, 0x06, 0x00, 0x00, 0x00,
  0x03, 0x00, 0x00, 0x00, 0x00, 0x00, 0x00, 0x00, 0x05, 0x00, 0x00, 0x00,
  0x04, 0x00, 0x00, 0x00, 0x01, 0x00, 0x00, 0x00, 0x09, 0x00, 0x00, 0x00,
  0x01, 0x00, 0x00, 0x00, 0x00, 0x00, 0x00, 0x00, 0x0a, 0x00, 0x00, 0x00,
  0x0c, 0x05, 0x00, 0x00, 0xa4, 0x04, 0x00, 0x00, 0x18, 0x04, 0x00, 0x00,
  0xac, 0x03, 0x00, 0x00, 0x10, 0x03, 0x00, 0x00, 0x74, 0x02, 0x00, 0x00,
  0x90, 0x01, 0x00, 0x00, 0x14, 0x01, 0x00, 0x00, 0x80, 0x00, 0x00, 0x00,
  0x04, 0x00, 0x00, 0x00, 0x32, 0xfb, 0xff, 0xff, 0x00, 0x00, 0x00, 0x01,
  0x18, 0x00, 0x00, 0x00, 0x20, 0x00, 0x00, 0x00, 0x3c, 0x00, 0x00, 0x00,
  0x0a, 0x00, 0x00, 0x00, 0x00, 0x00, 0x00, 0x09, 0x50, 0x00, 0x00, 0x00,
  0x02, 0x00, 0x00, 0x00, 0xff, 0xff, 0xff, 0xff, 0x0a, 0x00, 0x00, 0x00,
  0x14, 0xfb, 0xff, 0xff, 0x08, 0x00, 0x00, 0x00, 0x10, 0x00, 0x00, 0x00,
  0x01, 0x00, 0x00, 0x00, 0x80, 0xff, 0xff, 0xff, 0xff, 0xff, 0xff, 0xff,
  0x01, 0x00, 0x00, 0x00, 0x00, 0x00, 0x80, 0x3b, 0x19, 0x00, 0x00, 0x00,
  0x53, 0x74, 0x61, 0x74, 0x65, 0x66, 0x75, 0x6c, 0x50, 0x61, 0x72, 0x74,
  0x69, 0x74, 0x69, 0x6f, 0x6e, 0x65, 0x64, 0x43, 0x61, 0x6c, 0x6c, 0x3a,
  0x30, 0x00, 0x00, 0x00, 0x02, 0x00, 0x00, 0x00, 0x01, 0x00, 0x00, 0x00,
  0x0a, 0x00, 0x00, 0x00, 0xaa, 0xfb, 0xff, 0xff, 0x00, 0x00, 0x00, 0x01,
  0x18, 0x00, 0x00, 0x00, 0x20, 0x00, 0x00, 0x00, 0x3c, 0x00, 0x00, 0x00,
  0x09, 0x00, 0x00, 0x00, 0x00, 0x00, 0x00, 0x09, 0x68, 0x00, 0x00, 0x00,
  0x02, 0x00, 0x00, 0x00, 0xff, 0xff, 0xff, 0xff, 0x0a, 0x00, 0x00, 0x00,
  0x8c, 0xfb, 0xff, 0xff, 0x08, 0x00, 0x00, 0x00, 0x10, 0x00, 0x00, 0x00,
  0x01, 0x00, 0x00, 0x00, 0x28, 0x00, 0x00, 0x00, 0x00, 0x00, 0x00, 0x00,
  0x01, 0x00, 0x00, 0x00, 0xfd, 0x9d, 0x87, 0x3d, 0x30, 0x00, 0x00, 0x00,
  0x73, 0x65, 0x71, 0x75, 0x65, 0x6e, 0x74, 0x69, 0x61, 0x6c, 0x2f, 0x64,
  0x65, 0x6e, 0x73, 0x65, 0x2f, 0x4d, 0x61, 0x74, 0x4d, 0x75, 0x6c, 0x3b,
  0x73, 0x65, 0x71, 0x75, 0x65, 0x6e, 0x74, 0x69, 0x61, 0x6c, 0x2f, 0x64,
  0x65, 0x6e, 0x73, 0x65, 0x2f, 0x42, 0x69, 0x61, 0x73, 0x41, 0x64, 0x64,
  0x00, 0x00, 0x00, 0x00, 0x02, 0x00, 0x00, 0x00, 0x01, 0x00, 0x00, 0x00,
  0x0a, 0x00, 0x00, 0x00, 0x3a, 0xfc, 0xff, 0xff, 0x00, 0x00, 0x00, 0x01,
  0x18, 0x00, 0x00, 0x00, 0x20, 0x00, 0x00, 0x00, 0x3c, 0x00, 0x00, 0x00,
  0x08, 0x00, 0x00, 0x00, 0x00, 0x00, 0x00, 0x09, 0x50, 0x00, 0x00, 0x00,
  0x02, 0x00, 0x00, 0x00, 0xff, 0xff, 0xff, 0xff, 0x90, 0x00, 0x00, 0x00,
  0x1c, 0xfc, 0xff, 0xff, 0x08, 0x00, 0x00, 0x00, 0x10, 0x00, 0x00, 0x00,
  0x01, 0x00, 0x00, 0x00, 0x80, 0xff, 0xff, 0xff, 0xff, 0xff, 0xff, 0xff,
  0x01, 0x00, 0x00, 0x00, 0xdf, 0x29, 0x35, 0x3c, 0x1a, 0x00, 0x00, 0x00,
  0x73, 0x65, 0x71, 0x75, 0x65, 0x6e, 0x74, 0x69, 0x61, 0x6c, 0x2f, 0x66,
  0x6c, 0x61, 0x74, 0x74, 0x65, 0x6e, 0x2f, 0x52, 0x65, 0x73, 0x68, 0x61,
  0x70, 0x65, 0x00, 0x00, 0x02, 0x00, 0x00, 0x00, 0x01, 0x00, 0x00, 0x00,
  0x90, 0x00, 0x00, 0x00, 0xb2, 0xfc, 0xff, 0xff, 0x00, 0x00, 0x00, 0x01,
  0x18, 0x00, 0x00, 0x00, 0x28, 0x00, 0x00, 0x00, 0x44, 0x00, 0x00, 0x00,
  0x07, 0x00, 0x00, 0x00, 0x00, 0x00, 0x00, 0x09, 0xb0, 0x00, 0x00, 0x00,
  0x04, 0x00, 0x00, 0x00, 0xff, 0xff, 0xff, 0xff, 0x06, 0x00, 0x00, 0x00,
  0x06, 0x00, 0x00, 0x00, 0x04, 0x00, 0x00, 0x00, 0x9c, 0xfc, 0xff, 0xff,
  0x08, 0x00, 0x00, 0x00, 0x10, 0x00, 0x00, 0x00, 0x01, 0x00, 0x00, 0x00,
  0x80, 0xff, 0xff, 0xff, 0xff, 0xff, 0xff, 0xff, 0x01, 0x00, 0x00, 0x00,
  0xdf, 0x29, 0x35, 0x3c, 0x72, 0x00, 0x00, 0x00, 0x73, 0x65, 0x71, 0x75,
  0x65, 0x6e, 0x74, 0x69, 0x61, 0x6c, 0x2f, 0x63, 0x6f, 0x6e, 0x76, 0x32,
  0x64, 0x2f, 0x52, 0x65, 0x6c, 0x75, 0x3b, 0x73, 0x65, 0x71, 0x75, 0x65,
  0x6e, 0x74, 0x69, 0x61, 0x6c, 0x2f, 0x63, 0x6f, 0x6e, 0x76, 0x32, 0x64,
  0x2f, 0x42, 0x69, 0x61, 0x73, 0x41, 0x64, 0x64, 0x3b, 0x73, 0x65, 0x71,
  0x75, 0x65, 0x6e, 0x74, 0x69, 0x61, 0x6c, 0x2f, 0x63, 0x6f, 0x6e, 0x76,
  0x32, 0x64, 0x2f, 0x43, 0x6f, 0x6e, 0x76, 0x32, 0x44, 0x3b, 0x73, 0x65,
  0x71, 0x75, 0x65, 0x6e, 0x74, 0x69, 0x61, 0x6c, 0x2f, 0x63, 0x6f, 0x6e,
  0x76, 0x32, 0x64, 0x2f, 0x42, 0x69, 0x61, 0x73, 0x41, 0x64, 0x64, 0x2f,
  0x52, 0x65, 0x61, 0x64, 0x56, 0x61, 0x72, 0x69, 0x61, 0x62, 0x6c, 0x65,
  0x4f, 0x70, 0x00, 0x00, 0x04, 0x00, 0x00, 0x00, 0x01, 0x00, 0x00, 0x00,
  0x06, 0x00, 0x00, 0x00, 0x06, 0x00, 0x00, 0x00, 0x04, 0x00, 0x00, 0x00,
  0xf6, 0xfd, 0xff, 0xff, 0x00, 0x00, 0x00, 0x01, 0x14, 0x00, 0x00, 0x00,
  0x58, 0x00, 0x00, 0x00, 0x06, 0x00, 0x00, 0x00, 0x00, 0x00, 0x00, 0x09,
  0x6c, 0x00, 0x00, 0x00, 0x64, 0xfd, 0xff, 0xff, 0x08, 0x00, 0x00, 0x00,
  0x2c, 0x00, 0x00, 0x00, 0x04, 0x00, 0x00, 0x00, 0x00, 0x00, 0x00, 0x00,
  0x00, 0x00, 0x00, 0x00, 0x00, 0x00, 0x00, 0x00, 0x00, 0x00, 0x00, 0x00,
  0x00, 0x00, 0x00, 0x00, 0x00, 0x00, 0x00, 0x00, 0x00, 0x00, 0x00, 0x00,
  0x00, 0x00, 0x00, 0x00, 0x00, 0x00, 0x00, 0x00, 0x04, 0x00, 0x00, 0x00,
  0x79, 0x59, 0x86, 0x3b, 0xb9, 0xca, 0x9f, 0x3b, 0xea, 0x8c, 0x98, 0x3b,
  0xca, 0x15, 0xa7, 0x3b, 0x18, 0x00, 0x00, 0x00, 0x73, 0x65, 0x71, 0x75,
  0x65, 0x6e, 0x74, 0x69, 0x61, 0x6c, 0x2f, 0x63, 0x6f, 0x6e, 0x76, 0x32,
  0x64, 0x2f, 0x43, 0x6f, 0x6e, 0x76, 0x32, 0x44, 0x00, 0x00, 0x00, 0x00,
  0x04, 0x00, 0x00, 0x00, 0x04, 0x00, 0x00, 0x00, 0x03, 0x00, 0x00, 0x00,
  0x03, 0x00, 0x00, 0x00, 0x01, 0x00, 0x00, 0x00, 0x8e, 0xfe, 0xff, 0xff,
  0x00, 0x00, 0x00, 0x01, 0x14, 0x00, 0x00, 0x00, 0x54, 0x00, 0x00, 0x00,
  0x05, 0x00, 0x00, 0x00, 0x00, 0x00, 0x00, 0x02, 0x78, 0x00, 0x00, 0x00,
  0xfc, 0xfd, 0xff, 0xff, 0x08, 0x00, 0x00, 0x00, 0x28, 0x00, 0x00, 0x00,
  0x04, 0x00, 0x00, 0x00, 0x00, 0x00, 0x00, 0x00, 0x00, 0x00, 0x00, 0x00,
  0x00, 0x00, 0x00, 0x00, 0x00, 0x00, 0x00, 0x00, 0x00, 0x00, 0x00, 0x00,
  0x00, 0x00, 0x00, 0x00, 0x00, 0x00, 0x00, 0x00, 0x00, 0x00, 0x00, 0x00,
  0x04, 0x00, 0x00, 0x00, 0x5a, 0xe0, 0x86, 0x37, 0x25, 0x6b, 0xa0, 0x37,
  0x11, 0x26, 0x99, 0x37, 0x88, 0xbd, 0xa7, 0x37, 0x28, 0x00, 0x00, 0x00,
  0x73, 0x65, 0x71, 0x75, 0x65, 0x6e, 0x74, 0x69, 0x61, 0x6c, 0x2f, 0x63,
  0x6f, 0x6e, 0x76, 0x32, 0x64, 0x2f, 0x42, 0x69, 0x61, 0x73, 0x41, 0x64,
  0x64, 0x2f, 0x52, 0x65, 0x61, 0x64, 0x56, 0x61, 0x72, 0x69, 0x61, 0x62,
  0x6c, 0x65, 0x4f, 0x70, 0x00, 0x00, 0x00, 0x00, 0x01, 0x00, 0x00, 0x00,
  0x04, 0x00, 0x00, 0x00, 0x26, 0xff, 0xff, 0xff, 0x00, 0x00, 0x00, 0x01,
  0x14, 0x00, 0x00, 0x00, 0x34, 0x00, 0x00, 0x00, 0x04, 0x00, 0x00, 0x00,
  0x00, 0x00, 0x00, 0x09, 0x44, 0x00, 0x00, 0x00, 0x94, 0xfe, 0xff, 0xff,
  0x08, 0x00, 0x00, 0x00, 0x14, 0x00, 0x00, 0x00, 0x01, 0x00, 0x00, 0x00,
  0x00, 0x00, 0x00, 0x00, 0x00, 0x00, 0x00, 0x00, 0x00, 0x00, 0x00, 0x00,
  0x01, 0x00, 0x00, 0x00, 0x7f, 0xc2, 0x86, 0x3b, 0x17, 0x00, 0x00, 0x00,
  0x73, 0x65, 0x71, 0x75, 0x65, 0x6e, 0x74, 0x69, 0x61, 0x6c, 0x2f, 0x64,
  0x65, 0x6e, 0x73, 0x65, 0x2f, 0x4d, 0x61, 0x74, 0x4d, 0x75, 0x6c, 0x00,
  0x02, 0x00, 0x00, 0x00, 0x0a, 0x00, 0x00, 0x00, 0x90, 0x00, 0x00, 0x00,
  0x8e, 0xff, 0xff, 0xff, 0x00, 0x00, 0x00, 0x01, 0x14, 0x00, 0x00, 0x00,
  0x30, 0x00, 0x00, 0x00, 0x03, 0x00, 0x00, 0x00, 0x00, 0x00, 0x00, 0x02,
  0x50, 0x00, 0x00, 0x00, 0xfc, 0xfe, 0xff, 0xff, 0x08, 0x00, 0x00, 0x00,
  0x10, 0x00, 0x00, 0x00, 0x01, 0x00, 0x00, 0x00, 0x00, 0x00, 0x00, 0x00,
  0x00, 0x00, 0x00, 0x00, 0x01, 0x00, 0x00, 0x00, 0x1d, 0xbb, 0x3e, 0x38,
  0x27, 0x00, 0x00, 0x00, 0x73, 0x65, 0x71, 0x75, 0x65, 0x6e, 0x74, 0x69,
  0x61, 0x6c, 0x2f, 0x64, 0x65, 0x6e, 0x73, 0x65, 0x2f, 0x42, 0x69, 0x61,
  0x73, 0x41, 0x64, 0x64, 0x2f, 0x52, 0x65, 0x61, 0x64, 0x56, 0x61, 0x72,
  0x69, 0x61, 0x62, 0x6c, 0x65, 0x4f, 0x70, 0x00, 0x01, 0x00, 0x00, 0x00,
  0x0a, 0x00, 0x00, 0x00, 0x00, 0x00, 0x16, 0x00, 0x1c, 0x00, 0x18, 0x00,
  0x17, 0x00, 0x10, 0x00, 0x0c, 0x00, 0x08, 0x00, 0x00, 0x00, 0x00, 0x00,
  0x00, 0x00, 0x07, 0x00, 0x16, 0x00, 0x00, 0x00, 0x00, 0x00, 0x00, 0x01,
  0x18, 0x00, 0x00, 0x00, 0x18, 0x00, 0x00, 0x00, 0x02, 0x00, 0x00, 0x00,
  0x00, 0x00, 0x00, 0x02, 0x2c, 0x00, 0x00, 0x00, 0x04, 0x00, 0x04, 0x00,
  0x04, 0x00, 0x00, 0x00, 0x18, 0x00, 0x00, 0x00, 0x73, 0x65, 0x71, 0x75,
  0x65, 0x6e, 0x74, 0x69, 0x61, 0x6c, 0x2f, 0x66, 0x6c, 0x61, 0x74, 0x74,
  0x65, 0x6e, 0x2f, 0x43, 0x6f, 0x6e, 0x73, 0x74, 0x00, 0x00, 0x00, 0x00,
  0x01, 0x00, 0x00, 0x00, 0x02, 0x00, 0x00, 0x00, 0x00, 0x00, 0x16, 0x00,
  0x20, 0x00, 0x1c, 0x00, 0x1b, 0x00, 0x14, 0x00, 0x10, 0x00, 0x0c, 0x00,
  0x00, 0x00, 0x00, 0x00, 0x08, 0x00, 0x07, 0x00, 0x16, 0x00, 0x00, 0x00,
  0x00, 0x00, 0x00, 0x01, 0x18, 0x00, 0x00, 0x00, 0x34, 0x00, 0x00, 0x00,
  0x50, 0x00, 0x00, 0x00, 0x01, 0x00, 0x00, 0x00, 0x00, 0x00, 0x00, 0x09,
  0x68, 0x00, 0x00, 0x00, 0x04, 0x00, 0x00, 0x00, 0xff, 0xff, 0xff, 0xff,
  0x08, 0x00, 0x00, 0x00, 0x08, 0x00, 0x00, 0x00, 0x01, 0x00, 0x00, 0x00,
  0x0c, 0x00, 0x0c, 0x00, 0x00, 0x00, 0x00, 0x00, 0x08, 0x00, 0x04, 0x00,
  0x0c, 0x00, 0x00, 0x00, 0x08, 0x00, 0x00, 0x00, 0x10, 0x00, 0x00, 0x00,
  0x01, 0x00, 0x00, 0x00, 0x80, 0xff, 0xff, 0xff, 0xff, 0xff, 0xff, 0xff,
  0x01, 0x00, 0x00, 0x00, 0x81, 0x80, 0x80, 0x3b, 0x1e, 0x00, 0x00, 0x00,
  0x73, 0x65, 0x72, 0x76, 0x69, 0x6e, 0x67, 0x5f, 0x64, 0x65, 0x66, 0x61,
  0x75, 0x6c, 0x74, 0x5f, 0x63, 0x6f, 0x6e, 0x76, 0x32, 0x64, 0x5f, 0x69,
  0x6e, 0x70, 0x75, 0x74, 0x3a, 0x30, 0x00, 0x00, 0x04, 0x00, 0x00, 0x00,
  0x01, 0x00, 0x00, 0x00, 0x08, 0x00, 0x00, 0x00, 0x08, 0x00, 0x00, 0x00,
  0x01, 0x00, 0x00, 0x00, 0x04, 0x00, 0x00, 0x00, 0x54, 0x00, 0x00, 0x00,
  0x38, 0x00, 0x00, 0x00, 0x18, 0x00, 0x00, 0x00, 0x04, 0x00, 0x00, 0x00,
  0xc8, 0xff, 0xff, 0xff, 0x19, 0x00, 0x00, 0x00, 0x02, 0x00, 0x00, 0x00,
  0x00, 0x00, 0x00, 0x19, 0xd8, 0xff, 0xff, 0xff, 0x09, 0x00, 0x00, 0x00,
  0x04, 0x00, 0x00, 0x00, 0x00, 0x00, 0x00, 0x09, 0x0c, 0x00, 0x0c, 0x00,
  0x0b, 0x00, 0x00, 0x00, 0x00, 0x00, 0x04, 0x00, 0x0c, 0x00, 0x00, 0x00,
  0x16, 0x00, 0x00, 0x00, 0x00, 0x00, 0x00, 0x16, 0x0c, 0x00, 0x10, 0x00,
  0x0f, 0x00, 0x00, 0x00, 0x08, 0x00, 0x04, 0x00, 0x0c, 0x00, 0x00, 0x00,
  0x03, 0x00, 0x00, 0x00, 0x03, 0x00, 0x00, 0x00, 0x00, 0x00, 0x00, 0x03
};
unsigned int __digit_model_int8_tflite_len = 4008;
